#version: 0.2 - Trained by `huggingface/tokenizers`
t h
th e</w>
e r
t i
o f</w>
2 0
e n
i n</w>
i n
a n
e d</w>
r o
r e
20 1
a r
o n</w>
o n
t a
o r
e s</w>
t o</w>
e r</w>
i t
o u
an d</w>
en t</w>
p er
a l
in g</w>
h i
t s</w>
l i
b y</w>
per c
a t
a s</w>
r i
ro m</w>
f rom</w>
perc ent</w>
ti on</w>
i l
o m
e c
u r
s ta
s t
o r</w>
s h
s ti
d i
a s
a c
o w
a g
a l</w>
sti c</w>
o l
v i
a t</w>
e l
201 9</w>
s p
sta ti
stati stic</w>
hi s</w>
T his</w>
t ed</w>
a n</w>
s t</w>
e n</w>
n it
e m
d u
a m
u m
U nit
Unit ed</w>
s i
20 2
il li
I n</w>
er s</w>
ou n
en ts</w>
p ro
ar e</w>
o p
b er</w>
c e</w>
sh ow
illi on</w>
y e
202 0</w>
u l
show s</w>
T h
d e
ar s</w>
ag e</w>
i c
U .
a tion</w>
e y</w>
U. S
U.S .</w>
er e</w>
u s
t es</w>
c on
l y</w>
f or</w>
Th e</w>
th at</w>
l o
l e</w>
20 0
c om
S ta
v er
a r</w>
Sta tes</w>
201 8</w>
b e
a p
w as</w>
h a
u n
w it
e t</w>
w or
t r
ol l
s e
a d
w ere</w>
a ti
wit h</w>
w e
um ber</w>
i d
m o
r u
on s</w>
p or
s ur
v e</w>
i s</w>
w h
c h
b u
p re
e s
en d
e x
re sp
u e</w>
m ar
o o
on d
c h</w>
m illion</w>
t h</w>
f i
c o
g i
g ro
i m
a b
201 7</w>
du c
resp ond
c oun
t o
l e
sur v
' s</w>
g h
in g
com p
m ent</w>
d oll
t er
l d
q u
ta l</w>
doll ars</w>
respond ents</w>
d s</w>
sh are</w>
s ec
c i
ri bu
at e</w>
surv ey</w>
id e</w>
ye ar</w>
ou t</w>
it y</w>
e i
n umber</w>
m e
d o
w ide</w>
op ul
p e
v en
ld wide</w>
i c</w>
or e</w>
wor ldwide</w>
ro n
g e</w>
p opul
201 6</w>
al es</w>
at ed</w>
a y
p ri
e st</w>
ribu tion</w>
in e</w>
v er</w>
a y</w>
d ing</w>
v e
1 9</w>
u ro
b illion</w>
pro duc
s u
u p</w>
201 4</w>
st ribution</w>
n g</w>
ye ars</w>
el y</w>
c or
t er</w>
ar y</w>
do m</w>
re as
mar k
r an
201 5</w>
K ing
ver age</w>
n e
King dom</w>
t we
el ec
ha d</w>
a i
ur ing</w>
201 2</w>
p er</w>
th ey</w>
as t</w>
m er
ru s</w>
mo st</w>
twe en</w>
in c
s e</w>
al l</w>
sec t
re ven
a vi
w hi
wh o</w>
t ri
U K</w>
ei r</w>
th eir</w>
ab out</w>
st r
popul ation</w>
s er
p l
be tween</w>
s s</w>
l d</w>
201 3</w>
ron avi
s ales</w>
ronavi rus</w>
p o
to tal</w>
f or
p e</w>
c es</w>
g r
re gi
mark et</w>
g end
co ronavirus</w>
C O
pre s
i t</w>
gend er</w>
an y</w>
p ar
s um
m a
200 9</w>
D -
V I
on e</w>
CO VI
on g</w>
COVI D-
p lo
COVID- 19</w>
ti m
reven ue</w>
in ter
re c
r ate</w>
201 0</w>
em plo
0 0
v al
a verage</w>
1 9
en er
ur e</w>
f f
th ou
o ver</w>
es s</w>
t y
al e</w>
n et</w>
ti ons</w>
M ar
th an</w>
en ta
op le</w>
inc reas
re s</w>
l u
on al</w>
a du
con sum
l ine</w>
y o
pe ople</w>
I n
per i
am oun
m ore</w>
s o
om e
ser vi
A mer
Amer ic
N umber</w>
cor ding</w>
th er</w>
am ong</w>
sect or</w>
e p
an s</w>
b e</w>
ap pro
yo u</w>
x im
enta ge</w>
ex p
ag ed</w>
h ou
h o
si d
at ely</w>
s c
em ber</w>
di stribution</w>
ti ng</w>
gro up</w>
i es</w>
ha ve</w>
n o
e b
tr y</w>
adu l
m on
regi on</w>
xim ately</w>
o d</w>
i s
hi gh
us ers</w>
1 .
g u
Mar ch</w>
ay s</w>
ty pe</w>
ci al</w>
lo b
al s</w>
coun try</w>
E uro
sp l
thou s
appro ximately</w>
lob al</w>
pres ents</w>
h e
th is</w>
i l</w>
k ing</w>
re a
qu ar
un d</w>
comp ar
peri od</w>
in du
g ener
or s</w>
thous and</w>
S h
u b
C an
am e</w>
on line</w>
an d
ow n</w>
produc t</w>
re s
val ue</w>
ou ld</w>
b il
ve l</w>
me di
h as</w>
Sh are</w>
w om
v o
an ce</w>
D uring</w>
por ted</w>
, 00
t u
adul ts</w>
at es</w>
D i
om e</w>
b i
en ti
n i
p ic
201 1</w>
e uro
for m
A c
ol d</w>
d ec
r a
th s</w>
str y</w>
on om
sta ted</w>
euro s</w>
an u
tri es</w>
ome stic</w>
ro und</w>
g lobal</w>
ec onom
wom en</w>
ec ted</w>
indu stry</w>
an t</w>
coun tries</w>
whi le</w>
ou r
tim e</w>
c hi
amoun ted</w>
ou r</w>
di spl
2 .
d omestic</w>
t e</w>
t y</w>
ch an
k s</w>
l and</w>
al ly</w>
ub li
200 8</w>
ai d</w>
a round</w>
gh t</w>
bil e</w>
s h</w>
fi r
p h
us e</w>
N e
A s</w>
por t</w>
B ri
re e</w>
quar ter</w>
t e
emplo y
tr a
Ac cording</w>
G D
ou t
Di stribution</w>
GD P</w>
ac c
displ ays</w>
c y</w>
us ed</w>
res ul
ac ti
,00 0</w>
re ta
d er</w>
de pic
whi ch</w>
inter net</w>
v ed</w>
ou s</w>
depic ts</w>
n u
ati onal</w>
oo d</w>
mo bile</w>
c as
gro ss</w>
d uring</w>
gr ap
econom ic</w>
g h</w>
es s
d own</w>
f o
ti es</w>
re ported</w>
2 0</w>
o ver
perc entage</w>
I ta
in di
C h
high est</w>
e g
ad a</w>
3 .
b o
b as
f em
er m
compar ed</w>
s elec
s it
f in
oll ow
d ay</w>
t w
em ic</w>
se g
servi ces</w>
t ure</w>
J anu
c al</w>
f ollow
con t
g est</w>
l ar
ri c
Janu ary</w>
s hi
end ing</w>
f ac
ac coun
oun d</w>
se as
p tion</w>
p s</w>
an ts</w>
ati ons</w>
A u
o c
we e
1 8</w>
Can ada</w>
m en</w>
v ing</w>
N or
g am
t ly</w>
oo k</w>
so cial</w>
f e
en ce</w>
n g
ati ng</w>
F ac
b rea
ow n
seg ment</w>
al th</w>
P er
ad ing</w>
G erm
4 .
ubli c</w>
ro u
er ed</w>
c at
at a</w>
i a</w>
resul ts</w>
0 .
u d
th ere</w>
i r
w ould</w>
no t</w>
v el
6 .
re g
re ac
or y</w>
u m</w>
en d</w>
increas ed</w>
reta il</w>
comp an
si a</w>
se h
d ed</w>
b ro
s ch
t ers</w>
ma j
Euro pe
fem ale</w>
a re
d ata</w>
f ound</w>
in ce</w>
ver y</w>
k e</w>
emplo ye
and emic</w>
Europe an</w>
A pri
c l
th er
medi a</w>
fir st</w>
Apri l</w>
on ly</w>
un e</w>
tr an
p andemic</w>
it s</w>
compan ies</w>
5 .
k ed</w>
s aid</w>
ro ss</w>
gro w
il y</w>
b le</w>
hou seh
g y</w>
p ur
im por
cat eg
employe es</w>
on d</w>
si on</w>
comp any</w>
servi ce</w>
/ 1
w il
selec ted</w>
J une</w>
d o</w>
v es</w>
employ ment</w>
b us
ti sh</w>
l an
com e</w>
m i
re qu
sp or
increas e</w>
form ation</w>
F ran
en g
be en</w>
ad e</w>
grap h</w>
R e
m u
Bri tish</w>
m ale</w>
su p
gener ated</w>
fo rec
vi du
Per c
200 0</w>
nu al</w>
o ther</w>
in formation</w>
indi vidu
bus in
7 .
in i
19 9
h ome</w>
ri s
st ud
ab le</w>
8 .
j u
k en</w>
a m</w>
f a
s or
ch as
c u
c er
s ame</w>
t ur
th o
sect ors</w>
Germ any</w>
Fran ce</w>
consum ers</w>
b r
as s
3 0</w>
f e</w>
brea k</w>
lar gest</w>
w i
en cy</w>
0 0</w>
F eb
Euro pe</w>
1 2</w>
ar i
ac ross</w>
out break</w>
seas on</w>
Feb ru
m illi
chi ld
Febru ary</w>
o v
ar ly</w>
eb ook</w>
individu als</w>
s our
en e
sec ond</w>
du e</w>
T o
o w</w>
gu st</w>
bas ed</w>
Au gust</w>
o per
w at
grow th</w>
g e
de vi
pre vi
he alth</w>
pur chas
t en</w>
In di
n ational</w>
ol ds</w>
oo l</w>
m ents</w>
Fac ebook</w>
5 0</w>
L e
Ita ly</w>
Perc entage</w>
milli ons</w>
1 5</w>
e -
in come</w>
re n</w>
sti m
sp ending</w>
ci p
produc ts</w>
dec reas
a d</w>
a ths</w>
per s
ing s</w>
wil l</w>
previ ous</w>
di c
c ar
f er
s el
l ow
th ree</w>
de aths</w>
1 4</w>
em ent</w>
par ti
child ren</w>
st o
sh op
b an
s mar
pre sid
enti al</w>
categ ory</w>
e qu
2 5</w>
o ff
s o</w>
M ay</w>
a u
m in
p ublic</w>
l ed</w>
s es</w>
wh en</w>
ribu ted</w>
lan ds</w>
e th
s ing</w>
t ec
Americ an</w>
E ng
f fi
wor ld</w>
cas es</w>
sch ool</w>
d er
e ar
ac cording</w>
vi e
D ec
forec ast</w>
2 4</w>
oun ds</w>
st ru
con duc
T V</w>
in f
it e</w>
st ed</w>
su b
tw o</w>
accoun ted</w>
an nual</w>
al ity</w>
al most</w>
pri ce</w>
str ates</w>
shi p</w>
Dec ember</w>
G re
w s</w>
le ading</w>
p ounds</w>
A verage</w>
s ed</w>
re l
il lu
com m
sor ted</w>
c an
ta l
Ne ther
tho se</w>
conduc ted</w>
Nether lands</w>
e stim
sta te</w>
illu strates</w>
I t</w>
n ed</w>
ph one</w>
stru c
i g
v ol
at t
tra vel</w>
br and</w>
Americ a</w>
exp ected</w>
eth n
N ov
O c
u es</w>
le vel</w>
f ic
Ch in
p ac
li fe</w>
Americ ans</w>
sto res</w>
c an</w>
e ver</w>
n ing</w>
Nor th</w>
busin ess</w>
W h
a di
popul ar</w>
M o
f requ
g re
ac e</w>
Nov ember</w>
h al
k e
2 9</w>
P ol
ta in</w>
produc tion</w>
elec tions</w>
wi th
c are</w>
pl at
bro ken</w>
parti cip
s ince</w>
v en</w>
in k</w>
es e</w>
wee k</w>
f ood</w>
l ess</w>
m il
si g
b l
us ing</w>
fi ve</w>
8 /
R us
c ap
gu res</w>
ric ul
Eng land</w>
z e</w>
in sur
ou th</w>
ol o
con sid
cont ributed</w>
A f
c a
or g
end it
to ber</w>
mon ths</w>
rou gh
reac h
stud ents</w>
Oc tober</w>
r en
hi gh</w>
vi de
ha b
ep t
hal f</w>
f ur
l ast</w>
ag ricul
consum ption</w>
4 0</w>
S we
a in</w>
on -
sp ent</w>
ne w</w>
1 6</w>
c ri
op ini
smar t
6 5</w>
m s</w>
acti ve</w>
over n
ap p</w>
S ept
por ts</w>
Sept ember</w>
S p
wor k</w>
exp endit
sour ce</w>
sp ec
fi sc
po li
fisc al</w>
in ve
6 0</w>
9 .
F or</w>
li e
impor t
h el
l a
de vel
c ur
el s</w>
tri c</w>
estim ated</w>
Pol and</w>
B el
G ro
H ow</w>
ac k</w>
vi si
gam es</w>
househ olds</w>
C on
f u
b ran
e l</w>
ac h</w>
A l
h n
p ing</w>
or ity</w>
me as
Indi a</w>
6 4</w>
M e
s ome</w>
y our</w>
th e
er e
Can adi
follow ing</w>
presid ential</w>
d a
Chin a</w>
G B
th ink</w>
insur ance</w>
b ers</w>
d e</w>
li k
par t
1 ,000</w>
u nit
ag es</w>
be lie
s y
t ons</w>
pro j
lik ely</w>
unit s</w>
a f
t ou
201 8/
exp ec
fin an
struc ture</w>
ethn ic
f oo
p ast</w>
ar d</w>
al so</w>
gi tal</w>
high er</w>
m an
to p</w>
p ay
ti ve</w>
pro vi
lo c
tr ation</w>
amoun t</w>
opini on</w>
1 0</w>
D o</w>
U ni
e duc
ati ve</w>
To tal</w>
A p
wor k
bi r
w ay</w>
th ly</w>
de x</w>
200 7</w>
le ast</w>
pl ay
is on</w>
ere as</w>
9 /
d en</w>
o b
th ir
ff er
hou r
acc ess
vide o</w>
hab it
3 4</w>
d r
g overn
t b
y ing</w>
in ed</w>
in habit
ul y</w>
for m</w>
Bri tain</w>
ethnic ity</w>
3 5</w>
J uly</w>
p ass
un der</w>
maj ority</w>
Bel gi
inhabit ants</w>
f our</w>
s ts</w>
v or
am s</w>
com mer
pri v
tim es</w>
e y
ene tration</w>
inve st
import ant</w>
da ily</w>
4 5</w>
e ff
f t</w>
mark e
maj or</w>
1 8
S outh</w>
c lo
ri ed</w>
el l</w>
sc ri
reg ul
expendit ure</w>
2 8</w>
c ars</w>
di s
ai r
mon th</w>
olo gy</w>
3 1</w>
an cy</w>
al i
li an</w>
di d</w>
se x
compar ison</w>
spor ts</w>
Gre at</w>
A r
e ach</w>
di gital</w>
um e</w>
con cer
wh ereas</w>
hour s</w>
tb all</w>
li c
as s</w>
ex port</w>
inc lu
reven ues</w>
frequ ency</w>
2018/ 19</w>
P re
d em
f ore</w>
p enetration</w>
si ze</w>
ne t
Gro up</w>
k il
v ely</w>
tec hn
priv ate</w>
B o
R ep
f am
us age</w>
le as
ne arly</w>
fur ther</w>
smart phone</w>
finan cial</w>
1 7</w>
l es</w>
201 9/
ag ue</w>
be ing</w>
por tion</w>
oo ds</w>
elec tion</w>
devel op
GB P</w>
Uni on</w>
m ade</w>
o f
in t
at h</w>
di ffer
tou ris
1 1</w>
r ed</w>
i f</w>
p ati
ap p
l ing</w>
r ati
u al</w>
or ies</w>
st re
200 6</w>
wh at</w>
surv ey
with in</w>
C o
g o
ti cal</w>
sti tu
vi a</w>
mo vi
2 1</w>
m or
p age</w>
be fore</w>
su ch</w>
reg ar
2 3</w>
4 4</w>
n on-
li ving</w>
202 1</w>
me tric</w>
Canadi an</w>
c ed</w>
g et</w>
s old</w>
ti c
en ter
an s
em s</w>
decreas ed</w>
shop ping</w>
thir d</w>
2019/ 20</w>
f un
re presents</w>
ic i
wit ter</w>
im pac
ma in</w>
ra z
chan ge</w>
vol ume</w>
c oll
in es</w>
st e
ap ps</w>
co st</w>
pass eng
1 00
d es</w>
g oods</w>
s a
re sta
st om
ne ws</w>
ni fic
sig nific
hel d</w>
visi t</w>
bran ds</w>
govern ment</w>
B raz
M ex
P ro
f ran
k down</w>
ex c
Ita lian</w>
ju st</w>
Mex ic
7 0</w>
u res</w>
ho w</w>
Swe den</w>
af ter</w>
P ar
st ri
devi ce</w>
Rus sia</w>
reach ed</w>
D en
bo th</w>
wat ch
resta ur
F i
c ul
pre fer
ne l</w>
gener ation</w>
Sp ain</w>
Belgi um</w>
2 7</w>
k et</w>
u ps</w>
gr am</w>
ener gy</w>
te en
rough ly</w>
g er</w>
de ath</w>
wor king</w>
rec ent</w>
1 00</w>
2 6</w>
W hi
d ro
re cor
mar k</w>
are a</w>
agricul ture</w>
leas e</w>
pati ents</w>
A n
L i
a in
c c
p le</w>
s ome
tran s
survey ed</w>
100 ,000</w>
st ered</w>
househ old</w>
educ ation</w>
c ame</w>
g as</w>
h om
w in
er ship</w>
al l
sp i
con tr
sub scri
Af ric
0 s</w>
1 3</w>
in to</w>
om in
si c</w>
im port</w>
mon thly</w>
C or
O n
ol der</w>
vi sit
se ar
cu stom
fran chi
2 2</w>
b oo
r ates</w>
s si
il l
di d
ow ever</w>
ag ers</w>
ex peri
po si
Den mark</w>
c re
an ic</w>
ec ti
pri ces</w>
rea d</w>
impor ts</w>
techn ology</w>
3 2</w>
C om
w a
y oun
ta ble</w>
wh ere</w>
comp u
rou gh</w>
a k
y si
an i
ver ti
ru ption</w>
regi stered</w>
reac h</w>
can did
regar ding</w>
L ati
t re
th ese</w>
ac i
gro ups</w>
ran ked</w>
plat form</w>
Braz il</w>
5 5</w>
E U</w>
F in
c ar</w>
m anu
re ve
se x</w>
consum er</w>
employ ed</w>
mu ch</w>
dic ated</w>
vie w
sex ual</w>
I T</w>
f ul
t ancy</w>
ro l
sp end</w>
de dicated</w>
bu t</w>
follow ed</w>
n ey</w>
s al
t or</w>
en tly</w>
vi sion</w>
ho spi
sc ore</w>
chan nel</w>
5 4</w>
D em
c ity</w>
lo w</w>
ad verti
inter national</w>
vo tes</w>
tran spl
part n
manu fac
ar ds</w>
ta c
sh ould</w>
elec t
expec tancy</w>
franchi se</w>
` `</w>
o s</w>
per s</w>
we b
ex ports</w>
ho li
comm on</w>
spec i
touris m</w>
impac t</w>
' '</w>
m ed</w>
p r
in stitu
reta il
sup p
f il
ai r</w>
pl ace</w>
vo ted</w>
over all</w>
fa vor
dem and</w>
Mexic o</w>
H i
Lati n</w>
8 0</w>
m en
p lease</w>
al th
ur al</w>
bu d
wee k
mu sic</w>
tur n
oper ating</w>
bir th</w>
regul ar</w>
Dem oc
b ec
d ays</w>
e t
s li
in dex</w>
st ore</w>
si an</w>
ic al</w>
ha ving</w>
un i
ei ght</w>
ei ved</w>
par ty</w>
grap hi
the m</w>
3 6</w>
g a
j o
th rough</w>
on ally</w>
si x</w>
resp on
fi ed</w>
ve hi
po in
consum ed</w>
acc ess</w>
shi p
ffi c</w>
adverti sing</w>
A ge</w>
J ap
O n</w>
p aid</w>
am a</w>
wh e
ch ar
fi gures</w>
sit es</w>
devi ces</w>
1 ,
4 7</w>
4 9</w>
O f</w>
b or
c en
w ai
en ces</w>
Ne w</w>
org an</w>
c y
c ould</w>
h ar
l y
m ac
di rec
fi c</w>
invest ment</w>
Fi gures</w>
3 9</w>
7 5</w>
V al
a v
pro portion</w>
200 5</w>
In ter
adul t</w>
tra ffic</w>
Re ven
ffi ce</w>
att end
g ran
o il</w>
200 4</w>
ati s
es si
ph ysi
Le ague</w>
/ 0
4 2</w>
5 1</w>
e e</w>
i li
k ey</w>
s ol
ti onal</w>
an a</w>
an ti
is h</w>
vo te</w>
follow ers</w>
ng s</w>
low est</w>
develop ment</w>
3 8</w>
F ren
S t
z ed</w>
co sts</w>
cont ent</w>
decreas e</w>
Mo st</w>
differ ent</w>
3 7</w>
3 3</w>
6 3</w>
on es</w>
ur ed</w>
1 ,00
B ar
T witter</w>
l l</w>
p es</w>
vi c
vi ties</w>
bi a</w>
form s</w>
sup port</w>
access ed</w>
coll e
attend ance</w>
Fren ch</w>
4 1</w>
N ational</w>
a il
b er
f ans</w>
g ed</w>
g ree</w>
i ce</w>
s k
t ors</w>
as se
tr ade</w>
gr ams</w>
sit e</w>
equ ality</w>
foo tball</w>
Reven ue</w>
C ol
M al
g ure</w>
s atis
th ing</w>
di seas
de gree</w>
un ic
ati on
mar y</w>
fi gure</w>
ep tion</w>
he alth
enter pri
1,00 0s</w>
4 6</w>
4 3</w>
B e
G lobal</w>
T r
d own
m e</w>
n o</w>
p ed</w>
s m
u s</w>
ag ement</w>
fir med</w>
acti vities</w>
spor t</w>
sear ch</w>
d ru
o re
o ffice</w>
th em
201 0
ta in
al co
el ine</w>
purchas e</w>
belie ved</w>
proj ected</w>
Fin land</w>
re al</w>
ar ing</w>
it ary</w>
di t</w>
ag re
202 2</w>
id es</w>
medi cal</w>
selec t</w>
pers onal</w>
consid ered</w>
c el
i tal</w>
l it
m any</w>
n ess</w>
y s</w>
or ig
gr adu
thou gh</w>
bi g
rel ated</w>
plat forms</w>
commer ce</w>
of ten</w>
A sia</w>
d ers</w>
g ame</w>
m em
201 5
ag ain
202 5</w>
vo ters</w>
Fac ts</w>
marke ts</w>
teen agers</w>
Hi sp
again st</w>
1 0
1 st</w>
5 3</w>
b ac
re ma
ur ity</w>
si s</w>
con firmed</w>
se ven</w>
pre mi
oo g
pl an
tim eline</w>
inter est</w>
so ci
own ed</w>
poli tical</w>
proj ec
prefer red</w>
G oog
H owever</w>
f er</w>
f el
o t
u p
v ari
ti l</w>
on g
sta tes</w>
sh ed</w>
ac tions</w>
el e
con di
cl es</w>
/1 1</w>
ear ned</w>
Wh at</w>
pay ment</w>
2010 /11</w>
Goog le</w>
W or
c le</w>
am p
de b
ic ide</w>
un employment</w>
tr u
gro cer
par t</w>
tur al</w>
stre am
recor ded</w>
1 1.
N B
c le
g al</w>
g ood</w>
l -
m p
n els</w>
r ent</w>
ur y</w>
con ti
chan nels</w>
fam ily</w>
candid ate</w>
week ly</w>
7 6</w>
A m
R om
d on
p ow
w ell</w>
er ing</w>
ta li
li st</w>
ol s</w>
pro f
un til</w>
ty pes</w>
sid ent</w>
te am</w>
ess es</w>
bro ad
/1 6</w>
equ i
2015 /16</w>
6 2</w>
K ore
M on
O ly
c lu
l li
m ul
t ow
de li
sur e</w>
ter ms</w>
indi c
gam ing</w>
own ership</w>
ig n</w>
particip ants</w>
mil itary</w>
passeng er</w>
retail ers</w>
B y</w>
b le
c e
f ans
si ons</w>
ic s</w>
ic ides</w>
id enti
wh ite</w>
Ch ri
signific ant</w>
colle ge</w>
asse ts</w>
big gest</w>
NB A</w>
lli on</w>
fans /
1 7
d y</w>
l at
m at
v ity</w>
ta bl
al ed</w>
sp e
wh ol
sec urity</w>
pri mary</w>
acc ep
resul t</w>
fo re
cu p
meas ured</w>
Afric a</w>
compu ter</w>
Jap an</w>
P opul
f li
o graphi
r y</w>
sti c
gh ts</w>
elec tri
Nor way</w>
meas ures</w>
Rep ublic</w>
Whi ch</w>
whe ther</w>
Val ue</w>
fel t</w>
grocer y</w>
mul ti
1 0.
7 1</w>
H a
O ver</w>
S ince</w>
e very</w>
m er</w>
m ales</w>
p ay</w>
z ation</w>
or i
at tac
il ity</w>
st ar
ag ree</w>
ex t</w>
cor ruption</w>
po ssi
purchas ed</w>
commer cial</w>
movi e</w>
H e
Y ou
g es</w>
t t
sti n
ag no
sp read</w>
em ents</w>
pro v
mon ey</w>
fem ales</w>
car ried</w>
eff ici
Rep ubli
youn g</w>
men tal</w>
4 8</w>
5 6</w>
8 9</w>
D e
G am
I re
P aci
an tly</w>
it a</w>
st er
as ked</w>
um p</w>
200 2</w>
un it</w>
gi ves</w>
sec ond
for ce</w>
thou ght</w>
tra vel
are as</w>
busin esses</w>
sel ves</w>
low er</w>
concer ned</w>
reve aled</w>
sal ary</w>
enterpri ses</w>
them selves</w>
Ire land</w>
Paci fic</w>
5 9</w>
7 4</w>
C hi
F Y</w>
O b
g o</w>
n at
n ine</w>
en ced</w>
ta ken</w>
se en</w>
por ation</w>
es sion</w>
respond ing</w>
indu stri
cap ita</w>
man agement</w>
bud get</w>
down lo
prof essi
fore ign</w>
P or
T u
b el
b an</w>
d ating</w>
p oll
w el
en rol
li gi
st ron
ac h
un der
ab ility</w>
increas ing</w>
acti vity</w>
cl ass</w>
shop pers</w>
tal s</w>
belie ve</w>
work ers</w>
eff ec
inclu ding</w>
transpl ant</w>
diseas e</w>
tain ment</w>
Hisp anic</w>
5 00</w>
A t</w>
V i
c ro
g s</w>
l s</w>
o ols</w>
in s</w>
or al</w>
st ood</w>
Th at</w>
ne g
tri llion</w>
gam ers</w>
brea kdown</w>
199 0</w>
pers on</w>
gre w</w>
agricul tural</w>
Ap ple</w>
cre dit</w>
Be tween</w>
agre ed</w>
Popul ation</w>
You Tu
6 6</w>
6 9</w>
8 5</w>
D u
O ver
a ff
s ity</w>
ti z
an ia</w>
re ad
st er</w>
di agno
be er</w>
ha vi
wor th</w>
rough out</w>
Me dic
movi es</w>
restaur ants</w>
Mal ay
mem bers</w>
effici ent</w>
YouTu be</w>
E x
M a
c li
d ings</w>
m id
u ation</w>
er y</w>
ti ngs</w>
on ce</w>
ta tion</w>
um s</w>
us er</w>
im mi
pres cri
Mar ket</w>
ra ft</w>
ph ones</w>
oc cup
dr in
net work</w>
ecti vely</w>
institu tions</w>
ship ments</w>
wai ting</w>
tow ards</w>
1 4.
2 ,
6 1</w>
7 8</w>
L ond
S ales</w>
e u
k n
s ing
en ted</w>
en ni
hi on</w>
st and</w>
as hion</w>
be havi
hou se</w>
tu al</w>
accoun t</w>
Au str
Germ an</w>
au di
particip ated</w>
fun ds</w>
Ob ama</w>
9 0</w>
U S</w>
c er</w>
c our
r e</w>
re pres
per form
li sh</w>
resp ectively</w>
exp en
tu s</w>
wee ks</w>
reach ing</w>
fu el</w>
restaur ant</w>
some what</w>
jo b</w>
electri city</w>
5 8</w>
7 7</w>
G u
L u
V o
a im
f ru
h and</w>
n ext</w>
en t
ta ke</w>
sta t
sta gram</w>
st -
ag ing</w>
si st
ye ar
be an</w>
ser ved</w>
econom y</w>
min u
turn over</w>
stream ing</w>
Lond on</w>
1 5.
7 /
P o
P ri
W ales</w>
e e
f ashion</w>
k ers</w>
w on</w>
in i</w>
sti ng</w>
de als</w>
se ver
end s</w>
mar i
co efficient</w>
ab o
ne w
In stagram</w>
sch ools</w>
ari b
Le ading</w>
cur rent</w>
rati c</w>
An nual</w>
supp ly</w>
av ail
Kore a</w>
possi ble</w>
1 7.
5 2</w>
7 2</w>
8 8</w>
C arib
F L</w>
G ener
N FL</w>
c ing</w>
c ha
h and
n ec
n um
t ele
w ine</w>
ti l
al ia</w>
di ed</w>
co ff
ai l</w>
Ne t
sit uation</w>
ris k</w>
e- commerce</w>
ban ks</w>
fam ili
go ing</w>
custom ers</w>
ful l-
Carib bean</w>
1 2.
W al
a z
c raft</w>
e v
h y
in equality</w>
ro ad</w>
201 7/
pro per
de al</w>
mo d
bu ying</w>
le a
qu i
ron ic</w>
produc ed</w>
mer chan
so f
rea m</w>
gener al</w>
categ ories</w>
Cor poration</w>
experi enced</w>
gran ts</w>
deli very</w>
nat ural</w>
neg ative</w>
Over all</w>
6 7</w>
a w
r it
s qu
st m
di st
si ve</w>
ci ans</w>
ci tiz
rec eived</w>
ho l</w>
te l</w>
fac tion</w>
purchas es</w>
ban king</w>
vie ws</w>
Pre sident</w>
app lic
sa w</w>
signific antly</w>
contr ac
custom er</w>
year -
coff ee</w>
squ are</w>
5 7</w>
8 1</w>
8 3</w>
A d
B an
S M
c ru
d le</w>
e state</w>
k id
l in
n ap
t on</w>
v ac
z er
sh oo
ic ro
pre fer</w>
ex t
gh tly</w>
val u
In dex</w>
quar ter
cas e</w>
stud ent</w>
sour ces</w>
comm unic
work force</w>
bir ths</w>
trans actions</w>
posi tive</w>
Bar ack</w>
sm all</w>
premi ums</w>
deb t</w>
abo ve</w>
tele vision</w>
1 8.
8 2</w>
E ast</w>
N et</w>
c al
c ession</w>
f -
p u
x ury</w>
y p
en s</w>
ar ri
li er</w>
perc eption</w>
sta tus</w>
202 4</w>
lo o
wor ks</w>
mar ri
ci r
ei ther</w>
pe a
ma ke</w>
so cc
chi ld</w>
ph ar
cont ribution</w>
accoun ting</w>
fe der
Indi an</w>
ste m</w>
passeng ers</w>
watch ing</w>
holi day</w>
Democ ratic</w>
sli ghtly</w>
vehi cles</w>
poin ts</w>
cy ber</w>
alco hol</w>
ster n</w>
socc er</w>
1 6.
3 ,
F requ
G ini</w>
J o
M ill
f l
g en
p ubli
an ish</w>
re sid
Th ere</w>
200 3</w>
ch at</w>
ci ties</w>
regi ons</w>
ma king</w>
lu xury</w>
enti n
bas is</w>
cl aim
ge ographi
ban k</w>
inf ec
inf lu
org ani
ren tly</w>
play ers</w>
contr ast</w>
web site</w>
Tr ump</w>
pow er</w>
Chri stm
Republi can</w>
minu tes</w>
til ity</w>
Christm as</w>
5 /0
A ma
E n
F rom</w>
P l
i d</w>
i ght</w>
s s
v al</w>
th ers</w>
th roughout</w>
on al
it ted</w>
li ve</w>
ur ban</w>
sta n</w>
202 3</w>
us es</w>
200 5/0
end ed</w>
gro w</w>
le ad
le vel
ter m</w>
In c
no w</w>
gre at
Rus sian</w>
cap ital</w>
fu l</w>
net works</w>
partn er</w>
partn ers</w>
pr acti
mp ic</w>
Am ong</w>
Oly mpic</w>
tabl et</w>
mari ju
qui si
merchan di
Frequ ency</w>
Ama z
2005/0 6</w>
- based</w>
7 9</w>
S co
f re
i r</w>
n ings</w>
o m</w>
s on</w>
s mo
t en
t ar
it ems</w>
sh aring</w>
es ts</w>
su cc
is su
vo ting</w>
2. 5</w>
ge t
sel f-
consid er</w>
exc lu
elect oral</w>
pr in
vari ous</w>
Wor ld</w>
accep table</w>
diagno sed</w>
sing le</w>
num bers</w>
2 3.
B l
d ri
n ation
re co
re ligi
ac quisi
vi rus</w>
de p
ad s</w>
por ting</w>
gi ven</w>
me ters</w>
sum mer</w>
19 .
sc en
medi an</w>
tw are</w>
can cer</w>
sy st
sy stem</w>
Ap p</w>
mac eu
health care</w>
orig in</w>
Malay sia</w>
/ average</w>
1 3.
8 7</w>
B as
n omin
ti tu
en vi
li ke</w>
ur o</w>
sti ll</w>
sp on
con f
ch e
ex ported</w>
comp le
ran king</w>
par ents</w>
bil ity</w>
ari o</w>
tal /average</w>
part ment</w>
dro p
hospi tals</w>
direc t</w>
vic tim
rema ined</w>
cle ar</w>
second ary</w>
enrol led</w>
kn own</w>
mariju ana</w>
envi ron
0 9</w>
6 8</w>
8 4</w>
S nap
U n
c ou
g ly</w>
l es
r d</w>
r un
al low
show ed</w>
tr al</w>
me tho
su g
ho t
sid e</w>
ni ght</w>
consid er
cri sis</w>
Par ty</w>
respon se</w>
He alth</w>
stron gly</w>
aff ected</w>
Lu x
Snap chat</w>
- year</w>
2 n
2 1.
F o
I m
f ar</w>
m ess
n s</w>
n am
t om
ti c</w>
20 .
it ed</w>
st e</w>
di sh</w>
ac y</w>
ic k</w>
lo cal</w>
pre dic
pl an</w>
po sed</w>
lu c
dec line</w>
chan ged</w>
tal ity</w>
ca used</w>
Swe dish</w>
poli ce</w>
cur rently</w>
pay ments</w>
clo thing</w>
rati o</w>
view ers</w>
satis faction</w>
fli x</w>
attac ks</w>
Gam es</w>
Net flix</w>
sof tware</w>
shoo tings</w>
Amaz on</w>
victim s</w>
les bi
metho ds</w>
2n d</w>
3 rd</w>
7 3</w>
S o
T ur
d en
m y</w>
m ass</w>
p tions</w>
t ro
z ations</w>
er i
in ing</w>
an ces</w>
pro tec
lo ans</w>
ati vely</w>
to o</w>
gr ation</w>
so ft</w>
ho tel</w>
he ad
ear nings</w>
vie w</w>
Con sum
Me di
provi ded</w>
On ly</w>
dru g</w>
stic s</w>
enni als</w>
onal d</w>
Sco t
I s
S ing
b ook</w>
f ell</w>
g in
p ol
s am
v end
20 30</w>
or der</w>
sh o
sp ace</w>
pro grams</w>
de partment</w>
200 1</w>
com mod
tr end</w>
we ar</w>
ch o
su per
val ence</w>
is s
fac e</w>
/1 0</w>
ethn ic</w>
Wh en</w>
with out</w>
Col om
bac k
condi tions</w>
Austr alia</w>
avail able</w>
Inc .</w>
drop ped</w>
- related</w>
9 2</w>
9 1</w>
9 /10</w>
e ty</w>
h ere</w>
o be
t witter</w>
li ved</w>
st a</w>
st oc
sh ow</w>
em er
pro spec
con ven
200 9/10</w>
ver ed</w>
bu y</w>
co al</w>
im ported</w>
qu ality</w>
ser ies</w>
amoun ting</w>
no vel</w>
wom an</w>
Ch an
fin dings</w>
own ers</w>
loc kdown</w>
kil o
stre ss</w>
watch ed</w>
vehi cle</w>
bor n</w>
Por tu
audi ence</w>
cour se</w>
fru it</w>
sever al</w>
full- time</w>
phar maceu
syst ems</w>
Colom bia</w>
B a
D onald</w>
P hi
b s</w>
b ed</w>
b al
f our
re ality</w>
ar ity</w>
ar ies</w>
di tional</w>
nit y</w>
ic a</w>
ad m
gi r
gi ving</w>
pri or</w>
twe ar</w>
bo dy</w>
fin ance</w>
smart phones</w>
foo twear</w>
invest ments</w>
mor ally</w>
Com par
Du t
exclu ding</w>
hot els</w>
Sing ap
Portu gal</w>
C a
N i
a use</w>
b and</w>
g ay</w>
l ines</w>
n er</w>
t a</w>
t ook</w>
re port</w>
ou ght</w>
al though</w>
ac tion</w>
de sig
se e</w>
mar t</w>
is ts</w>
is sions</w>
medi um</w>
bo ys</w>
Per u</w>
are l</w>
tran sport</w>
off ered</w>
inf ected</w>
ke tball</w>
Com p
web sites</w>
favor ite</w>
bec ause</w>
uni ver
Inter net</w>
kid ney</w>
lesbi an</w>
Singap ore</w>
2 8.
9 6</w>
9 5</w>
C ar
D is
W e
a sted</w>
e sia</w>
f ri
g a</w>
g an</w>
k es</w>
l and
s on
t or
t uring</w>
th re
in -
in em
ar t</w>
al ty</w>
st ream</w>
ac commod
we alth</w>
ser v
pl ac
In don
ni a</w>
dec i
lar ge</w>
shi ps</w>
wat er</w>
purchas ing</w>
equ al</w>
frequ ently</w>
provi des</w>
educ ational</w>
access ing</w>
marke ting</w>
app arel</w>
Co ronavirus</w>
Pro portion</w>
subscri bers</w>
Afric an</w>
wa ste</w>
poin t</w>
physi cians</w>
satis fied</w>
Mon thly</w>
Ha ve</w>
travel ers</w>
professi onal</w>
stat ement</w>
feder al</w>
Bl ack</w>
prospec ts</w>
Indon esia</w>
9 7</w>
G e
b ar
i sure</w>
p ho
r ace</w>
s et</w>
s me
u te</w>
ti ves</w>
an ds</w>
ta ined</w>
ri st</w>
ac ity</w>
si mil
pro fi
ver ty</w>
id ents</w>
ch em
co sme
to -
le g
le isure</w>
cor por
elec tric</w>
po verty</w>
ma in
rec ei
dec lar
nu clear</w>
cas i
bo x</w>
fe el</w>
pur po
pers ons</w>
ob served</w>
regul arly</w>
tic s</w>
exc ee
boo ks</w>
favor able</w>
et ary</w>
respon si
conti n
equi p
whol es
industri es</w>
poll s</w>
Medic aid</w>
level s</w>
pharmaceu tical</w>
Dut ch</w>
2 6.
f r
g l
g ar
h ol
l st</w>
in al</w>
re mo
ec t</w>
st ric
sh ing</w>
vi r
pro c
wor ried</w>
ad ded</w>
gi es</w>
ter ro
do c
ran ge</w>
str ations</w>
val ent</w>
hou r</w>
own ing</w>
Re gi
cap acity</w>
loc ated</w>
play ed</w>
ste ad
Whi le</w>
hom icides</w>
char ac
prov ince</w>
immi grants</w>
behavi or</w>
ext ent</w>
merchandi se</w>
acquisi tion</w>
sug ar</w>
predic ted</w>
Scot land</w>
8 6</w>
A s
B C</w>
H ou
P r
S u
S lo
a th
a res</w>
b ought</w>
c op
f all</w>
t ter</w>
u tion</w>
w ard</w>
ta king</w>
li fe
li sted</w>
ri es</w>
di vision</w>
ac ad
em issions</w>
pro ble
we ar
gro und</w>
mer ger</w>
pl ans</w>
out side</w>
fer tility</w>
off ici
Ar g
Ar e</w>
visit ors</w>
manufac turing</w>
fil ms</w>
conti nu
fans/ Twitter</w>
fans/ twitter</w>
claim ed</w>
issu es</w>
declar ed</w>
equip ment</w>
proble m</w>
1 5
2 4.
4 ,
9 9</w>
E S
L a
M id
R ate</w>
T o</w>
W ar
d ou
f ree</w>
h ood</w>
h owever</w>
k s
k ings</w>
p en
w age</w>
an nu
re ment</w>
re ading</w>
re fer
re search</w>
li st
at titu
st or
sh or
ag o</w>
el ing</w>
con struc
ad es</w>
ad or</w>
ad ju
we ight</w>
ch es</w>
co m</w>
ab or
po t
Americ as</w>
1. 3</w>
oc casi
ear lier</w>
org anic</w>
touris ts</w>
enter tainment</w>
cul ar</w>
hom icide</w>
experi ence</w>
physi cal</w>
Rom ney</w>
Chi le</w>
read y</w>
drin ks</w>
proper ty</w>
Fo rec
Ni ke</w>
acad emic</w>
3 0.
A b
E U
G ross</w>
I cel
M in
S y
c k</w>
c ks</w>
c inem
e ven</w>
f luc
j ected</w>
m ail</w>
t s
an other</w>
on ia</w>
perc eived</w>
ec e</w>
st ant</w>
de fin
de stin
sur g
duc tion</w>
le ague</w>
le gal</w>
ci es</w>
su ff
reas ons</w>
ne ver</w>
ep id
hou sing</w>
tw el
ass es</w>
wat ch</w>
Le vel</w>
car d</w>
sel ling</w>
ban k
cri me</w>
Canadi ans</w>
expec t</w>
play er</w>
go als</w>
some one</w>
win d</w>
visit s</w>
candid ates</w>
tre at
Inter national</w>
equi valent</w>
clu bs</w>
2017/ 18</w>
citiz ens</w>
vac ation</w>
emer g
gir ls</w>
profi t</w>
Arg entin
fluc tu
9 8</w>
C en
E m
P ublic</w>
V ene
W in
W ar</w>
a ffi
b ack</w>
c ast</w>
e S
e uro</w>
g age</w>
h er
m as
m ine</w>
r ural</w>
s en
t elec
in ess</w>
ta x</w>
at ch</w>
sta l
st an
di sc
di vor
as ts</w>
con sist
be st</w>
ru p
ex tre
ser ves</w>
pl es</w>
pl ay</w>
19 70</w>
1. 2</w>
1. 4</w>
ub ic</w>
eng th</w>
sup pl
199 5</w>
pers onally</w>
tec h</w>
Eng lish</w>
Ap pro
manufac tur
ga p</w>
tru st</w>
clu b</w>
indic ated</w>
whol e</w>
Wal mart</w>
valu ed</w>
religi ous</w>
dep end
vir tual</w>
twel ve</w>
Argentin a</w>
affi li
2 2.
2 5.
9 3</w>
I f</w>
Q u
S wi
V ol
b ul
c o</w>
e p</w>
f y</w>
i shed</w>
m icro
o -
s ely</w>
er -
ou s
ol a</w>
ver ages</w>
ter n
enta tion</w>
fac tor</w>
Au stri
oc cur
ther n</w>
oper at
car ds</w>
sel f</w>
presid ent</w>
Mo bile</w>
Sp anish</w>
mor tality</w>
cul ation</w>
view ed</w>
lat est</w>
bel ow</w>
geographi cal</w>
scen ario</w>
spon sor
accommod ation</w>
epid emic</w>
Swi ss</w>
2 7.
3 7.
A sian</w>
E a
H oc
K en
O r
O s</w>
O S</w>
T ra
W est</w>
Y or
a sh
c amp
e ing</w>
e ating</w>
l on
m an</w>
ti onally</w>
en ing</w>
in vol
an al
an ing</w>
ta ble
it h</w>
at s
di stin
vi l</w>
nit ure</w>
pro gram</w>
U. S</w>
com ing</w>
be au
id ence</w>
pre valence</w>
mar ried</w>
ab les</w>
me an</w>
do ing</w>
do or</w>
ay ing</w>
str at
regi strations</w>
chan ges</w>
seg ments</w>
grow ing</w>
forec asted</w>
fa ke</w>
oper ated</w>
Wh ats
loc ation</w>
clo se</w>
kil ome
mor t
recor d</w>
win ning</w>
Cor ruption</w>
visit ed</w>
youn ger</w>
plan ned</w>
projec tions</w>
tali ties</w>
repres ented</w>
cha ins</w>
applic ations</w>
pu t</w>
cir culation</w>
Mill ennials</w>
resid ents</w>
iss ue</w>
stoc k</w>
four th</w>
adju sted</w>
Appro ximately</w>
Hoc key</w>
table ts</w>
' t</w>
B re
M it
P ay
R o
S am
a vo
b ur
e se
i on
i se</w>
l ying</w>
m al
n e</w>
n 't</w>
p i
r aci
v ers</w>
w ays</w>
y outh</w>
ro om</w>
re ti
re serves</w>
ta tt
al ready</w>
li t</w>
st and
di tionally</w>
as si
ol f</w>
el d</w>
sp lit</w>
pro ce
de gre
con tac
con cession</w>
lo st</w>
ap er</w>
we gi
su icide</w>
su icides</w>
ai g
inter course</w>
rec ently</w>
19 50</w>
ty pic
bi o
accoun ts</w>
Nor wegi
lan gu
fa talities</w>
smar t</w>
Chin ese</w>
fu ture</w>
Al though</w>
provi ders</w>
air craft</w>
of f</w>
boo king</w>
reve als</w>
communic ation</w>
marri ages</w>
organi zations</w>
responsi ble</w>
Mid dle</w>
construc tion</w>
beau ty</w>
Mit t</w>
tatt oo
B ay</w>
C ity</w>
E b
E stim
F ur
I C
M ic
N A
S on
U k
b ene
c ubic</w>
k in
l ment</w>
p et</w>
r ating</w>
s ale</w>
t ests</w>
w ards</w>
x it</w>
th en</w>
in ju
ta x
al -
op tion</w>
de f
de sk
con n
lo y
ad v
we ap
es tion</w>
im um</w>
coun ter
qu estion</w>
ci se</w>
me d
ron ics</w>
regi onal</w>
ra di
bas e</w>
4. 5</w>
wil ling</w>
ge ts</w>
off ic
att le</w>
pac k
particip ating</w>
mil k</w>
Af ter</w>
ca use</w>
ca uses</w>
hab its</w>
expendit ures</w>
int en
Pro jected</w>
On line</w>
posi tion</w>
ili ties</w>
dru gs</w>
lit ers</w>
gradu ates</w>
Vi et
perform ance</w>
Gener al</w>
famili es</w>
Ban k</w>
quarter ed</w>
succ ess</w>
consider ation</w>
Tur key</w>
pol l</w>
We stern</w>
chem ical</w>
ath le
Icel and</w>
Cen tral</w>
stan ding</w>
ous ly</w>
Yor k</w>
camp aig
Whats App</w>
Bre xit</w>
Estim ated</w>
Uk ra
inju ries</w>
. com</w>
2 9.
4 th</w>
9 ,
A ir
B r
C l
E l
F C</w>
G overn
H un
L in
S er
S ome</w>
c ents</w>
f ol
f und</w>
g in</w>
j e
n am</w>
r ing</w>
in e
in j
in stal
ro se</w>
201 2
ar ed</w>
ar ms</w>
hi st
sta in
ag ues</w>
sp ite</w>
ic an</w>
be verages</w>
wor ked</w>
mo tor</w>
pre ven
ci g
par ties</w>
19 80</w>
eb all</w>
gener ally</w>
res h</w>
dec l
2. 3</w>
3. 5</w>
bas ketball</w>
stud y</w>
fa v
ene w
e- sex</w>
au tom
Gre ece</w>
rel s</w>
ke ts</w>
Af gh
fur niture</w>
man agers</w>
concer n</w>
lic en
Pre mi
broad band</w>
cro w
cli ents</w>
expen ses</w>
get ting</w>
sam e-sex</w>
Chan ge</w>
desig n
Ge or
bar rels</w>
corpor ate</w>
wholes ale</w>
proc ess
Regi on</w>
tattoo s</w>
desk top</w>
0 7</w>
4 0.
8 ,
B ran
D omin
F ri
H erm
I r
M ore</w>
P R
P e
S a
b lo
b acc
b ad</w>
d -
d omin
e sted</w>
j ob
m ing</w>
m unic
p p
s em
w er</w>
w rit
z z
20 /
20 20/
en h
en du
li am
li hood</w>
st ers</w>
di am
em b
pro ved</w>
ha ir</w>
un g</w>
ru pe
ex er
do es</w>
ve ter
whi lst</w>
1. 5</w>
ra ts</w>
ra ther</w>
indi cat
gam bl
fe w</w>
presid ents</w>
min ing</w>
fic ation</w>
bl ems</w>
the at
play ing</w>
Bo om
develop ed</w>
tic a</w>
tic ket</w>
wa ve</w>
institu tion</w>
graphi c</w>
identi fied</w>
lat er</w>
mat eri
industri al</w>
loo k</w>
pea ked</w>
lead er</w>
head quartered</w>
vend or</w>
simil ar</w>
stead ily</w>
consist ently</w>
sponsor ship</w>
Norwegi an</w>
Ukra ine</w>
fol low</w>
enew able</w>
Bran ds</w>
Domin ican</w>
endu m</w>
0 ,000</w>
3 5.
9 4</w>
B 2
B u
C ro
F or
J am
L GB
P C</w>
P interest</w>
S i
S en
S ain
T i
V R</w>
V ir
b ab
f resh</w>
g er
h in
l ab
l ong</w>
s ay</w>
s cor
s aying</w>
t -
w ood</w>
y ed</w>
20 0</w>
20 50</w>
an ta
an ese</w>
on als</w>
ta n</w>
al one</w>
al ists</w>
li ed</w>
li ght</w>
ri ghts</w>
om s</w>
sta ble</w>
am ong
pro fil
ul t</w>
con nec
200 8/
com mu
be tter</w>
se a
ad ed</w>
id s</w>
ch ec
cor rec
ne e
inter ested</w>
1. 6</w>
te en</w>
te ach
acc idents</w>
fe at
fe eling</w>
are t
/1 3</w>
ari an</w>
oper ations</w>
min imum</w>
rel atively</w>
concer ning</w>
inclu des</w>
non- life</w>
fun ding</w>
watch es</w>
Li fe</w>
hospi tali
manufac tu
elect ronic</w>
sli ght</w>
char t</w>
health y</w>
broad ca
professi onals</w>
wel l
effec ts</w>
new sp
dist ributed</w>
cru ise</w>
allow ed</w>
Comp any</w>
thre at</w>
refer endum</w>
stor age</w>
Forec ast</w>
manufactur ers</w>
Austri a</w>
occur red</w>
kilome ters</w>
ese l</w>
Eb ola</w>
conn ected</w>
Viet nam</w>
2012 /13</w>
cig aret
rupe es</w>
LGB T</w>
among st</w>
2 5
3 3.
A t
B ul
C ap
F e
F l
I S
S .
W ith</w>
b ing</w>
b ri
c tion</w>
d ra
e arly</w>
g old</w>
m ember</w>
p hi
r enewable</w>
t em
t ex
u ally</w>
20 40</w>
an im
re r</w>
al ties</w>
li m
ri ll</w>
om ing</w>
ec ts</w>
di esel</w>
ac e
pro blems</w>
Sta te</w>
un employed</w>
se qu
por no
to day</w>
ay ed</w>
no tes</w>
1. 1</w>
thous ands</w>
he ard</w>
he art</w>
dec ade</w>
2. 1</w>
fac tors</w>
ke lihood</w>
particip ation</w>
import ance</w>
la w</w>
dr ink</w>
kil led</w>
sa fe</w>
dro p</w>
boo kings</w>
ful l</w>
fil m</w>
Democ rats</w>
cen ters</w>
condi tion</w>
ori ties</w>
Ma j
prescri ptions</w>
Po lish</w>
ev ents</w>
cru de</w>
great est</w>
nomin ee</w>
comple ted</w>
cou ples</w>
protec tion</w>
obe se</w>
Dis ney</w>
plac es</w>
excee ded</w>
annu ally</w>
Ab out</w>
fluctu ated</w>
Tra vel</w>
distin gu
degre es</w>
langu age</w>
radi o</w>
hist ory</w>
autom o
Premi er</w>
design ated</w>
Ir an</w>
job s</w>
0 6</w>
1 6
3 8.
B ur
C ali
F a
M I</w>
M il
S e
S ur
a king</w>
c k
c s</w>
d ate</w>
e sta
f ast</w>
i ence</w>
m es</w>
r ated</w>
u el
u tions</w>
w are</w>
y -
y a</w>
z uel
ti le</w>
in ts</w>
re st</w>
re porting</w>
ar ning</w>
per f
ec h
ec tive</w>
sta y</w>
st y
di vi
di etary</w>
du res</w>
du ty</w>
oun ce</w>
op tions</w>
ic y
ic on
lo an</w>
ex pres
fi f
to tal/average</w>
le agues</w>
le arning</w>
ing ton</w>
comp o
qu ali
do g</w>
popul arity</w>
tri ps</w>
val s</w>
xim um</w>
hou ses</w>
1. 8</w>
our g</w>
2. 2</w>
2. 8</w>
te ams</w>
out door</w>
cas h</w>
ther more</w>
forec asts</w>
199 8</w>
To tal/average</w>
ge ted</w>
car di
opini ons</w>
access ories</w>
clo sely</w>
air ports</w>
inclu de</w>
net working</w>
differ ence</w>
mor al</w>
ans w
subscri ption</w>
hospi tal</w>
elect ronics</w>
holi days</w>
turn out</w>
premi um</w>
projec tion</w>
amp ion
multi -
prescri ption</w>
expen sive</w>
applic ation</w>
influ en
Lux emb
kilo grams</w>
Phi li
Compar ed</w>
deci sion</w>
Vene zuel
eS ports</w>
suppl ements</w>
proce dures</w>
Fur thermore</w>
El ec
Govern ment</w>
decl ined</w>
exer cise</w>
gambl ing</w>
2008/ 09</w>
Maj or</w>
Cali for
esta b
Luxemb ourg</w>
3 6.
4 /1
5 0.
C z
C ub
C yp
H ar
H ol
O p
S k
S ec
U S
W ash
b ined</w>
d a</w>
e f
i o</w>
k ron
l am
m ur
m pic
n or
s ses</w>
t op
en e</w>
re stric
201 4/1
ta il</w>
al le
il ding</w>
ec h</w>
as soci
de scri
lo gi
be verage</w>
tr ac
ch oo
fi x
comp la
me th
ve ge
su s</w>
sc ale</w>
he ad</w>
form at</w>
fir ms</w>
cas u
tw ice</w>
fe et</w>
tran spor
eng ine</w>
199 6</w>
199 9</w>
oper s</w>
wat t</w>
shop s</w>
ear ning</w>
olo gies</w>
devel opers</w>
Con cession</w>
int on</w>
Mexic an</w>
compu ters</w>
ani stan</w>
retail er</w>
Jap anese</w>
St ore</w>
ot tica</w>
Rom ania</w>
Oly mpic
mid dle</w>
ent ary</w>
lea ve</w>
Ad ditionally</w>
SM E</w>
quarter ly</w>
marri age</w>
Lux ottica</w>
mess aging</w>
back ground</w>
conven ience</w>
Ba by</w>
treat ment</w>
telec om
affili ation</w>
Son y</w>
weap ons</w>
campaig n</w>
Cl inton</w>
Afgh anistan</w>
Geor ge</w>
profil e</w>
cigaret tes</w>
distingu ished</w>
Venezuel a</w>
estab li
Cyp rus</w>
Wash ington</w>
2014/1 5</w>
Olympic s</w>
B BC</w>
D ay</w>
D omestic</w>
F I
M icro
S un
W i
a -
b ound</w>
b icy
d re
d In</w>
e dom</w>
f it
f le
f low</w>
g ing</w>
j our
l ength</w>
m a</w>
p an
w ent</w>
y ers</w>
th u
201 3
li es</w>
li ver</w>
ri ght</w>
il l</w>
di c</w>
di sp
di sor
ag ents</w>
vi ol
stati ng</w>
um ul
si ties</w>
show ing</w>
tr ends</w>
resp ective</w>
co vered</w>
ab sol
le ad</w>
ing ness</w>
qu ick</w>
ve -
su stain
po d
gr ade</w>
gr ades</w>
rec re
19 64</w>
appro ve</w>
quar anti
2. 6</w>
tra ditional</w>
fac ilities</w>
ini ti
fa tal</w>
br ac
e- mail</w>
cip i
off ering</w>
comm itted</w>
ke dIn</w>
vide os</w>
la un
Belgi an</w>
inclu ded</w>
Bo ss</w>
rati ngs</w>
prefer ence</w>
trans action</w>
transpl ants</w>
holi c</w>
St ar
alco holic</w>
plan ning</w>
effec tive</w>
new ly</w>
Gener ation</w>
hand led</w>
nec ess
ev ent</w>
2017/ 2018</w>
lea ther</w>
zer o</w>
infec tions</w>
influ ence</w>
Pl ay
Consum er</w>
pho to</w>
fr ame</w>
cinem as</w>
defin ed</w>
destin ation</w>
suff ered</w>
rup t
contac t</w>
Lin kedIn</w>
veter ans</w>
manufactu rer</w>
Califor nia</w>
compla ints</w>
casu alties</w>
A R
A .</w>
B MI</w>
C i
C oun
E s</w>
F oo
G rill</w>
H u
I C</w>
K ering</w>
P A
P E
P ur
b a
e f</w>
e ti
f f</w>
g n
g ers</w>
i or</w>
l ation</w>
l ending</w>
n on
s /
s ent</w>
t on
v ak
an n
ro n</w>
re tur
201 1
al tern
li ance</w>
st ly</w>
st ment</w>
di tion</w>
di ver
as king</w>
as sist
si di
Th ail
de al
con si
com mon
be l</w>
wor st</w>
mo ther</w>
mo der
mo thers</w>
por t
ch ed</w>
ch ronic</w>
doll ar</w>
me at</w>
ve get
cor responding</w>
ma ximum</w>
ep t</w>
3. 2</w>
bo tt
fac ing</w>
Nor thern</w>
sup ported</w>
199 7</w>
199 2</w>
199 1</w>
cer tain</w>
pers on
sub sidi
cri mes</w>
hel or</w>
la bel</w>
concer ns</w>
Co sta</w>
teen s</w>
ill ary</w>
ship ment</w>
wai t</w>
direc tly</w>
cel eb
ong -
indic ates</w>
Chri sti
tabl es</w>
spe aking</w>
attac k</w>
wel ry</w>
Medic are</w>
drin king</w>
Vo D</w>
hy per
proper ties</w>
SM Es</w>
univer sities</w>
cosme tic</w>
purpo se</w>
Slo vak
cop per</w>
ES PR
pot ential</w>
bank rupt
emerg ency</w>
mort gage</w>
stand ard</w>
offic ers</w>
Fri day</w>
pp ines</w>
writ ten</w>
Cro ati
scor ed</w>
tem per
porno graphic</w>
Phili ppines</w>
meth od</w>
vege tables</w>
transpor tation</w>
Hu go</w>
Pur chas
Thail and</w>
common ly</w>
Slovak ia</w>
ESPR IT</w>
- year-
0 1</w>
4 8.
5 4.
6 ,
6 6.
A ir</w>
B i
B rea
C E
D anish</w>
E g
E st
F T
H er
M c
O u
R ic
R ica</w>
S al
c ans</w>
e as
f ers</w>
h e</w>
h un
l ers</w>
l ong-
o x
o se</w>
p a
t ely</w>
w id
th ered</w>
in depend
re fin
re fl
at tainment</w>
st on</w>
as cular</w>
em y</w>
op i
op posed</w>
show n</w>
de sh</w>
be gin
ap pe
ad ditional</w>
pre ce
co verage</w>
ser i
CO 2</w>
quar ters</w>
fir m</w>
employ ers</w>
Ch ar
3. 8</w>
fe wer</w>
cl ou
5. 5</w>
eng er</w>
individu al</w>
car b
au th
vol un
dis agree</w>
techn ologies</w>
dro id</w>
An droid</w>
On e</w>
ssi l</w>
har ass
mac h
diseas es</w>
Wor ldwide</w>
downlo ads</w>
cli m
mid -
stat ements</w>
geographi c</w>
infec tion</w>
succ ess
prin t</w>
run ning</w>
tro poli
sho p</w>
bal ance</w>
adm itted</w>
gar ia</w>
terro rist</w>
wear able</w>
attitu des</w>
extre m
operat ors</w>
avo id
reti rement</w>
je welry</w>
fav or</w>
bacc o</w>
munic ations</w>
Boom ers</w>
Sain t</w>
commu nity</w>
Bul garia</w>
Fe der
icon duc
expres sed</w>
logi stics</w>
fle et</w>
umul ative</w>
absol ute</w>
veget arian</w>
Brea kdown</w>
begin ning</w>
A ng
B R
B un
C D</w>
C am
D A</w>
D eb
F re
G en</w>
H ond
L at
L im
M u
M an
M ain</w>
S an</w>
S wit
S po
U ru
W e</w>
W om
W illi
c ally</w>
c lic
d as</w>
d one</w>
d air
d funding</w>
j ou
k er</w>
k now</w>
l ap
l ingness</w>
m ini
n es
s co
u ti
v acc
w th</w>
y en</w>
ti t
ti v
ti m</w>
ti fy</w>
an while</w>
re leas
re main</w>
re cipi
on ing</w>
or d
per man
al ways</w>
hi t</w>
li ans</w>
ri se</w>
ac hi
ow s</w>
el l
el em
de st</w>
mo tor
pre gn
ex ec
fi eld</w>
ab road</w>
to bacco</w>
comp ares</w>
qu e
ci t</w>
ei gh
do se</w>
ve stment</w>
reas on</w>
ran k</w>
for ts</w>
pres ence</w>
pres ented</w>
increas es</w>
is sion</w>
1. 7</w>
gu n</w>
gu ay</w>
and a</w>
medi c
our self</w>
out standing</w>
3. 3</w>
fin d</w>
tw atch</w>
lar ger</w>
4. 7</w>
cl assi
wil lingness</w>
199 4</w>
ris ing</w>
ge ther</w>
der i
estim ates</w>
pac t</w>
adi das</w>
bl ack</w>
Gro wth</w>
Me anwhile</w>
the ft</w>
tou rist</w>
provi der</w>
int ro
prefer ences</w>
trans fer</w>
win ner</w>
bud gets</w>
bec ome</w>
har ve
vic tim</w>
gradu ally</w>
soci ety</w>
projec ts</w>
downlo aded</w>
bel ong
Vi de
cro ss
cha in</w>
zer land</w>
yp t</w>
gen re</w>
smo king</w>
tar get</w>
Im pact</w>
Medi an</w>
kilo gram</w>
fri ends</w>
in- store</w>
leg ally</w>
contin ent</w>
charac ter
surg ical</w>
Win ter</w>
invol ved</w>
anal y
Hun g
indicat or</w>
Jam a
sea ts</w>
Cub a</w>
ef forts</w>
kron er</w>
nor m
Croati a</w>
Purchas ing</w>
Eg ypt</w>
long- term</w>
ox ide</w>
tropoli tan</w>
iconduc tor</w>
Swit zerland</w>
Spo tify</w>
Uru guay</w>
Wom en</w>
dair y</w>
0 2</w>
2 50</w>
3 4.
4 9.
5 ,
6 0.
C el
C oo
D a
E cu
F ir
H o
H illary</w>
M ad
N u
N ep
P M
R an
V er
W ee
a p</w>
a stic</w>
a ult</w>
c at</w>
c ement</w>
d ge</w>
e at</w>
f ts</w>
f ra
i so
m ag
n er
n ab
o sexual</w>
p ul
r ai
s -
s .</w>
th ings</w>
er acy</w>
20 60</w>
re al
ar ti
ar en
it e
li qu
at ri
ri a</w>
ec tly</w>
st op
sh ares</w>
ac ute</w>
ow er</w>
el ess</w>
em p
du ce</w>
us ually</w>
con sequ
lo t
be ds</w>
wor se</w>
se par
mo stly</w>
ch all
mar ital</w>
fi ght</w>
fi sh</w>
gi ga
ab ly</w>
duc ed</w>
me ter</w>
inter viewed</w>
val ues</w>
In vestment</w>
so li
ep iso
appro pri
sc re
mon it
he at</w>
displ ayed</w>
2. 9</w>
3. 7</w>
3. 6</w>
fin al</w>
6. 7</w>
/1 4</w>
mi grants</w>
Re tail</w>
ov ascular</w>
devi ation</w>
sto p</w>
equ ity</w>
off line</w>
rel ation
att ribu
gre at</w>
mil l
visi ting</w>
2018/ 2019</w>
loc ations</w>
air port</w>
ali zed</w>
Ar ab
Pre sid
Pre fer
ans as</w>
impac ted</w>
transpl an
speci alty</w>
supp lier</w>
whe at</w>
har d
direc tors</w>
Val entin
St .</w>
enterpri se</w>
lit er</w>
identi ty</w>
17 89</w>
spe ed</w>
star ted</w>
effec t</w>
Austr ali
cal cul
resid ential</w>
lead ership</w>
Medi a</w>
Phi l
purpo ses</w>
gl asses</w>
list en</w>
abor tion</w>
occasi ons</w>
bene f
def en
inj ury</w>
crow dfunding</w>
enh ams</w>
liam ent</w>
materi als</w>
teach ers</w>
well ness</w>
perf ectly</w>
sty le</w>
Op ini
2013 /14</w>
temper at
prece ding</w>
Deb enhams</w>
jou les</w>
Jama ica</w>
Ecu ador</w>
Valentin e</w>
0 3</w>
4 7.
6 8.
6 9.
7 ,
B run
B attle</w>
C u
C al
E A</w>
F er
H ong</w>
H ot
M er
P ay</w>
P ak
R es
U ber</w>
c ers</w>
c ket</w>
e /
e ting</w>
f al
f oun
f air
f air</w>
g ni
g olf</w>
h or
i ed</w>
i de
i lian</w>
k ly</w>
l ement</w>
o thers</w>
r ap
s ul
s ons</w>
s le
t ory</w>
v ement</w>
w ing</w>
y ment</w>
y ourself</w>
th i
in a</w>
an -
an ced</w>
ta r</w>
ta tions</w>
sta tion</w>
st ance</w>
sh ore</w>
ol den</w>
el der
stati ons</w>
pro mo
de spite</w>
con sol
con stant</w>
lo t</w>
com es</w>
com bined</w>
Sta ti
ha el</w>
ch est</w>
ex am
fi re
im pl
to gether</w>
ter rit
cor n</w>
po ta
gr ated</w>
par ent</w>
inter n
19 60</w>
In come</w>
ep tions</w>
is m</w>
high -
1. 9</w>
lob ally</w>
ni ghts</w>
resul ting</w>
cas ts</w>
eg al</w>
3. 1</w>
bo di
fac t</w>
fe es</w>
5. 6</w>
/1 2</w>
7. 1</w>
decreas ing</w>
smar twatch</w>
insur ed</w>
air line</w>
Bo ston</w>
of -
pati ent</w>
survey s</w>
Braz ilian</w>
Li thu
hom es</w>
subscri ptions</w>
sear ches</w>
ak ers</w>
sal aries</w>
Democ r
bec ame</w>
bec oming</w>
cen ter</w>
sol ar</w>
anti -
anti ty</w>
ber ry</w>
orig in
bac helor</w>
rema ining</w>
up coming</w>
Republi cans</w>
under lying</w>
mid term</w>
behavi ors</w>
Pri ce</w>
aw are</w>
arri vals</w>
publi shing</w>
organi zation</w>
Pl ay</w>
tar geted</w>
reco gni
Bas eball</w>
environ mental</w>
gin ia</w>
cho ice</w>
obe sity</w>
Ca tal
univer sity</w>
cosme tics</w>
remo te</w>
Pr ada</w>
life time</w>
wear ables</w>
Sy ria</w>
divor ce</w>
Ken ya</w>
typic ally</w>
IC T</w>
Mic hael</w>
sem iconductor</w>
2020/ 21</w>
diam ond</w>
Vir ginia</w>
hospitali zed</w>
broadca sting</w>
divi ded</w>
cardi ovascular</w>
ampion ship</w>
Micro soft</w>
fit ness</w>
jour n
sustain able</w>
2011 /12</w>
clou d</w>
BR IC</w>
perman ent</w>
belong ing</w>
Pak i
elder ly</w>
Lithu ania</w>
- time</w>
- of-
/ or</w>
0 8</w>
0 5</w>
3 00</w>
4 5.
5 9.
A R</w>
A T</w>
A G</w>
B lo
C s</w>
E B
F ood</w>
G olden</w>
H or
K ong</w>
K ors</w>
L ab
M y
M ag
M en</w>
M ini
N H
R a
S um
T im
T ai
Z im
a head</w>
b illi
b ai
d ur
d am
e ver
f all
g lobally</w>
h ome
l ate</w>
m ar</w>
n ation</w>
n ame</w>
r ac
s w
s ent
t ario</w>
t too</w>
u d</w>
u a</w>
w ages</w>
z ing</w>
â €
en ses</w>
an mar</w>
ro m
ro l</w>
re sident</w>
ar us</w>
ta ttoo</w>
li ked</w>
li ves</w>
li ances</w>
perc enti
il s</w>
sta ys</w>
st ories</w>
di oxide</w>
ag en</w>
em be
um in
illi cit</w>
pro tests</w>
de sli
lo sses</w>
se eing</w>
ad vi
ad emy</w>
id ent</w>
ch en</w>
bu ilding</w>
bu yers</w>
es a</w>
ex hi
ex it</w>
mar gin</w>
im prov
comp eti
ven ess</w>
ven ia</w>
pri son
pri sons</w>
tri p</w>
plo yment</w>
appro ved</w>
and /or</w>
Di gital</w>
Ac ademy</w>
2. 7</w>
2. 4</w>
out look</w>
over night</w>
over dose</w>
eg y</w>
eg es</w>
4. 2</w>
0. 5</w>
ir ed</w>
6. 6</w>
cl ing</w>
mi gration</w>
eng ines</w>
car ri
sel lers</w>
parti cul
min es</w>
inf lation</w>
can nab
ke ep</w>
on- year</w>
Bel arus</w>
Al l</w>
Al most</w>
Uni ver
work place</w>
marke ters</w>
dis coun
lic on</w>
int enti
non- Hispanic</w>
On tario</w>
ecti on
speci fic</w>
bor der</w>
Col um
soci ation</w>
ot a</w>
up per</w>
cle aning</w>
broad cast</w>
ori entation</w>
immi gration</w>
occup ation</w>
enni al</w>
citiz en
contrac t</w>
pea k</w>
Jo hn
publi shed</w>
En er
environ ment</w>
Consum ption</w>
son ite</w>
deci sions</w>
pho to
terro ris
charac ters</w>
As sociation</w>
Hou se</w>
Hou seh
Slo venia</w>
dou ble</w>
attitu de</w>
Min nes
mas ks</w>
strat egy</w>
Sam sonite</w>
raci st</w>
B2 B</w>
connec tions</w>
tex tile</w>
fif th</w>
answ ered</w>
Cz ech</w>
Hol dings</w>
choo se</w>
disor ders</w>
viol ence</w>
quaranti ne</w>
initi al</w>
Ci vil</w>
altern ative</w>
bankrupt cies</w>
Sal v
opi o
Bun desli
Hond ur
Lat via</w>
recipi ents</w>
elem entary</w>
exec u
harve sted</w>
Hung ary</w>
norm al</w>
Fir st</w>
Ran king</w>
Wee kly</w>
aren ess</w>
appropri ate</w>
relation ship</w>
transplan tation</w>
Australi an</w>
benef its</w>
My anmar</w>
Tai w
ever y
fall en</w>
embe zz
Minnes ota</w>
Bundesli ga</w>
- to-
. .</w>
0 4</w>
A li
A round</w>
B ro
D ue</w>
E l</w>
E ss
E uro</w>
F loy
H ome</w>
I P
I l
I ra
M i
P P
P ac
P al</w>
R A
R I</w>
R ob
S om
S ha
S VoD</w>
T re
T es
a pers</w>
a joules</w>
b loc
c able</w>
e d
e ts</w>
f low
f anta
g res
g la
h u
h er</w>
h um
h ard</w>
h app
i tion</w>
i tali
k a</w>
m un
n ers</w>
o in</w>
o is</w>
s sing</w>
t our
v s.</w>
w e</w>
w ar</w>
w agen</w>
y i
y +</w>
en tal</w>
en for
en jo
in der</w>
ro le</w>
re over</w>
re lease</w>
re views</w>
ar d
ar ts</w>
ar ter
on a</w>
on ed</w>
it chen</w>
il e</w>
st u
ol es
el phi
si vely</w>
si zed</w>
pro cu
de l</w>
de pres
ic k
con c
con cen
lo ss</w>
be hin
tr ue</w>
ad elphi
ati c</w>
ati ves</w>
mo de</w>
mo tiv
wh y</w>
bu cks</w>
pre ci
end ers</w>
ex tr
ex ajoules</w>
ond ents</w>
gi fts</w>
im proved</w>
ab b
ing ly</w>
comp ound</w>
ci vil</w>
ron to</w>
ve gan</w>
ne y+</w>
ai res</w>
pl astic</w>
po st-
po cket</w>
pres sure</w>
19 82</w>
consum e</w>
appro val</w>
gener ations</w>
res ol
tu ally</w>
enti re</w>
Ac t</w>
ra structure</w>
Ne v
Ne arly</w>
out lines</w>
out -of-
Ita lians</w>
Nor dic</w>
fe sti
4. 4</w>
6. 5</w>
spor ting</w>
eng aged</w>
Perc eption</w>
ass et</w>
ari os</w>
To ronto</w>
oper ation</w>
oper ates</w>
inf rastructure</w>
tal ly</w>
estim ate</w>
Wh ite</w>
Mo reover</w>
ke l</w>
with dra
poli cy</w>
bran ch</w>
sy mp
dr ed</w>
govern ments</w>
ali zation</w>
dem ographi
Bo x</w>
int ended</w>
app liances</w>
coll eges</w>
Li ber
all s</w>
posi tions</w>
view ing</w>
turn s</w>
uni on</w>
ga ve</w>
gran ted</w>
sol utions</w>
sk i
Hisp an
10 ,000</w>
multi national</w>
poll ution</w>
perform ing</w>
Vo ter</w>
famili ar</w>
Ban gla
gen res</w>
great er</w>
practi ces</w>
fre el
smo ke</w>
nation wide</w>
nation ality</w>
scen arios</w>
spon s
conf ection
nam ed</w>
So ci
Dis ney+</w>
land ers</w>
offici als</w>
continu ed</w>
ks wagen</w>
disc us
Vol kswagen</w>
Ea stern</w>
strat e
Pay Pal</w>
blo od</w>
theat ers</w>
correc tly</w>
newsp aper</w>
Bur berry</w>
Fa vor
US D</w>
telecom munications</w>
Star bucks</w>
Foo tball</w>
Christi ans</w>
Est onia</w>
hun dred</w>
seri ous</w>
success ful</w>
extrem ely</w>
Lim ited</w>
achi e
mag az
Phil adelphi
impl em
Sum mer</w>
John son</w>
Hondur as</w>
Ess il
Floy d</w>
Ira q</w>
procu rement</w>
Philadelphi a</w>
2 9
2 ,000</w>
4 00</w>
5 8.
A n</w>
A zer
A wards</w>
B er
B id
C P
C are</w>
E M
G olf</w>
J u
K az
L T
L ou
N ig
O ther</w>
P u
P ower</w>
R w
T inder</w>
V F</w>
b es</w>
c ol
c oo
c ell</w>
c ology</w>
g en</w>
h ate</w>
h stan</w>
i al</w>
i gh
j an</w>
k -
k ick
l ul
l ung</w>
m ay</w>
m and
n es</w>
n ic
n is</w>
o s
p .
p ha
s y</w>
s kil
s ung</w>
t ting</w>
v ast</w>
z a</w>
z one</w>
th erm
er t</w>
ti ll</w>
en s
en ed</w>
re -
re p
on e
on e-
ta led</w>
it i</w>
per ation</w>
al and</w>
li a</w>
li kelihood</w>
perc om
il legally</w>
as p
ac tual</w>
ag ain</w>
um es</w>
um ps</w>
si ans</w>
si ck</w>
202 9</w>
op en</w>
de s
us ual</w>
lo be</w>
be t</w>
ha m</w>
tr o</w>
ad os</w>
sur ance</w>
im pres
duc t</w>
to taled</w>
me aning</w>
pe ts</w>
ron g</w>
su percom
ran ks</w>
inc idence</w>
str ation</w>
par ts</w>
ty -
vo ter</w>
bi g</w>
form ed</w>
dec ades</w>
Ne ws</w>
acti ve-
grap h
Fac t</w>
4. 1</w>
6. 1</w>
6. 9</w>
ther e
5. 7</w>
grow n</w>
mi x</w>
eng agement</w>
sup porting</w>
199 3</w>
inf ecti
sub j
rel ation</w>
att emp
gre en
mil es</w>
inve sted</w>
Al ger
Al pha
ob tained</w>
dis agreed</w>
Bo th</w>
ici p
Par ity</w>
teen age</w>
An ti
ak hstan</w>
ysi s</w>
ful ly</w>
speci ally</w>
supp lies</w>
cen tral</w>
av y</w>
ber y</w>
sk in</w>
sm all
sm alle
lit eracy</w>
orig inal</w>
gradu ate</w>
bac ks</w>
tru cks</w>
mat ch</w>
fli ghts</w>
multi ple</w>
Ha iti</w>
star t</w>
downlo ad</w>
Ex p
Ex it</w>
perform ed</w>
Gu ard</w>
fru its</w>
Pri mary</w>
Pri me</w>
contrac ts</w>
pu ters</w>
Jo e</w>
En ter
practi ce</w>
merchandi sing</w>
ten sion</w>
ten nis</w>
Bas ed</w>
conf idence</w>
Un employment</w>
protec t</w>
serv ation</w>
recei ve</w>
recei ving</w>
contin ue</w>
hol ding</w>
EU -
ts wear</w>
bank notes</w>
Ea ster</w>
lon gest</w>
Sam sung</w>
typic al</w>
med al</w>
athle tes</w>
instal lment</w>
process ing</w>
nee ded</w>
feat ures</w>
bri bery</w>
restric tions</w>
fix ed</w>
laun ch</w>
assist ance</w>
hyper tension</w>
Ric o</w>
mach ines</w>
clim ate</w>
Feder al</w>
lap top</w>
vacc ine</w>
tit les</w>
releas ed</w>
pregn ancy</w>
Vide o</w>
character i
Da ily</w>
Nep al</w>
real ms</w>
attribu table</w>
mill ennials</w>
fair ly</w>
anti- corruption</w>
Paki stan</w>
Blo om
bai jan</w>
â€ ™
percenti le</w>
improv ement</w>
prison ers</w>
particul arly</w>
cannab is</w>
Colum bia</w>
Ener gy</w>
Salv ador</w>
embezz lement</w>
Tes co</w>
mun icip
Nev ada</w>
Hispan ics</w>
Azer baijan</w>
Bid en</w>
Kaz akhstan</w>
kick backs</w>
therm al</w>
supercom puters</w>
active- duty</w>
infecti ous</w>
Alger ia</w>
Alpha bet</w>
smalle st</w>
- commerce</w>
- border</w>
1 4
5 ,000</w>
5 3.
7 0.
9 00</w>
B ow
C level
D el
D oll
F A</w>
G h
G ul
H P</w>
H oll
I T
M L
M at
M is
P s</w>
P en
P an
R io</w>
T w
T y
V A</w>
Z e
b ing
b it</w>
b rou
c key</w>
e an</w>
e ye
e Bay</w>
e specially</w>
f ei
f arms</w>
g y
h n</w>
h old</w>
j ump</w>
p .</w>
r ho
r ency</w>
r abb
s .
s un
t an
t le</w>
t ended</w>
u plo
v ey</w>
v ere</w>
w n</w>
w al
w rong</w>
x i
z en</w>
z ard
th in</w>
er to</w>
in stant</w>
ro -
ro un
on going</w>
on aires</w>
on cology</w>
ta bility</w>
al p
al a</w>
li s</w>
at t</w>
ri d</w>
ri chest</w>
ur ent</w>
sh es</w>
as h</w>
ac t</w>
ow att</w>
op s</w>
op por
op po
Th ey</w>
Th us</w>
Th roughout</w>
us sel
lo ad</w>
200 4
Sta r</w>
ver sus</w>
ha zard
un acceptable</w>
se vere</w>
we es</w>
we st</w>
mo vement</w>
bu s</w>
pre -
end or
end er</w>
ex i
ex per
gi ene</w>
gro un
le gi
comp on
sec tion</w>
me ga
me tals</w>
me tropolitan</w>
ven ture</w>
pri ze</w>
su sp
su ffer
ne ed</w>
pl c</w>
po st
po st</w>
for d
inter vie
consum ing</w>
ep ing</w>
ho o</w>
ho ckey</w>
compar ing</w>
tu nity</w>
employ er</w>
out put</w>
over weight</w>
bo thered</w>
fin ding</w>
cont rol
cont rol</w>
seas onally</w>
own s</w>
ther ap
5. 1</w>
5. 4</w>
sup por
To p</w>
parti cular</w>
off ers</w>
min al</w>
att en
att ributed</w>
frequ ent</w>
bl es</w>
cap itali
ren ov
9. 5</w>
cur rency</w>
Con t
meas ure</w>
expec tations</w>
ob servation</w>
thir ds</w>
18 64</w>
sex u
Ar my</w>
Pre valence</w>
kil owatt</w>
tic kets</w>
coll ected</w>
ste ad</w>
Pro duction</w>
exc ept</w>
subscri bed</w>
Cor p.</w>
visit or</w>
compu ting</w>
cy cle</w>
lit tle</w>
pow er
Kore an</w>
identi fy</w>
travel ing</w>
downlo ading</w>
enrol lment</w>
stron g</w>
under graduate</w>
prescri bed</w>
occup ancy</w>
occup ied</w>
audi ences</w>
avail ability</w>
famili arity</w>
hy giene</w>
lin ois</w>
cir rho
Jo hn</w>
Bas ketball</w>
conf lic
mess ages</w>
Is ra
vend ors</w>
super markets</w>
serv ative</w>
hol ders</w>
life style</w>
La urent</w>
War craft</w>
shor ta
occasi onally</w>
cinem a</w>
destin ations</w>
Em ployment</w>
her oin</w>
Qu arter
Vol ume</w>
bul lying</w>
operat or</w>
anal ysis</w>
bio tech</w>
kin d</w>
tax es</w>
med als</w>
Br ussel
Ser bia</w>
Sen ate</w>
Fl em
automo tive</w>
ech ers</w>
Sk echers</w>
establi shed</w>
pod casts</w>
brac ket</w>
necess ary</w>
ba by</w>
bott led</w>
CE Os</w>
independ ent</w>
carb on</w>
harass ment</w>
Mu sic</w>
que sti
fra ud</w>
episo de</w>
Arab ia</w>
hard ware</w>
calcul ated</w>
Cu stom
Fer tility</w>
fal ling</w>
exam ple</w>
Democr at</w>
journ alists</w>
citizen ship</w>
Taiw an</w>
Il linois</w>
Som alia</w>
behin d</w>
demographi c</w>
Bangla desh</w>
confection ery</w>
LT E</w>
Pu erto</w>
Bow l</w>
Clevel and</w>
Gh ana</w>
Gul f</w>
Ze aland</w>
brou ght</w>
fei t</w>
oppor tunity</w>
hazard ous</w>
intervie wees</w>
cirrho sis</w>
Quarter ly</w>
- be
- day</w>
0 ,
1 20</w>
1 2,
3 D</w>
5 7.
A C
A ward</w>
C re
C lu
D I</w>
D ata</w>
F lin
G VA</w>
G ender</w>
H S
J er
K ansas</w>
L os</w>
M C
N ation
O k
P h
P U</w>
R O</w>
R en
R ap
S te
S ud
S tre
S RI</w>
T I
T uni
U s
U p</w>
W all
c am
c are
c ream</w>
d ay
d dit</w>
d ining</w>
e ar</w>
e ds</w>
g as
g reg
g all
l ess
m ol
m is
o p</w>
p ass</w>
p aper</w>
r ying</w>
s a</w>
s we
w ant</w>
y ou
y wood</w>
er o
er al</w>
er ies</w>
ti les</w>
en i
en ou
en cing</w>
in te
an es</w>
an ks
ro les</w>
re lie
re duction</w>
re duce</w>
or ing</w>
at tr
at ory</w>
il legal</w>
sta yed</w>
st co</w>
di ff
as i
as e</w>
ag a</w>
ol dest</w>
el es</w>
sp ring</w>
sp ondents</w>
si ght</w>
si licon</w>
202 8</w>
op tim
Th ese</w>
Th anks
de ed</w>
ic als</w>
ic ally</w>
U.S .
us h</w>
200 6
com for
be gan</w>
be ef</w>
se a</w>
se as</w>
ad option</w>
we aring</w>
mo del</w>
sur vi
wh ose</w>
ch e</w>
ch ur
ch ampionship</w>
ex change</w>
ond s</w>
ab led</w>
gh ting</w>
qu ite</w>
me ans</w>
pri son</w>
produc er</w>
ran s
inc idents</w>
avi d</w>
tri tion</w>
gr am
gend ers</w>
pres ent</w>
rec y
rec ession</w>
19 10</w>
19 89</w>
ep h
hou se
ho b
no t
high ly</w>
he ter
he dge</w>
and or
tu res</w>
enti ally</w>
dec ile</w>
cas in
fo ssil</w>
over seas</w>
bo ss</w>
bo ard</w>
bas eball</w>
4. 8</w>
ud i</w>
ir e</w>
6. 2</w>
bro w
employe e</w>
5. 2</w>
Re al</w>
Re ddit</w>
Re spondents</w>
8. 4</w>
ju sti
tur y</w>
child -be
ge o
Indi ana</w>
Le e</w>
cip ated</w>
off s</w>
rel ess</w>
rel ative</w>
can cel
vol ution</w>
fic i
fic ally</w>
Rus sians</w>
ren tal</w>
Swe des</w>
9. 3</w>
hel p</w>
devel op</w>
Con feder
bran ded</w>
finan cing</w>
foo t</w>
foo ds</w>
provi de</w>
pass ed</w>
eff ecti
clo sed</w>
ali zing</w>
differ ences</w>
Co st</w>
Co stco</w>
fun ction</w>
Pro duct</w>
Li kelihood</w>
some thing</w>
experi ences</w>
wa ves</w>
youn gest</w>
institu tional</w>
favor ed</w>
week end</w>
respon ses</w>
char ged</w>
cen tury</w>
/0 5</w>
St ories</w>
Mon t
spe akers</w>
fli ght</w>
10. 6</w>
Malay sian</w>
occup ations</w>
17. 8</w>
aw areness</w>
communic ations</w>
cal led</w>
arri ved</w>
Mill ennial</w>
great ly</w>
issu ed</w>
prin ting</w>
dri ving</w>
reco very</w>
religi on</w>
acquisi tions</w>
tom s</w>
eri e</w>
conven tional</w>
adm ini
main ly</w>
offici al</w>
emerg ing</w>
sen ior</w>
lon ger</w>
mal e/
raci al</w>
NA FT
tax is</w>
counter feit</w>
Air port</w>
Sa udi</w>
domin ated</w>
Si ze</w>
lab or</w>
newsp apers</w>
At lan
At titu
S. A.</w>
Sur vey</w>
compo site</w>
mur der</w>
descri bes</w>
Sun day</w>
bicy cles</w>
recre ation</w>
AR PU</w>
ton nes</w>
retur n</w>
-year- olds</w>
Ang eles</w>
Cam bodi
Fre edom</w>
cross -border</w>
defen se</w>
Stati sta</w>
intenti onal</w>
execu tives</w>
fanta sy</w>
enfor cement</w>
symp toms</w>
strate gies</w>
Rw anda</w>
Bloom in</w>
2004 /05</w>
exper ts</w>
ford able</w>
Isra el</w>
Flin t</w>
HS BC</w>
Nation wide</w>
Sud an</w>
Tuni sia</w>
enou gh</w>
optim i
Thanks giving</w>
child-be aring</w>
effecti veness</w>
male/ female</w>
NAFT A</w>
Cambodi a</w>
2 4
2 7
3 2.
4 8
4 2.
A g
A si
A ra
B en
B one
C y
C ur
C umulative</w>
E d
E thi
F em
F DI</w>
I s</w>
J ord
L o
L eb
L ig
M S
M or
M FI
N am
O T
P w
P andor
S E</w>
S an
S mar
S ci
S aga</w>
S erie</w>
T ec
T ex
W ould</w>
a be
b on
b reas
b led</w>
b ados</w>
c ited</w>
d el
e k</w>
e th</w>
e ven
m ates</w>
n eigh
p anic</w>
p umps</w>
q ue</w>
r o</w>
r i</w>
t est</w>
t ants</w>
t end</w>
w in</w>
w ks</w>
z ers</w>
è s</w>
ti ary</w>
ti cians</w>
en ting</w>
in d
in v
in t</w>
in c</w>
in str
in bound</w>
an on</w>
an xi
re ly</w>
re comm
re turns</w>
201 6
ar ding</w>
ar ily</w>
ta kes</w>
or ts</w>
or ders</w>
al ers</w>
al located</w>
al umin
at or</w>
at em
at ors</w>
ri ce</w>
il way</w>
sta r</w>
sta ge</w>
sh -
sh ared</w>
di et</w>
di abe
ac res</w>
ag ine</w>
em o
si us</w>
oun ced</w>
pro te
op ing</w>
op ia</w>
op ening</w>
ul ts</w>
us e
con st
con stitu
con vic
ap preci
un married</w>
ad ers</w>
ad dic
ad iness</w>
ad dition</w>
ad oles
we b</w>
ru b
ch ant</w>
pre par
end ment</w>
ex pl
mar ily</w>
co ca
co bal
im p
im pe
ab ama</w>
respond ed</w>
coun t</w>
coun ted</w>
ter a
ter tiary</w>
qu antity</w>
ci l</w>
do gs</w>
pe er</w>
pri marily</w>
produc ers</w>
cor poration</w>
mer chant</w>
tri ple</w>
po s
po sts</w>
for mer
19 8
19 75</w>
19 72</w>
19 88</w>
enta tives</w>
so s</w>
so ap</w>
no ted</w>
gener ational</w>
gener ating</w>
vo ice</w>
tu ition</w>
bi ke</w>
enti fic</w>
pic ture</w>
form er</w>
ra ilway</w>
our ces</w>
Ne w
te sted</w>
te sting</w>
ess ential</w>
over -
4. 6</w>
ir ates</w>
6. 4</w>
cl asses</w>
tran si
5. 3</w>
spor tswear</w>
Re adiness</w>
mu si
7. 7</w>
ris en</w>
e- book</w>
e- books</w>
sub sector</w>
comm it
Wh o</w>
Wh ereas</w>
fur ni
la ws</w>
la way</w>
fu els</w>
Al abama</w>
meas uring</w>
Me d
the tic</w>
sy m
man aged</w>
work er</w>
dem on
differ enti
fran cs</w>
exc eption</w>
Par t</w>
Par is</w>
Whi lst</w>
experi encing</w>
cre ated</w>
reve al</w>
speci al</w>
speci fically</w>
Hi gh
et ro
1, 0
1, 3
/0 7</w>
anti cipated</w>
Bar bados</w>
agre eing</w>
gradu ation</w>
rema ins</w>
vari ed</w>
ele ven</w>
deb it</w>
stream ed</w>
11. 3</w>
deli vered</w>
indic ate</w>
accep ted</w>
stic ally</w>
De spite</w>
second -
ligi ble</w>
14. 5</w>
kn ow
Gu atem
mod els</w>
dist ance</w>
year- on-year</w>
valu able</w>
loo king</w>
fre ight</w>
fre edom</w>
smo kers</w>
dri ve</w>
reco vered</w>
che wing</w>
consider ably</w>
So cial</w>
den tal</w>
tro l</w>
sam ple</w>
cho se</w>
Car rabb
simil arly</w>
main tained</w>
wholes alers</w>
doc tor</w>
stead y</w>
As se
Su per</w>
pen sion</w>
list ening</w>
treat ments</w>
divor ces</w>
rup t</w>
Or g
mort g
Pay ment</w>
Ser vi
preven tion</w>
licen sing</w>
Herm an</w>
Herm ès</w>
blo gs</w>
2020/ 2021</w>
diam onds</w>
For t
nee ds</w>
anim al</w>
automo bile</w>
quali fied</w>
associ ated</w>
establi sh
bicy cle</w>
disp os
recre ational</w>
Coun cil</w>
person nel</w>
refin ed</w>
volun te
Cel sius</w>
Coo peration</w>
consequ ences</w>
giga watt</w>
Opini on</w>
temperat ure</w>
Brun sw
Cal laway</w>
Hot els</w>
foun ded</w>
consol es</w>
Catal onia</w>
EB IT
billi ons</w>
exhi bi
terroris m</w>
Tre at
motiv ation</w>
spons ors</w>
magaz ines</w>
subj ect</w>
green house</w>
Enter tainment</w>
EU- 28</w>
â€™ s</w>
Holl ywood</w>
Pan ama</w>
endor s
suffer ing</w>
therap y</w>
atten tion</w>
sexu ality</w>
Clu b</w>
Ren ault</w>
Us age</w>
swe et</w>
U.S. -based</w>
2006 /07</w>
Ara b</w>
Bone fish</w>
Ethi opia</w>
Jord an</w>
Leb anon</w>
Lig a</w>
MFI s</w>
Pw C</w>
Tex as</w>
breas t</w>
instr um
alumin um</w>
prepar ed</w>
coca ine</w>
Guatem ala</w>
Carrabb a</w>
Brunsw ick</w>
EBIT DA</w>
- F
1 30</w>
2 P</w>
3 1.
3 9.
4 ,000</w>
4 3.
6 1.
6 7.
8 0.
A G
B al
B ol
B us
B est</w>
B ir
C B
C V
C .</w>
C up</w>
D anes</w>
E ts
G B</w>
G ren
G az
H y
I o
I p
L au
M ace
N G
N at
N ic
O ffice</w>
P V
P a
P ho
P ra
P 2P</w>
R ed</w>
S ou
T e
T an
U g
V ic
V inc
V eg
W atch</w>
W ill</w>
b y
b re
b ag
b ies</w>
b il</w>
b ak
b attle</w>
c ation</w>
c ep
c au
c umulative</w>
c ows</w>
d i</w>
d ated</w>
d ding</w>
d less</w>
d ried</w>
d oping</w>
e es</w>
e en</w>
e volution</w>
e ligible</w>
f at</w>
f la
f ying</w>
g ation</w>
g gage</w>
h ub
i bia</w>
i OS</w>
k al
k To
k ish</w>
k itchen</w>
l or
l ac
l ey</w>
l ay
l ack</w>
l ene</w>
l enses</w>
m on</w>
n out</w>
n avi
p at
p rom</w>
p ool</w>
p ain</w>
p sy
p up
r am
s m</w>
s er</w>
s ey</w>
s se</w>
s nia</w>
t ary</w>
t te
t fall</w>
v a</w>
v in
w an
x on
y lene</w>
z er</w>
z eg
z ania</w>
z inc</w>
th es</w>
er c
ti me
20 35</w>
en ty</w>
en cies</w>
in king</w>
in stead</w>
an cing</w>
ro sse</w>
re si
re fers</w>
ar m
ar m</w>
ar ag
on ary</w>
al kal
li o</w>
li ers</w>
perc eptions</w>
il -
ec tion</w>
st ro
st res
as sum
ac k
ac tually</w>
el ed</w>
sp reading</w>
um b
um a</w>
pro gram
de sc
con sec
con tained</w>
lo gy</w>
ver sion</w>
be et</w>
un insured</w>
tr ack</w>
ad o</w>
ad op
we dding</w>
id ed</w>
sur face</w>
ch -
co -
gro ssing</w>
im age</w>
im agine</w>
le -
me eting</w>
ven s</w>
popul ations</w>
pri me</w>
pri orities</w>
su pre
su per</w>
cor rupt</w>
ai sing</w>
avi ation</w>
pl u
po or</w>
for ces</w>
gr o</w>
ma kes</w>
rec all</w>
19 0</w>
Mar vel</w>
lu ggage</w>
amoun ts</w>
xim ate</w>
mon ary</w>
he avy</w>
gener ate</w>
bi sexual</w>
ra m</w>
out come</w>
out bound</w>
Ch em
eg gs</w>
3. 4</w>
bo t
bas ic</w>
fin ished</w>
fac ial</w>
fe ar</w>
fe ty</w>
4. 3</w>
6. 8</w>
cl in
5. 8</w>
mi d</w>
requ ired</w>
eng es</w>
ris ks</w>
ju ice</w>
fa ther</w>
cu t</w>
cu is
cu sto
wi reless</w>
ov ina</w>
wat er
wat ts</w>
sel fi
shop ped</w>
off er</w>
min ation</w>
min orities</w>
min eral</w>
sub st
Gre en
rel ations</w>
ig n
att ending</w>
att end</w>
Oc cup
Mo bil</w>
bl ame</w>
olo g
Af fordable</w>
cri minal</w>
spec ies</w>
9. 9</w>
Me tro</w>
pay ing</w>
dr am
dr aising</w>
marke t
18 20</w>
18 96</w>
clo thes</w>
dis infec
Bo snia</w>
develop ing</w>
Co .</w>
regar ds</w>
Par liament</w>
dro power</w>
recor ds</w>
win ery</w>
contr ary</w>
sear ched</w>
boo ked</w>
Fin n
manufac ture</w>
ship ped</w>
physi cally</w>
Mal i</w>
dru g
tain ing</w>
up ward</w>
condi ti
don ation</w>
star t-
possi bility</w>
De ath</w>
Gam eS
second s</w>
read iness</w>
Ex xon
cli ent</w>
Gu ine
st- paid</w>
Po li
hand ling</w>
Wal t</w>
contrac ting</w>
Ad v
lin ing</w>
18. 9</w>
pea king</w>
Mill er</w>
claim s</w>
fre e
self- reported</w>
nomin ees</w>
comple tely</w>
environ ments</w>
mess enger</w>
Tur kish</w>
Is lands</w>
Is lam
super market</w>
Ba h
chem icals</w>
to- peer</w>
leg alization</w>
gl ass</w>
pen alty</w>
abor tions</w>
surg ery</w>
mas k</w>
extre me</w>
o- economic</w>
er- to-peer</w>
bur g</w>
bio technology</w>
al- mining</w>
adv ance</w>
adv anced</w>
pack aged</w>
pack aging</w>
inten tions</w>
process or</w>
Pe ople</w>
B2 C</w>
Ti kTo
chec k</w>
Cap ital</w>
S. p.
lim ited</w>
influen za</w>
Elec t
Sec ond</w>
brac kets</w>
Coun tries</w>
ann ounced</w>
diver sity</w>
moder n</w>
Bi ble</w>
Her zeg
wid ely</w>
refl ects</w>
avoid ing</w>
sco res</w>
motor cycle</w>
deri ved</w>
intro duction</w>
rai sed</w>
atri o
monit oring</w>
recogni zed</w>
Mini stry</w>
NH L</w>
carri ers</w>
Househ old</w>
every day</w>
PP P</w>
hum an</w>
tour nam
yi eld</w>
stu di
withdra wn</w>
freel ance</w>
Favor ite</w>
achie ved</w>
Lou is</w>
asp ects</w>
graph y</w>
Doll ar</w>
oppo se</w>
groun ds</w>
legi s
capitali zation</w>
shorta ges</w>
Brussel s</w>
Flem ish</w>
questi ons</w>
Custom er</w>
hob bies</w>
heter osexual</w>
Confeder ate</w>
Atlan ta</w>
Nam ibia</w>
Pandor a</w>
Sci entific</w>
Tec hn
anxi ety</w>
diabe tes</w>
const antly</w>
impe ach
tera watt</w>
transi t</w>
differenti ated</w>
Org ani
mortg ages</w>
Fort une</w>
exhibi tion</w>
-F i</w>
Ets y</w>
Gaz prom</w>
Ip sos</w>
Mace don
Nat ural</w>
Nic arag
PV H</w>
Tan zania</w>
bak ery</w>
lac rosse</w>
wan ted</w>
time frame</w>
custo dy</w>
GameS top</w>
Exxon Mobil</w>
Guine a</w>
Islam ic</w>
TikTo k</w>
S.p. A.</w>
Herzeg ovina</w>
Nicarag ua</w>
- Z
- 2</w>
- Bo
. C.</w>
1 3
1 10</w>
2 8
3 0,000</w>
5 0,000</w>
6 ,000</w>
6 4.
6 00</w>
A P
A bor
B lu
B ud
B la
C -
C I
C ine
D o
D S</w>
D all
D RA
E con
F landers</w>
G ran
G od</w>
G oods</w>
H en
H ul
I W
J im
K u
K ing</w>
L y
L G</w>
L as</w>
L CD</w>
M any</w>
M acy</w>
O per
O man</w>
O PE
P N</w>
P lan
P har
P ot
P atrio
R oo
S -
S m
S ub
S AR
T rans
V AT</w>
W il
Y ear</w>
a ver
a tar</w>
b at
b ru
b ric
c r
c ken</w>
d /
d om
d enti
e i</w>
e ties</w>
f ro
g ab
g men
h re
h em
i .
i ties</w>
k i
k new</w>
m -commerce</w>
n ur
n ership</w>
o sc
p ts</w>
p el
p es
p ound</w>
p ir
r ul
s an
s il
s en</w>
s sed</w>
s ani
s now</w>
t ol
t el
t ch
t ome
t tings</w>
u t</w>
v i</w>
v on</w>
v ag
v ate</w>
v ory</w>
w are
y /
y l</w>
z he
Ã ©
th e-
th us</w>
in mates</w>
ro w</w>
ro ck</w>
re di
re ports</w>
ar ia</w>
or Luxottica</w>
or ado</w>
per m
li c</w>
li mi
li br
at er</w>
ri z
ri ch</w>
ri ties</w>
il le</w>
ec ting</w>
sta ying</w>
st ere
sh ers</w>
ac tors</w>
ag greg
el ings</w>
sp ou
stati stics</w>
em i
am as</w>
si tion</w>
op h
op e</w>
op ram</w>
op tome
Th ose</w>
de -
de ter
de po
de stri
con ce
ver sely</w>
be tting</w>
ap po
ap parent</w>
un s</w>
un changed</w>
un favorable</w>
un healthy</w>
tr ading</w>
tr ying</w>
se ttings</w>
ad -
we igh
mo di
ch ance</w>
pre v
es are
ex tern
oo ks</w>
gi ve</w>
comp ens
ter y</w>
sec ure</w>
me al</w>
me tal</w>
pe trol</w>
pe destri
ve -year</w>
produc ing</w>
su m</w>
su res</w>
cor k</w>
mark ing</w>
inc umb
tri sts</w>
po is
for ced</w>
par ks</w>
par liam
par liament</w>
ma them
rec t</w>
19 76</w>
ff any</w>
increas ingly</w>
yo ga</w>
In deed</w>
so on</w>
ho t</w>
mon etary</w>
is ol
1. 14</w>
gu m</w>
he aring</w>
rea ts</w>
medi tation</w>
enti ment</w>
ni val</w>
euro zone</w>
dec or
dec lining</w>
econom ies</w>
displ ay</w>
acc ur
acc essi
cas ual</w>
fo c
fo lio</w>
over -year</w>
eg o</w>
bo l</w>
tw o-
fac ed</w>
fe elings</w>
4. 9</w>
0. 1</w>
reg ard</w>
bro kers</w>
sch e</w>
cl ed</w>
cl ays</w>
requ i
7. 3</w>
8. 6</w>
fa st-
ari ans</w>
ge es</w>
previ ously</w>
Le vi</w>
car go</w>
off shore</w>
off enders</w>
min or</w>
min us</w>
sub m
Gre en</w>
can e</w>
tal opram</w>
Mo ro
Mo sco
sig ns</w>
consid ering</w>
ca ts</w>
endit ure</w>
on- based</w>
9. 4</w>
visi ons</w>
Con stitu
fu gees</w>
Al liance</w>
Me an</w>
part -time</w>
belie ving</w>
sy n
ethnic ities</w>
provi ding</w>
clo sure</w>
dis ruption</w>
dis covered</w>
dis approve</w>
sex i
Bo tte
2019/ 2020</w>
int end</w>
Co ast</w>
regar dless</w>
fun draising</w>
sa fety</w>
exc ell
cul tural</w>
trans gender</w>
subscri ber</w>
subscri bing</w>
posi ti
favor ability</w>
jo ining</w>
1, 5
1, 9
wai i</w>
mac ro-
Inter n
Bar clays</w>
colle ague</w>
sk i</w>
Col orado</w>
Tr ade</w>
mem b
10 ,
10 7</w>
plan ted</w>
soci o-economic</w>
deb ate</w>
Am endment</w>
Rom a</w>
pow der</w>
identi fying</w>
mat ter</w>
10. 9</w>
Ha waii</w>
ori e</w>
wel l-
ach es</w>
cro p</w>
aff ect</w>
diagno sis</w>
cour ses</w>
repres enting</w>
sever ity</w>
17. 6</w>
hy dropower</w>
lea ving</w>
dist ancing</w>
contrac ep
kid s</w>
cal orie</w>
fl u</w>
publi shers</w>
dri ver</w>
nation als</w>
che ese</w>
che ster</w>
Un der</w>
Fo ssil</w>
nam es</w>
Medi cal</w>
sho t</w>
back -to-
four -year</w>
Compar atively</w>
Ca rol
Car nival</w>
in- app</w>
remo tely</w>
stric t</w>
proc ess</w>
doc um
doc tors</w>
offici ally</w>
continu ously</w>
La -Z
dou bled</w>
shor t</w>
pot entially</w>
Vene ta</w>
affili ated</w>
micro finance</w>
micro processor</w>
bur nout</w>
mal aria</w>
assi sted</w>
bene fici
kin son</w>
loy alty</w>
adv anta
inten tion</w>
instal led</w>
licen se</w>
domin ant</w>
materi al</w>
Ti ffany</w>
Vir gin</w>
bab a</w>
bab we</w>
connec tion</w>
teach er</w>
feat ure</w>
anim e</w>
Mil itary</w>
compo sition</w>
quali fication</w>
multi- channel</w>
Har ry</w>
Wi thin</w>
Wi -Fi</w>
a- Pacific</w>
pan el</w>
consi sts</w>
moder ate</w>
-year- old</w>
Ou t</w>
appe ared</w>
Char lot
Man chester</w>
Willi am</w>
uti li
medic ation</w>
analy sts</w>
Mad rid</w>
ite m</w>
atri c</w>
chall enges</w>
Presid ential</w>
Prefer red</w>
sle ep</w>
origin ated</w>
Lab our</w>
Mag hre
Tim ber
Zim babwe</w>
opio id</w>
concen tration</w>
out-of- pocket</w>
Soci ety</w>
discus sed</w>
implem entation</w>
Essil orLuxottica</w>
EM EA</w>
coo king</w>
skil ls</w>
impres sions</w>
there fore</w>
small er</w>
Exp enditure</w>
ML B</w>
eye wear</w>
uplo ad</w>
Cont ribution</w>
power ful</w>
Jer sey</w>
Rap tors</w>
eni x</w>
comfor table</w>
not ebook</w>
Asi a-Pacific</w>
Fem ale</w>
Smar t
bon uses</w>
neigh bor
recomm end
convic ted</w>
former ly</w>
sym bol</w>
CV S</w>
Pho enix</w>
Veg as</w>
bag s</w>
navi gation</w>
vin yl</w>
program ming</w>
clin ical</w>
disinfec tants</w>
Finn ish</w>
Bah amas</w>
Organi zation</w>
Macedon ia</w>
-Bo y</w>
Cine world</w>
Dall as</w>
DRA M</w>
Gran t</w>
Hul u</w>
IW G</w>
Jim my</w>
Oper ating</w>
OPE C</w>
Patrio ts</w>
SAR S-
fro zen</w>
gmen ted</w>
osc ill
pes os</w>
sani tiz
tol l</w>
vag inal</w>
zhe im
stere o
optome trists</w>
conce ded</w>
esare an</w>
extern al</w>
compens ation</w>
incumb ent</w>
pois oning</w>
mathem ati
Mosco w</w>
Botte ga</w>
excell ent</w>
back-to- school</w>
La-Z -Boy</w>
Charlot te</w>
Maghre b</w>
' The</w>
- in</w>
- five</w>
- Sa
- sized</w>
1 2
4 9
4 G</w>
5 G</w>
5 1.
5 6.
6 3.
7 6
7 00</w>
8 00</w>
A du
A riz
B O</w>
B T</w>
B or
C M
C T</w>
C ru
D V
E .</w>
E CD</w>
E FA</w>
F Y
F our</w>
G ame</w>
G lobe</w>
H om
H allow
I K
I ri
K on
L E
L V
L egal</w>
M H</w>
M ess
N O
N o
N o</w>
O ECD</w>
P D</w>
P ic
P ounds</w>
P enetration</w>
P uma</w>
Q atar</w>
R i
R ates</w>
R ak
S E
S im
S hou
S tu
S tra
T U
T O</w>
T er
V an
V -2</w>
W H
Y o
Y an
Y ear
a ids</w>
b n
b it
b ly</w>
b den
c el</w>
d well
d ows</w>
d rank</w>
d ite
e ster</w>
e tings</w>
e st-paid</w>
f th
g ur
g one</w>
g uns</w>
g -in</w>
i on</w>
l v
l in</w>
l aid</w>
m ech
m alls</w>
n y</w>
n ow
n ext
o d
o ds</w>
o sexuality</w>
r ing
r ace
s at
s ci
s sion</w>
s entiment</w>
u ten</w>
v ar
w ar
x ed</w>
y m
y land</w>
y nam
y bden
th -
th eless</w>
th reats</w>
er ia</w>
er esa</w>
en abled</w>
in ation</w>
an ical</w>
ro oms</w>
re por
re pe
re view</w>
re plac
re duced</w>
re fugees</w>
ar med</w>
or -
it ely</w>
it self</w>
al ing</w>
al ong</w>
al ism</w>
hi m</w>
hi a</w>
li ve
ri ding</w>
ec hia</w>
sta l</w>
sta cle</w>
sh e</w>
sh are
sh els</w>
di sh
di tions</w>
di stru
as ons</w>
as ma</w>
ag er</w>
vi et</w>
vi su
sp o
sp ir
em ed</w>
em on</w>
um -sized</w>
Unit ed
pro bab
ul emon</w>
Th e
Th rough</w>
Th inking</w>
Th eresa</w>
de fic
de ep</w>
us s</w>
us er-
lo g
lo se</w>
200 0
ver theless</w>
be dro
ap e</w>
ap est</w>
un safe</w>
tr a</w>
tr um</w>
se vel
se ssion</w>
ad ines</w>
ad dre
ati cally</w>
mo tion</w>
ru bles</w>
por tr
por table</w>
sur pri
sur roun
ch ing</w>
bu il
bu tter</w>
bu shels</w>
fi el
co vers</w>
co aches</w>
im medi
im aging</w>
im posed</w>
ab ilities</w>
coun ter</w>
to m</w>
to es</w>
to or</w>
qu ad
qu ide</w>
ci talopram</w>
me an
me etings</w>
pe er-to-peer</w>
popul ated</w>
ran ged</w>
ran ges</w>
ran ging</w>
ne ar</w>
elec ted</w>
inc es</w>
tri ed</w>
ser ve</w>
pl ant</w>
pl asma</w>
po p</w>
gr ating</w>
CO PD</w>
ma kers</w>
inter actions</w>
inter ests</w>
rec ru
00 ,000</w>
19 40</w>
Mar yland</w>
lu bric
yo ta</w>
In sight</w>
In dite
peri ods</w>
appro ximate</w>
sc o</w>
eb o
is land</w>
high li
res ources</w>
bil ls</w>
medi um-sized</w>
vo c
tu ps</w>
bi kes</w>
pic k
chi cken</w>
fir st-
tra in</w>
acti vely</w>
over time</w>
selec tion</w>
sit s</w>
sit ting</w>
oc k</w>
fe e</w>
brea k
0. 7</w>
0. 2</w>
6. 3</w>
compan y-
5. 9</w>
/1 7</w>
requ ests</w>
Re asons</w>
mu tual</w>
Perc eived</w>
7. 5</w>
7. 4</w>
7. 9</w>
8. 2</w>
8. 5</w>
8. 3</w>
fa il
cu s</w>
tur n</w>
tur ed</w>
br ush</w>
ari ff</w>
sour ced</w>
To yota</w>
Indi ans</w>
e- to-
cip al</w>
low -
au t
au gmented</w>
Gre ek</w>
fic ations</w>
gre ss</w>
ke eping</w>
Pol es</w>
cap tured</w>
9. 7</w>
Al ber
Al l-
Al zheim
sy lv
man aging</w>
pay er</w>
ob stacle</w>
hour ly</w>
dr y</w>
dr ama</w>
pass ing</w>
Belgi ans</w>
18 ,
18 60</w>
dis ability</w>
ali st</w>
ali ties</w>
sex ually</w>
dem oc
Bo dy</w>
Co V-2</w>
non- food</w>
tic als</w>
ans a</w>
fun ded</w>
ste el</w>
sa il
Par k</w>
Fi ve</w>
Li quide</w>
cc o</w>
cc i</w>
some times</w>
hom osexual</w>
hom osexuality</w>
win ners</w>
omin ation</w>
wa shing</w>
sal on</w>
hospi tality</w>
speci alists</w>
speci alized</w>
alth y</w>
uni ties</w>
ga ined</w>
cy cling</w>
har an</w>
gran d
physi ci
/0 1</w>
Bar cel
11. 2</w>
prof its</w>
electri c
multi player</w>
10. 5</w>
star tups</w>
prov inces</w>
Por n
Por sche</w>
ach al</w>
under stand</w>
read er</w>
read ers</w>
Ma ine</w>
2, 2
2, 5
expen se</w>
Gu cci</w>
Lu fth
minu te</w>
Pri vate</w>
mari time</w>
hand -
lin ked</w>
vac ancy</w>
communic ate</w>
3, 6
En i</w>
ss ment</w>
practi cing</w>
self- service</w>
prin cipal</w>
23. 6</w>
Bl ack
dri vers</w>
dep ending</w>
conf ident</w>
comple te</w>
cou p
consider able</w>
So viet</w>
Consum ers</w>
cho sen</w>
back grounds</w>
Car d
fri ger
recei pts</w>
excee ds</w>
responsi bility</w>
War saw</w>
Em irates</w>
suppl ement</w>
manufactur ed</w>
bul k</w>
bul lied</w>
NA TO</w>
def ine</w>
athle tics</w>
Air bn
preven ting</w>
fav our
licen sed</w>
munic ation</w>
indicat ors</w>
Boom er</w>
Bu ilding</w>
lab els</w>
sea food</w>
hospitali zations</w>
25 th</w>
IS I
ampion ships</w>
influen cers</w>
Cz echia</w>
top ic</w>
choo sing</w>
Sun s</w>
pan cre
pod cast</w>
necess arily</w>
non profit</w>
port folio</w>
bott le</w>
celeb rating</w>
volun tary</w>
harass ed</w>
avoid ed</w>
ord ered</w>
medic ine</w>
intro duced</w>
pul monary</w>
liqu id
stop pers</w>
soli d</w>
soli dated</w>
Opini ons</w>
temperat ures</w>
Res orts</w>
rap e</w>
territ ories</w>
pota toes</w>
recogni tion</w>
Hor de</w>
dur ation</w>
home owners</w>
sent ences</w>
Univer sity</w>
opio ids</w>
Ali baba</w>
Mi gration</w>
Rob ert</w>
bloc king</w>
happ y</w>
enjo y</w>
extr action</w>
col or</w>
lul ulemon</w>
nic kel</w>
re- election</w>
municip al</w>
sun glasses</w>
wal king</w>
compon ent</w>
post secondary</w>
renov ations</w>
conflic t</w>
gall ons</w>
mol ybden
relie f</w>
chur ch</w>
house work</w>
optimi stic</w>
Cy ber</w>
2016 /17</w>
prote sters</w>
constitu ted</w>
addic ted</w>
adoles cents</w>
cobal t</w>
establish ments</w>
dispos able</w>
volunte ering</w>
Gren adines</w>
Io T</w>
Pra desh</w>
Ug anda</w>
Vinc ent</w>
erc ings</w>
stro ke</w>
plu g-in</w>
Chem ical</w>
Econ om
Hen kel</w>
Roo sevel
denti st</w>
sil ver</w>
tel eph
depo sits</w>
appo int
weigh ted</w>
prev ent</w>
Moro cco</w>
positi vely</w>
Carol ina</w>
SARS- CoV-2</w>
-Sa haran</w>
Adu l
Ariz ona</w>
Hallow een</w>
Iri sh</w>
Kon toor</w>
LV MH</w>
Rak uten</w>
Shou ld</w>
Stra uss</w>
TU I</w>
Van cou
Year -
dwell ings</w>
mech anical</w>
var ying</w>
ynam ics</w>
visu al</w>
United Health</w>
probab ly</w>
defic it</w>
addre ss</w>
lubric ant</w>
Indite x</w>
Alzheim er</w>
sylv ania</w>
Barcel ona</w>
Lufth ansa</w>
Airbn b</w>
molybden um</w>
Roosevel t</w>
- to</w>
. ..</w>
0 17</w>
1 50</w>
1 40</w>
1 45</w>
3 5
3 ,000</w>
3 4.5</w>
3 0,
4 -year</w>
5 5.
5 0s</w>
5 01</w>
6 5
7 8.
A T
A B</w>
B L
B ill
B rit
B hu
B HP</w>
C H
C R
C ri
C inc
C oc
C hoo</w>
D I
D C</w>
D ar
D ell</w>
D ick</w>
D VR</w>
D etro
E ag
E redi
F oun
F ollow
F ore
F MC
G i
G O</w>
G ab
G ram
H I
I vory</w>
J an
K i
K PM
L an
L ength</w>
M A</w>
M V</w>
M ac
M ol
M ass
M RO</w>
N C</w>
N iss
P er</w>
P ap
P eu
P IS
P Cs</w>
Q 1</w>
R s</w>
S D</w>
S A</w>
S ol
S el
S ch
S ates</w>
S onom
S oc
S am</w>
S ey
S wa
S ee</w>
S porting</w>
S OS</w>
S ri</w>
T V
T hi
T ri
T om
U r
U M</w>
U EFA</w>
V R
W ars</w>
W ine</w>
Y a
Y E</w>
Z am
a i</w>
a ts</w>
a way</w>
a ero
b ali
b reach</w>
b ability</w>
b bed</w>
c -
c ent</w>
c um
c ore</w>
c all</w>
c enti
c old</w>
d ly</w>
d ure</w>
d ome
d am</w>
d ying</w>
e a
e di
e ge</w>
e dition</w>
g /
g ain</w>
g ative</w>
g lobe</w>
h o</w>
h i</w>
h ands</w>
i a
i vo
i deal</w>
i Ph
k it</w>
k no
k ansas</w>
l er</w>
l ly</w>
l ens</w>
m oun
m enta
m enti
m aci
m oms</w>
n a
n sylvania</w>
o l</w>
o it
o lis</w>
o vens</w>
p op
p un
p ping</w>
p ain
p essi
r a</w>
r ag
r are</w>
r aid</w>
r ite</w>
s n
s ou
s ending</w>
s burg</w>
t /
t un
t .com</w>
t esa</w>
u ph
u list</w>
v s</w>
v an</w>
v ending</w>
v ings</w>
v aries</w>
y es</w>
y er</w>
y wide</w>
y ana</w>
z il
â €</w>
er n</w>
ti n
en ge</w>
en ter</w>
in cial</w>
in door</w>
in sul
an o</w>
an ies</w>
an tar
re li
re ate</w>
re cording</w>
re als</w>
re uni
re al-
re searched</w>
re friger
ar o</w>
ar ded</w>
ar my</w>
on t</w>
on shore</w>
ta ge</w>
ta min
ta bly</w>
or ation</w>
or id
per -
al au
al ert</w>
hi p
hi gan</w>
li g
li p
li k</w>
li est</w>
li ber
ri llion</w>
il ty</w>
om as</w>
ur ban
sta tu
sta ff</w>
di scri
as car</w>
ac qu
ac king</w>
ac re</w>
ag ri
ag e-
ag encies</w>
ag ascar</w>
vi s</w>
vi sed</w>
vi d-
el les</w>
sp inal</w>
nit ro
em ail</w>
du ties</w>
du bbed</w>
am bi
am ond</w>
am s-
si ssi
oun ces</w>
pro p
pro state</w>
pro bability</w>
op port
Th omas</w>
de ad
de posi
us et
con d
con sent</w>
con servative</w>
con tested</w>
con solidated</w>
lo ved</w>
com b
ver ies</w>
be c</w>
be ach</w>
ap s</w>
ap olis</w>
wit ch</w>
se st</w>
se ems</w>
se where</w>
mo bil
mo ved</w>
mo st-
por n</w>
sur passed</w>
ch ools</w>
ch elles</w>
end -
end ar</w>
ex por
resp ir
resp ect</w>
mar gin
fi ghting</w>
fi ve-year</w>
co ron
co hor
co al-mining</w>
gi a</w>
im pro
to ys</w>
to tally</w>
le ans</w>
ing ful</w>
qu in
sec ured</w>
ci vi
do va</w>
ven ues</w>
pri ority</w>
mark ed</w>
ne ys</w>
ai ght</w>
str aight</w>
pl ays</w>
po x</w>
po ds</w>
po stal</w>
regi vers</w>
pres chools</w>
ma il-
inter active</w>
inter val</w>
19 65</w>
19 28</w>
19 69</w>
19 77</w>
19 84</w>
yo gur
In c</w>
In depend
exp ir
sc ams</w>
mon t</w>
is es</w>
1. 16</w>
1. 49</w>
1. 74</w>
gu s</w>
quar tile</w>
and -
and er</w>
bil l</w>
Di ego</w>
Di amond</w>
form al</w>
dec eas
dec ided</w>
ra w</w>
chi ef</w>
Ne vertheless</w>
Ne gative</w>
Bri ti
te eth</w>
resul ted</w>
nu tri
indi rect</w>
3. 9</w>
bo ts</w>
bo arding</w>
erm at
tw enty</w>
lar g
oc ean</w>
fe ed</w>
own er</w>
cat ering</w>
0. 8</w>
0. 3</w>
bro ad</w>
mi stic</w>
Re ligi
Re gus</w>
Perc eptions</w>
busin ess
7. 6</w>
7. 50</w>
sour i</w>
sour cing</w>
ene gro</w>
To m</w>
ge -
devi antar
sel ls</w>
ban ia</w>
off er
off ences</w>
off enses</w>
min ority</w>
eth ical</w>
der all</w>
ear th</w>
sub stitu
sub sequ
Gre ater</w>
can cel</w>
struc tive</w>
ig inal</w>
vol ta
pac ed</w>
gre eting</w>
sig n</w>
ca regivers</w>
Sp ani
spec trum</w>
poli ticians</w>
9. 8</w>
la hom
cur ling</w>
visi e</w>
Con go</w>
Con servative</w>
Con versely</w>
bran ches</w>
Al bania</w>
Me tropolitan</w>
af raid</w>
expec ting</w>
finan ci
foo tfall</w>
invest ors</w>
18 0</w>
18 63</w>
clo sest</w>
dis a
Ar ce
Ar kansas</w>
kil ling</w>
techn ical</w>
int el
app lied</w>
stre et</w>
go t
go t</w>
go lia</w>
non- EU</w>
non- viewers</w>
non- hazardous</w>
sa ve</w>
sa vings</w>
stri kes</w>
cul ture</w>
teen th</w>
Li b
Li ver</w>
trans fers</w>
all -time</w>
franchi sed</w>
ill ness</w>
cre ation</w>
Com bined</w>
view ership</w>
rol l</w>
speci alizing</w>
supp lied</w>
supp liers</w>
1, 1
1, 4
1, 7
1, 500</w>
mac hin
Reven ues</w>
gran t</w>
gran ting</w>
sol ved</w>
anti al</w>
sk a</w>
Col a</w>
Mal aw
down s</w>
alco hol
agre ement</w>
cel lul
big -
vari ety</w>
vari eties</w>
tru sted</w>
tru ck</w>
grocer ies</w>
11. 6</w>
11. 4</w>
Mon golia</w>
indic ating</w>
mat urity</w>
accep t</w>
10. 8</w>
10. 4</w>
tt en
prov incial</w>
De f
Chi ck
Por t
ach uset
under ground</w>
neg atively</w>
Ex port</w>
drin kers</w>
14. 6</w>
repres entation</w>
Gu yana</w>
Vo ting</w>
ent -
15. 6</w>
Po k
Po st</w>
sever ely</w>
nec tar</w>
Net work</w>
12. 3</w>
az ion
aw ard</w>
dist ric
contrac eption</w>
year- over-year</w>
Ad derall</w>
vac ations</w>
shoo ter</w>
cal endar</w>
arri ors</w>
loo ked</w>
cir cum
16. 7</w>
16. 9</w>
claim ing</w>
smo ked</w>
syst em
13. 6</w>
che apest</w>
environ menta
allow s</w>
Im port</w>
Im port
den sity</w>
Scot tish</w>
Is landers</w>
pol y
sho e</w>
sho es</w>
emer ged</w>
conven tion</w>
Chan ges</w>
Compar ison</w>
Ca tho
fri end</w>
son aro</w>
tor ture</w>
tor ia</w>
thre at
accommod ations</w>
corpor ations</w>
main stream</w>
excee ding</w>
As da</w>
Su per
15 ,000</w>
4, 1
La os</w>
War ner
Forec asted</w>
EU 5</w>
defin itely</w>
surg eries</w>
suff ici
Win d</w>
divor ced</w>
consist ent</w>
22. 8</w>
Qu antity</w>
27. 4</w>
invol ving</w>
pi ercings</w>
proce dure</w>
Mic higan</w>
Son ic</w>
weap on</w>
counter parts</w>
inten sive</w>
inj ured</w>
Fri ends</w>
bacc alau
pp i</w>
sem ester</w>
theat er</w>
For d</w>
Jam es</w>
Sen egal</w>
chec k-
broadca sters</w>
Fl orid
lim it</w>
ck y</w>
top s</w>
disor der</w>
laun ched</w>
Play station</w>
PA C</w>
PA Cs</w>
PA YE</w>
retur ned</w>
diver se</w>
assist ants</w>
deal ing</w>
subsidi es</w>
Christi an</w>
Bi g</w>
FT SE</w>
Her bali
Mc Donald</w>
Ou t
pa sta</w>
independ ence</w>
auth orities</w>
mach ine</w>
mid- 2020</w>
Ang ola</w>
Willi ams-
mini ster</w>
classi fi
Ho spi
Mad agascar</w>
Nu trition</w>
Ver sail
arti cles</w>
liqu or</w>
stop ped</w>
chall enge</w>
giga watts</w>
Brun ei</w>
Res ults</w>
ide a</w>
thi um</w>
promo tion</w>
consol e</w>
fire arm
intern ship</w>
Mini ster</w>
Ra i</w>
dam age</w>
rac ism</w>
advi sed</w>
competi tion</w>
carri er</w>
discoun ts</w>
photo volta
Househ olds</w>
IP SOS</w>
Pac kers</w>
RA F</w>
flow ers</w>
hu b</w>
depres sive</w>
concen tr
post- baccalau
resol ution</w>
Liber al</w>
Liber ia</w>
ski ing</w>
implem ented</w>
Essil or</w>
Ju ven
mand ate</w>
characteri stics</w>
Del oit
Mis sissi
Mis souri</w>
Pen nsylvania</w>
Tw o</w>
bing e</w>
gy m</w>
alp ine</w>
susp ended</w>
control led</w>
suppor ters</w>
Ok lahom
Wall onia</w>
cam ping</w>
care er</w>
you ths</w>
diff ic
recy cled</w>
casin os</w>
geo t</w>
cancel led</w>
Mont enegro</w>
admini stration</w>
Attitu des</w>
Cur rently</w>
pos se
198 0s</w>
over- the-
commit ment</w>
demon strates</w>
High est</w>
Asse ssment</w>
Treat y</w>
endors ements</w>
instrum ent</w>
Bol sonaro</w>
Lau der</w>
Vic toria</w>
bre ed</w>
hub .com</w>
supre maci
cuis ine</w>
selfi e</w>
subst antial</w>
drug -related</w>
tournam ent</w>
Techn ology</w>
impeach ment</w>
Abor iginal</w>
Ku wait</w>
Ly ft</w>
Sub -Saharan</w>
aver aged</w>
bru shes</w>
i. e</w>
nur ses</w>
perm its</w>
limi ting</w>
Constitu tion</w>
macro- region</w>
Intern azion
memb ership</w>
benefici aries</w>
recommend ations</w>
oscill ated</w>
stereo types</w>
CM S</w>
Hom icide</w>
IK EA</w>
next -day</w>
replac ement</w>
2000 /01</w>
surroun ding</w>
buil t</w>
quad rillion</w>
mean ingful</w>
fail ure</w>
hand- held</w>
ISI S</w>
liquid ity</w>
Econom ic</w>
Vancou ver</w>
Brit ons</w>
Bhu tan</w>
CH F</w>
Cinc in
DI Y</w>
Detro it</w>
Eredi visie</w>
FMC G</w>
Gab on</w>
KPM G</w>
Lan ka</w>
Mol dova</w>
Mass achuset
Niss an</w>
Pap ua</w>
Peu geot</w>
PIS A</w>
Sonom a</w>
Soc cer</w>
Sey chelles</w>
Swa zil
Tri logy</w>
Ur ban</w>
Ya hoo</w>
Zam bia</w>
centi meters</w>
pun c
pessi mistic</w>
sou thern</w>
discri mination</w>
vid- 19</w>
opport unities</w>
deposi t</w>
mail- order</w>
deviantar t.com</w>
Arce lik</w>
machin ery</w>
Malaw i</w>
cellul ar</w>
Import ance</w>
Warner Media</w>
Florid a</w>
Herbali fe</w>
Williams- Sonoma</w>
Versail les</w>
firearm -related</w>
post-baccalau reate</w>
Deloit te</w>
Mississi ppi</w>
Oklahom a</w>
supremaci st</w>
Internazion ale</w>
Massachuset ts</w>
Swazil and</w>
' M
- 12</w>
- label</w>
/ 2016</w>
/ 2011</w>
/ ethnicity</w>
1 13</w>
2 100</w>
2 90</w>
2 -year</w>
2 8,
3 1.5</w>
4 38</w>
4 90</w>
4 4,
4 3.5</w>
4 8,
5 0
6 /
6 9
6 5.
7 6.
7 5.
A C</w>
A ven
A ssi
B ay
B ill</w>
C r
C er
C op
C ard</w>
C AG
C esarean</w>
D .C.</w>
E A
E duc
F res
F ree</w>
F DA</w>
G G
G M</w>
G ay</w>
G old</w>
G rou
G MV</w>
H S</w>
H ud
J e
J az
J ets</w>
K it
K itchen</w>
K -12</w>
L oc
L akers</w>
M b
M C</w>
M el
M us
M ass</w>
M atch</w>
M PR
M HS</w>
N D</w>
N T</w>
N ations</w>
O w
O D</w>
P i
P OS</w>
Q 2</w>
R ou
R ec
R adi
S pur
S atis
S anti
T en
T ar
T ali
T TI
T witch</w>
U B
U l
U ta
V OD</w>
W E</w>
W arriors</w>
Y oun
Y outh</w>
a S</w>
a k</w>
a de
b ar</w>
b all</w>
b ered</w>
b arri
b ago</w>
c t</w>
c tions</w>
c and
c e-
c ago</w>
c alls</w>
d an
d ent</w>
d al</w>
d ermat
e .
e ta
e sp
e able</w>
e valu
f lo
f ine</w>
f ty</w>
f arm</w>
g au
g gets</w>
h ec
h ep
h older</w>
i er</w>
i ers</w>
i ors</w>
i stu
k o
k p
k g</w>
k ing
k ne
k e-
l try</w>
m et</w>
m yo
m und</w>
m our</w>
m uni
m Health</w>
n in
n ati
n one</w>
n esses</w>
o x</w>
o ids</w>
p on
p ou
p al</w>
p ure</w>
p ence</w>
r h
r u</w>
r ay</w>
s l
s al</w>
s ers</w>
s onal</w>
s ory</w>
s low
s ace</w>
s la
s low</w>
s ong
t es
t end
t ected</w>
t less</w>
t ories</w>
t ext</w>
t owns</w>
t ander</w>
u r</w>
u tive</w>
v ille</w>
w ri
w ol
y ale</w>
z lo
z ones</w>
¨ s</w>
Ã ¨s</w>
é al</w>
er ran
er ships</w>
ti cip
en se</w>
en try</w>
en listed</w>
en counter
en thu
in o</w>
in id
in stance</w>
an y
an te
an dic</w>
an cers</w>
ro yale</w>
re ver
re ci
re production</w>
re jected</w>
ar ction</w>
ar s.
ar ante
on i
on ate</w>
on ged</w>
on wards</w>
ta s
ta res</w>
ta ils</w>
it ers</w>
it erran
ou ts</w>
al lo
al bu
al low</w>
hi stor
li f
li sts</w>
li via</w>
li thium</w>
perc ei
at -
at er
il ed</w>
il arly</w>
om es</w>
sta di
st em
st est</w>
st ems</w>
sh ings</w>
sti g
di mini
as y
ac es</w>
ow ed</w>
ag gres
ol en</w>
el u
el se</w>
el sewhere</w>
sp ur</w>
du le</w>
am au
um n</w>
si mp
202 7</w>
202 6</w>
pro -
pro ven</w>
pro duce</w>
op position</w>
ye t</w>
Th ron
Th ings</w>
de v
de plo
de tails</w>
ic es</w>
con tain</w>
con tain
lo g</w>
lo on</w>
lo com
lo ve</w>
lo sing</w>
com pro
com bus
com modi
Sta tion</w>
Sta tes
be ers</w>
ap le</w>
ap ter</w>
ha wks</w>
un intentional</w>
un wanted</w>
se e
se ven
ad y</w>
ad ditions</w>
ad voc
ati on-based</w>
we stern</w>
we althy</w>
id ers</w>
id ences</w>
id ental</w>
mo ving</w>
mo bility</w>
mo istu
ru n</w>
ru p</w>
por ary</w>
wh om</w>
ch i</w>
ch lor
pre ss</w>
end ly</w>
end ants</w>
ex po
ex porting</w>
mar ine</w>
fi able</w>
fi bers</w>
co l</w>
co very</w>
duc ing</w>
respond ent</w>
to y</w>
to ols</w>
le ts</w>
le an</w>
gh ly</w>
comp are</w>
comp ris
doll ars.
ter ies</w>
ei ro</w>
me tri
me als</w>
su spec
cor d</w>
ran kings</w>
ne u
ne ts</w>
elec t</w>
inc enti
inc idences</w>
tri m
po t</w>
gr a
pres entatives</w>
ma ke
val uation</w>
val id</w>
val iers</w>
19 19</w>
19 55</w>
19 79</w>
Mar ti
In -
In stitu
In surance</w>
exp an
ho p</w>
no -
no v
no tic
no tably</w>
is lands</w>
high est-paid</w>
1. 15</w>
1. 75</w>
1. 85</w>
gu a</w>
gu ests</w>
gu arante
res so</w>
vo sa</w>
tu cky</w>
Di strict</w>
enti t
enti a</w>
econom ically</w>
chi ps</w>
chi atric</w>
2. 06</w>
ph ase</w>
Ne vis</w>
te dly</w>
employ ing</w>
tra ining</w>
acc ept
nu ts</w>
grap e
Ch ro
Ch ampionship</w>
fin tech</w>
tw enti
follow er</w>
fac ts</w>
ng ent
Fac e</w>
brea ks</w>
own -label</w>
Per sonal</w>
0. 6</w>
0. 9</w>
maj ors</w>
cl ass
bus es</w>
mi grated</w>
Re presentatives</w>
Perc ent</w>
7. 2</w>
7. 8</w>
ris on</w>
8. 7</w>
8. 8</w>
8. 9</w>
fa thers</w>
fa stest</w>
cer y</w>
ass ass
child hood</w>
To tten
To bago</w>
oper ational</w>
wat ers</w>
Le aders</w>
e- granting</w>
car at</w>
car ry</w>
car rying</w>
fer ro
ban ned</w>
off -
min i</w>
eth an
der gar
inf ring
inf arction</w>
vol umes</w>
att les</w>
Nov arti
Mo tors</w>
ke spe
Pol o</w>
cap sul
ca sh
vide o-
on- demand</w>
Sp ec
Sp ending</w>
spec tives</w>
inve sting</w>
inve stig
la sted</w>
cur ative</w>
Gro cery</w>
Con n
fu n</w>
bran d/
Al so</w>
the ast</w>
sy phi
sy rup</w>
pay ers</w>
pay roll</w>
loc ation-based</w>
ob j
ob taining</w>
thir d-
govern ors</w>
invest or</w>
18 1</w>
18 56</w>
18 92</w>
clo sures</w>
regul ated</w>
dis covery</w>
air lines</w>
ali ve</w>
Ar mour</w>
dem entia</w>
Bo livia</w>
fam ous</w>
rati os</w>
stre ams</w>
Co vid-19</w>
regar ded</w>
tic ally</w>
fun dam
impac ts</w>
coll ect</w>
Par kinson</w>
Par ticip
Den ver</w>
An ton
Li ons</w>
hom eless</w>
subscri be</w>
Cor by
cre ative</w>
Com munications</w>
wa res</w>
wa ke</w>
ak house</w>
ani an</w>
verti sing</w>
tre es</w>
tre at</w>
tre ated</w>
tre ss</w>
Fin tech</w>
ful ness</w>
speci fied</w>
retail ing</w>
men u</w>
alth care</w>
bud a</w>
bud geted</w>
bec omes</w>
uni que</w>
ga ther
ga thered</w>
jo in</w>
whe el
char ity</w>
bor ro
cy ber
cy cli
Bar buda</w>
vic tory</w>
ber g</w>
asse ssed</w>
Col l</w>
Mal ta</w>
Tr ail</w>
Tr inid
2010 /2011</w>
gradu ated</w>
mem ory</w>
2015 /2016</w>
projec t</w>
up on</w>
Wor k
tru th
tru st
11. 5</w>
Am oun
don ors</w>
tow er</w>
17 ,
stic k</w>
Ha wks</w>
star ting</w>
He althcare</w>
effici ency</w>
De vi
De pot</w>
ster -
ster Card</w>
Chi cago</w>
nat i</w>
bel onged</w>
poll u
poll ed</w>
Du ke</w>
Ma z
Ma sterCard</w>
14. 9</w>
2, 0
2, 3
2, 7
cour t</w>
repres ent</w>
repres entatives</w>
Vo ice</w>
Pri ces</w>
new s
17. 5</w>
Gener ally</w>
num bered</w>
12. 5</w>
Wal loon</w>
hy dr
aw arded</w>
citiz en</w>
Ad vertising</w>
SM S</w>
18. 1</w>
18. 4</w>
phar ma</w>
16. 1</w>
3, 0
3, 5
3, 8
Jo b</w>
gen e</w>
practi cal</w>
practi ced</w>
ten th</w>
ten ure</w>
self- employed</w>
self- paced</w>
prin ted</w>
dri ven</w>
19. 8</w>
nomin al</w>
Un it</w>
Un der
allow ing</w>
sug gest</w>
20. 8</w>
lesbi ans</w>
So chi</w>
tro ops</w>
stoc kp
bal ances</w>
adm ission</w>
Ca valiers</w>
desig n</w>
Comp ound</w>
Comp anies</w>
28. 6</w>
28. 2</w>
28. 5</w>
fri endly</w>
land o</w>
thre e-
serv ers</w>
serv atives</w>
Ge ox</w>
leg ality</w>
main tain</w>
contin ents</w>
remo val</w>
Pr o</w>
Pr ince</w>
Su stain
War ner</w>
dou bles</w>
construc ted</w>
abor at
30. 6</w>
EU RO</w>
Icel andic</w>
Sy stems</w>
Sy ngent
sen iors</w>
telec om</w>
disc reti
bul bs</w>
Austri an</w>
27. 5</w>
37. 9</w>
Ken y
Ken tucky</w>
Or leans</w>
Or lando</w>
distin ct</w>
kilome ter</w>
avo id</w>
pi ece</w>
stand ards</w>
degre e-granting</w>
contac tless</w>
NA ND</w>
kin dergar
pack age</w>
pack ages</w>
Lin de</w>
je ts</w>
preven ted</w>
crow ded</w>
Geor gia</w>
process ed</w>
Herm Ã¨s</w>
Sen ior</w>
tex tiles</w>
Mil ano</w>
fif ty</w>
cardi al</w>
answ ers</w>
influen cing</w>
Sec re
US A</w>
associ ate</w>
telecom munication</w>
FI FA</w>
a- Cola</w>
dre w</w>
Play Station</w>
diver si
deal t</w>
consi sted</w>
subsidi aries</w>
celeb rate</w>
celeb rities</w>
hyper markets</w>
bankrupt cy</w>
Mc Coll</w>
pa per
refin ery</w>
appe ar
seri ously</w>
clim bing</w>
mid- June</w>
extrem ists</w>
clic ks</w>
clic k-
uti vely</w>
releas es</w>
que ue</w>
classi fied</w>
classi fication</w>
5, 8
Nu ggets</w>
Ver sace</w>
ner vosa</w>
pul p</w>
rai se</w>
consequ ence</w>
separ ate</w>
episo des</w>
scre en</w>
scre ens</w>
Presid ents</w>
Prefer ence</w>
Hot spur</w>
Mer ck</w>
ide ology</w>
promo te</w>
territ ory</w>
intern al</w>
bodi es</w>
Catal an</w>
EB IT</w>
Hor nets</w>
billi onaires</w>
sent enced</w>
discoun ters</w>
Bro ad
IP O</w>
Pac k
Rob in</w>
Sha kespe
bloc kers</w>
yi el
enjo yed</w>
depres sion</w>
conc essi
extr a</w>
resol ve</w>
festi vals</w>
ski e</w>
freel ancers</w>
Favor ability</w>
CP I</w>
Ju st</w>
Nig eria</w>
mand atory</w>
skil l</w>
des k</w>
attemp t</w>
Anti eta
Anti gua</w>
Del hi</w>
Ty pes</w>
compon ents</w>
susp ected</w>
post p
conflic ts</w>
MC O</w>
Ste akhouse</w>
Wall et</w>
gas es</w>
inte grated</w>
attr active</w>
survi val</w>
recy cling</w>
casin o</w>
Mont ana</w>
Attitu de</w>
Ed ward</w>
San tander</w>
del ayed</w>
inv asi
emo tional</w>
use um</w>
rub ber</w>
expl oration</w>
musi cal</w>
furni shings</w>
Med iterran
know ing</w>
Servi ces</w>
Bus iness</w>
Bir th</w>
Hy un
NG Os</w>
lay offs</w>
psy chiatric</w>
resi ding</w>
assum ing</w>
consec utively</w>
adop ted</w>
ch- speaking</w>
bot tom</w>
Green land</w>
dram atically</w>
market place</w>
conditi oning</w>
start- ups</w>
free zer</w>
Elect ronics</w>
AP Is</w>
Blu es</w>
Bud get</w>
Bla zers</w>
CI Os</w>
Phar maceu
Pot ter</w>
cr yp
pir acy</w>
rul es</w>
tch ers</w>
aggreg ate</w>
spou se</w>
deter mine</w>
isol ation</w>
accur ate</w>
accessi ble</w>
requi res</w>
syn thetic</w>
sexi st</w>
well- being</w>
contracep tives</w>
advanta ges</w>
Timber wol
Smart phone</w>
mathemati cal</w>
12 th</w>
76 ers</w>
Mess enger</w>
NO K</w>
Sim ilarly</w>
Stu dent</w>
WH O</w>
race /ethnicity</w>
war ming</w>
repor tedly</w>
live stock</w>
share holder</w>
highli ghts</w>
Alber ta</w>
All- Star</w>
democ ratic</w>
grand children</w>
physici an</w>
teleph one</w>
appoint ment</w>
Year- on-year</w>
30, 017</w>
CR M</w>
Coc a-Cola</w>
Follow ing</w>
Fore ign</w>
Sol utions</w>
ivo de
iPh one</w>
menti oned</w>
pop ulist</w>
uph ol
real- world</w>
refriger ator</w>
liber al</w>
acqu ired</w>
nitro gen</w>
prop ylene</w>
dead liest</w>
cond oms</w>
expor ter</w>
cohor t</w>
yogur t</w>
and- collect</w>
deceas ed</w>
offer ings</w>
subsequ ent</w>
Spani sh-
financi ally</w>
got ten</w>
Lib ya</w>
Def ense</w>
Chick amau
Port land</w>
Catho lic</w>
suffici ent</w>
classifi eds</w>
photovolta ic</w>
Juven tus</w>
Cincin nati</w>
Aven gers</w>
Assi stant</w>
Bay ern</w>
GG Y</w>
Jaz z</w>
Kit ts</w>
Mus li
MPR I</w>
Ow nership</w>
Rou ghly</w>
Radi o</w>
Spur s</w>
Satis faction</w>
Santi ago</w>
Tali ban</w>
TTI P</w>
Uta h</w>
esp resso</w>
flo or</w>
hec tares</w>
ke- up</w>
myo cardial</w>
nin th</w>
pou ltry</w>
zlo ty</w>
enthu si
allo ys</w>
albu m</w>
dimini shed</w>
aggres sion</w>
Thron es</w>
locom o
combus tion</w>
commodi ties</w>
seven ty</w>
chlor ide</w>
metri cs</w>
incenti ve</w>
make up</w>
accept ance</w>
Totten ham</w>
Novarti s</w>
capsul es</w>
brand/ team</w>
syphi lis</w>
Anton io</w>
Corby n</w>
cycli sts</w>
Trinid ad</w>
Sustain able</w>
Syngent a</w>
discreti onary</w>
kindergar ten</w>
click- and-collect</w>
Shakespe are</w>
Antieta m</w>
Mediterran ean</w>
Timberwol ves</w>
Chickamau ga</w>
' Or
' Friends</w>
- food</w>
- language</w>
- assisted</w>
- ray</w>
/ E
/ 2014</w>
/ Islamic</w>
/ ISIS</w>
0 th</w>
1 N
1 14</w>
1 60</w>
1 64</w>
1 31</w>
1 11</w>
1 44</w>
1 32</w>
1 75</w>
1 41</w>
1 69</w>
1 4,
2 14</w>
2 60</w>
2 /0
2 92</w>
3 G</w>
3 50</w>
3 35</w>
3 /0
3 1.4</w>
3 00,000</w>
4 0
4 5
4 7
4 6.
4 60</w>
4 9/
5 9
5 2.
5 1.5</w>
6 50</w>
6 0s</w>
6 7.1</w>
7 1.
7 ,000</w>
7 4.
7 9.
9 99</w>
A I
A w
A x
A A</w>
A E</w>
A no
A gre
A sus</w>
A VoD</w>
B at
B ac
B oo
B ook</w>
C o</w>
C lar
C are
C off
C up
C amp
C AR</w>
D A
D S
D s</w>
D E</w>
D or
D es
D avi
D ep
D AC
D ynamics</w>
E .
E th
E very</w>
E ven</w>
E -commerce</w>
F u
F am
G C
G a
G all
H R</w>
H al
H um
H im
H ome
H ob
H arri
H 1N
I A</w>
I da
J .</w>
J air</w>
K o
K .</w>
K ay
K mart</w>
K Ga
L or
L it
L and</w>
L es
L oo
L inc
L ess</w>
L 'Or
M E
M M
M ond
M au
M unic
M Ps</w>
N I</w>
N on
N un
O a
O t
O hi
O ld
O reg
O range</w>
O pen
P H
P S
P it
P al
P lu
P ep
P ric
P etro
Q '
R u
R S</w>
R .</w>
R ings</w>
R ail
R ot
S I</w>
S il
S tr
S to
S ome
S port</w>
S ere
S af
S int
S team</w>
S IC</w>
S till</w>
T -
T en</w>
T um
T ree</w>
T ele
T ech</w>
T DS</w>
U se</w>
U AE</w>
V /
V e
V ans</w>
V ud
V PN</w>
W o
W re
W ay
W is
W ear
W ES
Y le</w>
Z en
a o</w>
a es
a verages</w>
a ults</w>
b on</w>
b or</w>
b al</w>
b loo
c a</w>
c in</w>
c is</w>
c ra
c ross</w>
c ables</w>
d ar</w>
d ity</w>
d ates</w>
d ered</w>
d game</w>
d son</w>
e al</w>
e vi
e age</w>
e te</w>
e d-
e water
f an</w>
f are</w>
f lu
f ill
f rom
g g
g by</w>
g ate</w>
g ays</w>
g ly
g rill</w>
g ging</w>
h an
h on
h ur
h ei
h olds</w>
i P
i th
i an</w>
i si
i sc
i ze</w>
i zation</w>
i Play
i ron</w>
j et</w>
k er
k ini</w>
l a</w>
l er
l ay</w>
l ative</w>
l umin
m p</w>
m ation</w>
m ate</w>
m une</w>
m ful</w>
n d
n a</w>
n i</w>
n on</w>
n al</w>
n over</w>
n ess
n ations</w>
n either</w>
n ine
o ol
o sity</w>
o live</w>
o da</w>
p ic</w>
p ies</w>
p ill
p ins</w>
p ful</w>
p ubic</w>
r us
r ail</w>
r ador</w>
s lo
s wee
s ence</w>
s outh</w>
s wine</w>
t res</w>
t ant</w>
t ree</w>
t rol
t ness</w>
t ariff</w>
t mund</w>
u ping</w>
v o</w>
v ated</w>
v ary</w>
v ans</w>
v atives</w>
w a</w>
w ound</w>
w ool</w>
w au
w ines</w>
w ish</w>
w alle
x ter</w>
y o</w>
y pe</w>
y cin</w>
z es</w>
ã o</w>
é e</w>
é mon</w>
ó n</w>
th y</w>
th o</w>
th en
th ro
th ma</w>
th rac
th west</w>
er a</w>
ti s</w>
ti er</w>
ti li
ti ous</w>
ti us</w>
20 ,
20 ,000</w>
en -
en plan
en cour
en counter</w>
in als</w>
in ner</w>
in appropriate</w>
an c
an as</w>
an ers</w>
an them</w>
ro e</w>
re f
re sc
re ally</w>
re bel
re Po
re ward</w>
re viewed</w>
re vised</w>
201 9
201 0.
ar t
ar res
ar chi
on /
on ers</w>
on ies</w>
on ym
ta ke
ta kings</w>
or ly</w>
it es</w>
al ign
hi p</w>
hi ring</w>
li min
at en</w>
at ers</w>
at tained</w>
at trac
ri ver</w>
ri vers</w>
ri pping</w>
ri tius</w>
il ing</w>
il ever</w>
om a</w>
om i</w>
om er</w>
om et</w>
om bing</w>
ec tions</w>
ur y
sta che</w>
st l
st ling</w>
st olen</w>
sh ar
sh ine</w>
sh ale</w>
sh ape</w>
sti tions</w>
sti ng
di gi
di ci
di est</w>
di pl
as k
as sic</w>
as thma</w>
ac ts</w>
ac ted</w>
ac ha
ac ting</w>
ag u
ag ency</w>
ol n</w>
ol ine</w>
vi sa</w>
el en
el lit
sp aces</w>
em es</w>
em porary</w>
am ed</w>
am end
am id</w>
am muni
um ped</w>
si x
si Co</w>
202 9/
pro por
pro posed</w>
pro test</w>
op ment</w>
op ping</w>
op stic
op ticians</w>
ul tra</w>
Th un
Th under</w>
de fo
de spread</w>
de tail</w>
de tected</w>
ic e-
us sia</w>
us sions</w>
con ver
con dom</w>
con tra
con sul
lo ts</w>
200 9/
200 2/0
200 3/0
Sta te
be ard</w>
ap as</w>
un limited</w>
wor ds</w>
wor thy</w>
se ssi
se emed</w>
ad a
ad options</w>
ati tis</w>
we a
id er</w>
mo on</w>
ru gby</w>
por k</w>
ch amp
ch .com</w>
ch ampionships</w>
ch opstic
bu you
bu tchers</w>
pre marital</w>
es ars</w>
ex it
fi t</w>
co w</w>
co st-
gi ant</w>
gro oming</w>
gro cers</w>
gro uping</w>
ab sence</w>
to tal
to currency</w>
le t
le th
le ft</w>
gh t
ing /
comp liance</w>
comp rising</w>
ter min
ter dam</w>
qu ate</w>
ci sco</w>
pe di
ven ue</w>
produc es</w>
King s</w>
ne go
ai m</w>
inc ur
inc are</w>
inc ess</w>
inc ident</w>
avi an</w>
tri als</w>
tri city</w>
str a
ser ts</w>
ser ver</w>
pl ed</w>
pl ants</w>
pl us</w>
po orly</w>
for ty</w>
for cep
par ations</w>
par tly</w>
par ental</w>
COVI D</w>
tim ore</w>
tim ely</w>
inter views</w>
rec tor</w>
19 20</w>
19 53</w>
19 71</w>
19 52</w>
19 49/
19 60s</w>
ener ship</w>
ff ron</w>
Mar l
lu m</w>
In du
In formation</w>
In Be
In clu
peri ph
servi ced</w>
appro ach</w>
exp on
ho sts</w>
1. 35</w>
1. 53</w>
1. 57</w>
1. 87</w>
1. 03</w>
gu ides</w>
gu ilty</w>
he ads</w>
he aters</w>
rea ons</w>
compar able</w>
gener ic</w>
Sh ar
and an</w>
res in</w>
vo ice-
tu li
tu ality</w>
Di d</w>
Di agno
Di rector</w>
bi king</w>
bi kini</w>
enti cation</w>
pic king</w>
dec ide</w>
ra in</w>
onom ous</w>
2. 32</w>
chan ging</w>
fir e</w>
Ne stl
tra ditionally</w>
out sourcing</w>
out breaks</w>
acc ident</w>
acc idental</w>
cas surance</w>
fo cus</w>
Ch apter</w>
3. 20</w>
bo y</w>
bo t</w>
bo ating</w>
cont ribu
cont emporary</w>
ric s</w>
shi ft</w>
shi re</w>
fac ility</w>
fac e-to-
Nor th-
fe ver</w>
fe ared</w>
Germ ans</w>
rou s</w>
0. 4</w>
vel s</w>
vel opment</w>
reac tions</w>
reac tors</w>
sch ool
sch emes</w>
categ ori
mi st</w>
mi ss</w>
mi ght</w>
requ ire</w>
Fran ç
Fran cisco</w>
eng age</w>
eng aging</w>
Re search</w>
Re sident</w>
Re ebo
mu sh
mu st</w>
mu stache</w>
sup posed</w>
199 6/
ju dici
fa ster</w>
cu ts</w>
cer ti
tur ning</w>
br e</w>
br as</w>
ass ault</w>
ass aults</w>
wi despread</w>
milli onaires</w>
ge ting</w>
e- only</w>
e- learning</w>
e- reader</w>
dic ate</w>
fer red</w>
fer tili
sel l</w>
ban anas</w>
presid ency</w>
eth eless</w>
ear n</w>
inf ant</w>
inf lam
Gre ta</w>
rel ating</w>
fic tion</w>
Chin ese
pac king</w>
pac kers</w>
Wh y</w>
Wh oles
Mo on</w>
ke e</w>
ke ting</w>
ke ys</w>
mil e</w>
mil eage</w>
sig nings</w>
bl ad
olo gi
ca ta
ren ted</w>
hel pful</w>
la sting</w>
Gro ver</w>
visi ble</w>
Con gress</w>
Con servatives</w>
Al co
da i</w>
af ter
man go
pay -
provi sion</w>
loc k</w>
Ap p
ob structive</w>
dr yer</w>
tb ooks</w>
priv ately</w>
priv acy</w>
18 70</w>
18 62</w>
dis satisfied</w>
dis approved</w>
dis abled</w>
air s</w>
air ment</w>
sex ting</w>
lic ations</w>
kil l</w>
develop er</w>
develop ments</w>
of i</w>
rati c-
non- European</w>
non- profit</w>
fun ctions</w>
coll ecting</w>
ste p</w>
sa ved</w>
sa ffron</w>
resta tion</w>
Pro j
Pro gres
Par amount</w>
stri ke</w>
Fi re
Fi at</w>
Fi fty</w>
Li ves</w>
win ter</w>
Afric an-
franchi ses</w>
ssi um</w>
ill nesses</w>
Com mer
ak er</w>
Lati no</w>
Fin Tech</w>
view er-
ful fill
sal ons</w>
Dem and</w>
adverti s
elect ors</w>
web shops</w>
fil led</w>
Hi gh</w>
men tions</w>
Democ ratic-
et c</w>
jo int</w>
poin ted</w>
char ter</w>
1, 8
1, 900</w>
bor ne</w>
cen sus</w>
cen tres</w>
har mful</w>
direc ted</w>
av ut</w>
St ream</w>
St eph
vic tories</w>
colle agues</w>
sk incare</w>
ation /
Be li
Tr e</w>
down ward</w>
10 1</w>
10 5</w>
10 4.7</w>
soci ally</w>
tru c
stream ers</w>
11. 7</w>
11. 1</w>
11. 8</w>
Am gen</w>
Rom anian</w>
don or</w>
broad casts</w>
Mon etary</w>
tow ard</w>
lat ter</w>
mat ch
mat ches</w>
spe aker</w>
10. 3</w>
ori al</w>
De partment</w>
De velopment</w>
Gam ing</w>
travel ling</w>
Chi lean</w>
Chi apas</w>
enrol le
under weight</w>
under -five</w>
Vi e
Vi vend
Over watch</w>
aff ecting</w>
immi grating</w>
14. 8</w>
sing le-
behavi our</w>
repres enta
aim ed</w>
15. 7</w>
15. 9</w>
17. 7</w>
hand made</w>
12. 2</w>
12. 1</w>
Wal ter</w>
az ith
ev o</w>
merchan dis
sof as</w>
year- old</w>
year- end</w>
year- olds</w>
Ad mini
Ban co</w>
communic ating</w>
18. 7</w>
18. 2</w>
cal ories</w>
pu b</w>
arri ving</w>
16. 4</w>
3, 7
3, 9
3, 500</w>
fl exit
publi cation</w>
influ enced</w>
En dgame</w>
Inc idence</w>
Amaz on
tar gets</w>
self- quarantine</w>
exclu sively</w>
prin ters</w>
23. 2</w>
23. 4</w>
reco ver</w>
reco veries</w>
19. 6</w>
13. 1</w>
13. 5</w>
13. 4</w>
13. 9</w>
nomin ation</w>
nomin ated</w>
che aper</w>
Un ilever</w>
cou ple</w>
21. 7</w>
21. 8</w>
21. 5</w>
21. 9</w>
20. 7</w>
Tur nover</w>
den ied</w>
den omination</w>
eri an</w>
Is land</w>
commod ity</w>
super annu
super mini</w>
back packers</w>
pharmaceu ticals</w>
Ba xter</w>
bal lots</w>
gir l</w>
Ca esars</w>
Car ter</w>
tor -assisted</w>
plac ed</w>
bar ley</w>
profi tability</w>
recei ves</w>
26. 7</w>
26. 5</w>
26. 4</w>
fr ater
remo ved</w>
doc tor-assisted</w>
Regi onal</w>
Pr incess</w>
cop ies</w>
15 th</w>
15 5.2</w>
24. 6</w>
La ke</w>
annu m</w>
refer ence</w>
refer red</w>
list enership</w>
shor tly</w>
pot ency</w>
30. 5</w>
EU 28</w>
Sy n
fluctu ating</w>
Win dows</w>
her pes</w>
stal king</w>
extre mist</w>
depend ent</w>
37. 2</w>
37. 4</w>
37. 3</w>
Tra ffic</w>
lon ely</w>
Pay pal</w>
Ro y
Ro gers</w>
Ro che</w>
bur den
bio tics</w>
langu ages</w>
athle tic</w>
campaig ns</w>
29. 2</w>
29. 3</w>
Air bus</w>
Br its</w>
Ser ies</w>
decl are</w>
Afgh ans</w>
40. 4</w>
Bu cks</w>
Si licon</w>
ger ous</w>
hin der</w>
lab eled</w>
scor ing</w>
chec ks</w>
correc tive</w>
manufactu res</w>
25 ,
33. 6</w>
33. 4</w>
Cap ri</w>
IS IS
dra u
dra stically</w>
phi shing</w>
tex tbooks</w>
anim als</w>
ace tamin
porno graphy</w>
16 th</w>
38. 6</w>
38. 4</w>
Mil an</w>
Mil wau
Sur in
divi sm</w>
icon ic</w>
quali fications</w>
multi- tas
Elec tion</w>
Elec tions</w>
Elec tricity</w>
36. 6</w>
Hol ding</w>
Sk oda</w>
Sk ype</w>
kron or</w>
mur dered</w>
top ics</w>
restric ting</w>
descri bed</w>
descri bing</w>
fix ed-
Micro n</w>
dre ds</w>
2013 /2014</w>
viol ent</w>
sustain ability</w>
Star wood</w>
Foo t</w>
PE RS</w>
ton ne</w>
ann i</w>
deal ers</w>
deal erships</w>
consi sting</w>
subsidi ary</w>
subsidi zed</w>
48. 1</w>
Bi omet</w>
Est ée</w>
Mc K
Ou tb
hun dreds</w>
refin ing</w>
refl ected</w>
opi um</w>
Char gers</w>
auth or</w>
success fully</w>
Cam ero
Mu gab
Man agement</w>
Willi ams</w>
clic k</w>
lap tops</w>
achi ev
deri vatives</w>
analy zed</w>
34. 9</w>
5, 0
Cel gene</w>
Coo pers</w>
Nu evo</w>
lot tery</w>
scre ening</w>
monit or</w>
monit ors</w>
attribu tes</w>
Presid ent-
Prefer ences</w>
68. 3</w>
Mer ce
fal se</w>
foun d
promo ting</w>
Stati stics</w>
fire arms</w>
journ alism</w>
Lab rador</w>
NH O</w>
Ra iders</w>
Zim mer</w>
dur um</w>
dur able</w>
rom ance</w>
rom ycin</w>
advi sory</w>
competi tions</w>
Univer sal</w>
photo s</w>
photo graph</w>
terroris ts</w>
execu tive</w>
every thing</w>
Ali en</w>
Sha des</w>
Sha rePo
conc ept</w>
preci ation</w>
festi val</w>
spons or</w>
magaz ine</w>
Ber ry</w>
Lou isi
Nig er</w>
Nig erian</w>
des serts</w>
there of</w>
attemp ts</w>
attemp ted</w>
small pox</w>
Exp ected</w>
municip ality</w>
ML S</w>
Mat ter</w>
Mat ch.com</w>
tan ker</w>
wal k</w>
exi sting</w>
control ling</w>
suppor tive</w>
AC A</w>
Cre w</w>
Ok Cup
Ph ysi
Stre am
Stre ss</w>
TI V</w>
cam pers</w>
day -
gas oline</w>
gall on</w>
less er</w>
mol asses</w>
mis sing</w>
inte gration</w>
house Coopers</w>
brow ser</w>
cancel ed</w>
optimi zation</w>
Ag ricul
Ben elu
Lo ad</w>
Mor ning</w>
OT T</w>
San ofi</w>
del ay</w>
even tually</w>
use ful</w>
imp airment</w>
New mont</w>
New found
musi cians</w>
Asse ts</w>
Servi ce</w>
Treat ment</w>
endors ement</w>
instrum ents</w>
AG C</w>
Bal timore</w>
CB D</w>
CB S</w>
Pa aS</w>
fla v
fla g</w>
alkal oids</w>
stres sed</w>
consec utive</w>
olog ical</w>
olog ics</w>
dram atic</w>
market places</w>
start- up</w>
Adv air</w>
Elect ronic</w>
legis lation</w>
13 th</w>
C- section</w>
Plan ning</w>
Sm all</w>
dom ic
dom ain</w>
libr ary</w>
libr aries</w>
oph en</w>
pedestri an</w>
pedestri ans</w>
parliam entary</w>
decor ated</w>
foc using</w>
fast- food</w>
subm itted</w>
neighbor ing</w>
sanitiz er</w>
Bor ussia</w>
Cru de</w>
DV D</w>
Yo u</w>
od ore</w>
sat ellit
sci ence</w>
distru sted</w>
The odore</w>
user- generated</w>
bedro oms</w>
immedi ately</w>
recru iters</w>
first- time</w>
break fast</w>
company- owned</w>
aut umn</w>
electric als</w>
Porn hub</w>
coup ons</w>
Card inals</w>
pancre atic</w>
Adul ts</w>
Gi anni</w>
Gram my</w>
Jan eiro</w>
Mac ron</w>
Sch ool</w>
Thi r
aero space</w>
dome stically</w>
ea stern</w>
tin ction</w>
urban ity</w>
statu tory</w>
comb at</w>
coron ary</w>
quin tiles</w>
civi lians</w>
Briti sh-
larg ely</w>
Religi ous</w>
substitu tes</w>
disa sters</w>
intel lig
alcohol -related</w>
Pok émon</w>
threat ened</w>
check- up</w>
concentr ated</w>
EA EU</w>
Hud son</w>
Mb ps</w>
Tar get</w>
ade quate</w>
dan gerous</w>
dermat ologi
e. g</w>
hep atitis</w>
kne eling</w>
song s</w>
wri ting</w>
reci divism</w>
lif ted</w>
percei ve</w>
stadi um</w>
asy lum</w>
contain s</w>
States -based</w>
compris ed</w>
neu tral</w>
In- store</w>
expan sion</w>
notic eable</w>
Chro me</w>
twenti eth</w>
ferro silicon</w>
ethan ol</w>
Spec i
Particip ation</w>
Work place</w>
trust worthy</w>
Devi ce</w>
Maz da</w>
stockp iling</w>
Keny an</w>
Secre t</w>
appear ances</w>
postp oned</w>
Hyun dai</w>
Spanish- born</w>
locomo tives</w>
Aw areness</w>
Ano ther</w>
Agre ement</w>
Bat man</w>
Bac helor</w>
Care mark</w>
Coff ee</w>
Dor tmund</w>
Davi dson</w>
DAC H</w>
Gall up</w>
Him achal</w>
Hob bit</w>
Harri s</w>
H1N 1</w>
Ida ho</w>
Kay ak</w>
KGa A</w>
Lor d</w>
Lit eracy</w>
Loo king</w>
Linc oln</w>
Mond ay</w>
Mau ritius</w>
Munic h</w>
Non etheless</w>
Nun avut</w>
Ohi o</w>
Oreg on</w>
Open reach</w>
Plu s</w>
Pep siCo</w>
Pric ewater
Rot terdam</w>
Some thing</w>
Sere ti
Sint i</w>
Ve hi
Vud u</w>
Wre stling</w>
Way fair</w>
WES C</w>
aes thetic</w>
bloo diest</w>
cra shes</w>
evi d
gly col</w>
iPlay er</w>
ker age</w>
slo gan</w>
walle ts</w>
thrac ite</w>
enplan ements</w>
arres ts</w>
align ment</w>
limin ary</w>
sting ly</w>
dipl oma</w>
amend ments</w>
2029/ 30</w>
Thun berg</w>
defo restation</w>
2009/ 2010</w>
2002/0 3</w>
2003/0 4</w>
State /ISIS</w>
sessi ons</w>
champ ion</w>
chopstic ks</w>
buyou ts</w>
nego ti
forcep s</w>
1949/ 50</w>
InBe v</w>
Inclu ding</w>
Diagno sis</w>
face-to- face</w>
categori zed</w>
Reebo k</w>
1996/ 97</w>
judici ary</w>
inflam mation</w>
Chinese -language</w>
Wholes ale</w>
viewer- measured</w>
fulfill ment</w>
Vivend i</w>
azith romycin</w>
Admini stration</w>
superannu ation</w>
ISIS /Islamic</w>
acetamin ophen</w>
Milwau kee</w>
Camero on</w>
Mugab e</w>
President- elect</w>
SharePo int</w>
Louisi ana</w>
OkCup id</w>
Benelu x</w>
satellit es</w>
Pricewater houseCoopers</w>
' L
' back</w>
- G
- U</w>
- up</w>
- Mar
- led</w>
- ranked</w>
- air</w>
- year
- inj
- specific</w>
- LTE</w>
- called</w>
- moun
. E.
/ 2017</w>
/ 2012</w>
/ gas</w>
/ issues</w>
/ AR</w>
/ Advair</w>
0 /
1 19</w>
1 18</w>
1 15</w>
1 65</w>
1 1,000</w>
1 17</w>
1 21</w>
1 23</w>
1 70</w>
1 27</w>
1 22</w>
1 49</w>
1 39</w>
1 37</w>
1 46</w>
1 43</w>
1 53</w>
1 2,000</w>
1 Q'
2 12</w>
2 40</w>
2 10</w>
2 35</w>
2 70</w>
2 80</w>
2 85</w>
2 61</w>
2 2.5</w>
2 9,
2 7,
3 9
3 60</w>
3 21</w>
3 46</w>
3 89</w>
3 78</w>
3 90</w>
3 8,
3 1.9</w>
4 G
4 4.
4 32</w>
4 51</w>
4 1.3</w>
4 0,000</w>
4 06</w>
4 2.2</w>
4 1.9</w>
5 6
5 7
5 8
5 60</w>
5 70</w>
5 2,
5 88</w>
5 6.7</w>
5 1.9</w>
6 4
6 2.
6 23</w>
6 26</w>
6 75</w>
6 3.8</w>
7 2.
7 12</w>
7 2.6</w>
7 4.8</w>
7 8.4</w>
7 68.3</w>
8 th</w>
8 2.
8 3.
8 8.
8 3.3</w>
9 9.
9 77</w>
9 0th</w>
= 100</w>
A /
A M</w>
A F</w>
A re
A way</w>
A did
A part</w>
A ss
A von</w>
A UM</w>
A stra
B E
B t
B .</w>
B M</w>
B an</w>
B ar</w>
B ing
B eng
B ath</w>
C F
C at
C ul
C ar</w>
C oll
C ab
C had</w>
C avi
C ho
C au
C inem
D R</w>
D .</w>
D ans
D rag
E -
E C
E O
E P
E T</w>
E Y</w>
E ur
E ach</w>
E col
F all</w>
F ool</w>
F ish</w>
F ashion</w>
G O
G o
G at
G eb
G et
G mail</w>
G ap</w>
H e</w>
H an
H il
H as
H el
H am
H ere</w>
I V</w>
I P</w>
I K</w>
I ce</w>
I bi
I TV</w>
I -U</w>
J ur
J io</w>
J PM
J .C.</w>
K L
K T</w>
K an
K ol
K le
K are
K ak
K night</w>
K ick</w>
K FC</w>
K ill</w>
K ind
K BO</w>
L S
L t
L en
L ar
L ow
L id
L is
L ob
L aborat
M O
M e</w>
M anu
M oc
M ov
M ission</w>
M emp
N C
N P
N A</w>
N on-
N ative</w>
N ash
N KT</w>
O f
O x
O C</w>
O ff
O il</w>
O peration</w>
P T
P ubli
P over
P andemic</w>
P ass
P lease</w>
P MI</w>
P irates</w>
P ope</w>
P ont</w>
P UB
P rison</w>
P .E.
Q M</w>
R oll
R ei
R over</w>
R eg
R onald</w>
R egal</w>
R alp
S C
S w
S mo
S por
S ex
S ab
S and
S ear
S ig
S ports</w>
S of
S mart</w>
S even</w>
S now
S elected</w>
S cand
S QM</w>
T S
T A</w>
T elec
T our</w>
T wi
T into</w>
T ak
T amp
T ire</w>
T NT</w>
U K
U tre
V C</w>
W y
W at
W as</w>
W im
W ran
W all</w>
W ill
W WE</w>
X ia
Y ale</w>
Z on
Z ei
a h</w>
a b</w>
a ve</w>
a ver</w>
a ven</w>
a hawks</w>
b ars</w>
b ron
b ber
b ury</w>
b ols</w>
b ums</w>
b ited</w>
b ath
b attles</w>
b rain</w>
c ow
c ook</w>
c am</w>
c can
c ados</w>
c esarean</w>
c acha
c ider</w>
d st
d ron
d ale</w>
d res
d ance</w>
d les</w>
d wel
d raft</w>
d -based</w>
d wood</w>
d ka</w>
d ynamics</w>
e j
e x</w>
e .</w>
e ers</w>
e per</w>
e dy</w>
e valuation</w>
e aten</w>
f s</w>
f es</w>
f ab
f ing
f ron
f one</w>
f les</w>
f ry</w>
g an
g ol
g ue</w>
g erm
g ene
g nity</w>
g rid</w>
h t</w>
h en
h ul
h eight</w>
h ama</w>
h acking</w>
i -
i z
i di
i vi
i ron
i Watch</w>
j a</w>
j ar
j umped</w>
k y</w>
k u</w>
k ata</w>
k through</w>
k ept</w>
l ations</w>
l adi
l ling</w>
l ton</w>
l enders</w>
m .</w>
m ic
m ere</w>
m ons</w>
m all</w>
m atively</w>
m umps</w>
m aple</w>
m useum</w>
n ou
n ail</w>
n er-
n avy</w>
n hub.com</w>
o di
o sit
o ther
o sis</w>
o gen
o graphy</w>
o tho</w>
p t</w>
p m</w>
p on</w>
p are</w>
p oo
p ne
p ath</w>
p air</w>
p av
p assi
p ell
p rank</w>
r in
r ur
r ative</w>
s in</w>
s and</w>
s ation</w>
s wit
s end</w>
s lower</w>
s nap
s bury</w>
t r</w>
t ted</w>
t ter
t own</w>
t our</w>
t te</w>
t on-
t ell</w>
t ling</w>
t omin
t oral</w>
t ronic</w>
t ful</w>
t -based</w>
t elem
t nership</w>
u t
u l</w>
u sh
u vi
u an</w>
u cle
u tility</w>
v in</w>
v ul
v ation</w>
v oll
v ess
v va</w>
v log
w all</w>
w ana</w>
w ns</w>
w ick</w>
w rite</w>
x on</w>
x ac
x ine</w>
x -ray</w>
y ro
y -based</w>
y right</w>
y Stream</w>
y uan</w>
z e
z ational</w>
z ambi
ç a</w>
é bec</w>
th an
th qu
th rus</w>
th row</w>
th ru</w>
th yro
er s
er ate</w>
er als</w>
er main</w>
er print</w>
er nal</w>
er lock</w>
ti p</w>
ti vision</w>
ti zation</w>
ti le-
20 1</w>
20 5</w>
20 55</w>
20 39</w>
20 38</w>
20 63</w>
en om
en di
en comp
en sed</w>
en ak
en sive</w>
en ables</w>
en ty-
in de
in ven
in ated</w>
in form
in fe
in fer
in struc
in her
in stating</w>
in duced</w>
in patient</w>
in deed</w>
in voice</w>
in arians</w>
in spir
in nov
in sufficient</w>
in avian</w>
in ogen
an ch
an gr
an no
an a-
an apolis</w>
an onym
an thracite</w>
ro r</w>
ro ses</w>
ro practi
ro sters</w>
ro bots</w>
ro pic</w>
ro bber
re b
re ments</w>
re fer</w>
re opening</w>
re ducing</w>
re parations</w>
re tted</w>
re instating</w>
ar i</w>
ar di
ar ch
ar is
ar ama</w>
ar y/
ar ranged</w>
ar keting</w>
on y</w>
on to</w>
on er</w>
on gh
on ated</w>
on air
on lin
on ucle
ta il
ta by
or tion</w>
or king</w>
or chi
or do</w>
or tization</w>
it on</w>
it ch</w>
it ance</w>
ou tr
ou twe
per sec
per form</w>
al /
al o</w>
al ic
al ong
al cop
al bums</w>
hi re</w>
hi lia</w>
li v</w>
li cor
li ous</w>
li ability</w>
li cit</w>
at lan
at trition</w>
at ebo
ri des</w>
ri shed</w>
ri de-
ri mp</w>
ri fles</w>
ri osit
il o</w>
om bar
om ware</w>
om nic
om CBS</w>
ec a</w>
ec raft</w>
ur ant</w>
sta chi
sta ges</w>
sta y-
sta urant</w>
st ep
st rea
st el</w>
st ances</w>
st ands</w>
sh er</w>
sh el
sh ment</w>
sh old</w>
sh ut</w>
sh rimp</w>
sti ve</w>
sti ngs</w>
di ers</w>
di apers</w>
di gnity</w>
as il
ac ul
ac ks</w>
ac ock</w>
ac omCBS</w>
ag ro
ag an</w>
ag ic</w>
ag nia</w>
ag eing</w>
ol i</w>
ol er
ol ar
ol am</w>
vi t</w>
vi ta
vi st</w>
vi ous</w>
vi val</w>
el ance</w>
el ton</w>
el iness</w>
el sea</w>
sp ends</w>
sp aw
stati onary</w>
em itted</w>
em ission</w>
am o</w>
am i</w>
am es</w>
am ortization</w>
um onia</w>
si ves</w>
pro hi
pro min
pro mp
pro ud</w>
pro gres
pro fici
pro pos
pro visions</w>
op o
op ted</w>
op ened</w>
op pon
op hilia</w>
ye arly</w>
ul an</w>
ul tim
ul ties</w>
Th re
Th ai</w>
de tec
de emed</w>
de preciation</w>
de /Advair</w>
us ch</w>
us ages</w>
us sal
con sen
con version</w>
con taining</w>
con sin</w>
200 0s</w>
com ic</w>
ver ings</w>
ver dic
be st-
ap art
ha un
un k</w>
un cer
un likely</w>
un paid</w>
un sure</w>
un fair</w>
un intenti
un di</w>
un affiliated</w>
un achal</w>
un ethical</w>
un solved</w>
wor d</w>
wor ry</w>
wor sen
tr aders</w>
se ed</w>
se es</w>
se eds</w>
se iz
se liv</w>
ad er</w>
ad al</w>
ad ly</w>
ad ays</w>
ad ata</w>
ad venture</w>
ad dres
ati onally</w>
we ak
id ing</w>
id ly</w>
mo ve</w>
mo vers</w>
mo dule</w>
ru g</w>
ru in</w>
ru ptions</w>
ru dest</w>
por tal</w>
por arily</w>
por nhub.com</w>
sur ge</w>
sur ge
sur passing</w>
wh el
ch t</w>
ch emic</w>
ch ot
bu sta</w>
bu lim
bu tan
bu tter
pre valent</w>
pre domin
pre cipi
pre cau
pre pare</w>
es brands</w>
es oph
end ence</w>
ex plo
ex ology</w>
ex posed</w>
ex cise</w>
ex trac
ex tinction</w>
mar ch</w>
mar ry</w>
mar rying</w>
ond -ranked</w>
fi a</w>
fi ber</w>
fi gh
fi ger</w>
fi shing</w>
fi tability</w>
fi bre</w>
co st
co king</w>
co verings</w>
gi c</w>
im al</w>
im ages</w>
im mune</w>
ab use</w>
coun tr
coun ty</w>
coun ters</w>
to a
to rol
le vo
le tter</w>
le gro</w>
gh t-
ing us</w>
ter ed</w>
qu ery</w>
qu eries</w>
ci a</w>
ci ous</w>
ei ster</w>
me tro</w>
me gab
do ors</w>
pe st</w>
pe ace
pe taby
ven tional</w>
ron ize</w>
ay al</w>
ay von</w>
pri ori
ve yed</w>
su n</w>
su sta
reas on
ran so
ne are
ne dy</w>
ne apolis</w>
mer man</w>
inc ed</w>
avi k</w>
tri logy</w>
tri bal</w>
tri pled</w>
str ative</w>
str ength</w>
str ywide</w>
pl um
pl ague</w>
po se</w>
po ses</w>
po ison</w>
pres sion</w>
par ity</w>
ma ster</w>
ma inten
ma ils</w>
ma ke-up</w>
tim ing</w>
tim ate</w>
inter viewer-measured</w>
val en</w>
19 ,
19 2</w>
19 3</w>
19 9</w>
19 12</w>
19 39</w>
19 51</w>
19 63</w>
19 56</w>
19 61</w>
19 87</w>
19 03</w>
ff alo</w>
Mar vel
enta lly</w>
lu be</w>
yo l</w>
In f
In n</w>
In fo
In stead</w>
so ro
so da</w>
so -called</w>
exp and</w>
exp licit</w>
ho ac
ho st</w>
ho stel</w>
sid ed</w>
sid er</w>
sid ering</w>
sc ared</w>
sc ann
sc ape</w>
no tions</w>
no te</w>
no table</w>
eb ooks</w>
mon eti
mon oxide</w>
mon onucle
is ed</w>
is chemic</w>
1. 12</w>
1. 31</w>
1. 17</w>
1. 13</w>
1. 55</w>
1. 54</w>
1. 36</w>
1. 47</w>
1. 42</w>
1. 41</w>
1. 46</w>
1. 76</w>
1. 83</w>
1. 68</w>
1. 73</w>
1. 99</w>
1. 93</w>
gu est</w>
he user-
indu strywide</w>
gener on</w>
gener alists</w>
Sh erlock</w>
Sh elton</w>
ub le</w>
Can on</w>
Can dy</w>
and ed</w>
res ins</w>
res orts</w>
vo ivode
tu tor
tu ries</w>
Di or</w>
Di avik</w>
bi li
bi as</w>
bi annually</w>
bi ologics</w>
enti no-
ni e</w>
pic al</w>
pic tures</w>
form ers</w>
Ac c
Ac ross</w>
Ac cep
Ac ush
Ac tivision</w>
dec iding</w>
ra rely</w>
our ce</w>
chi ropracti
2. 50</w>
2. 35</w>
2. 22</w>
2. 55</w>
2. 39</w>
2. 71</w>
2. 95</w>
2. 93</w>
2. 05</w>
chan ge
fir matively</w>
ph y</w>
ph enom
Ne gar
Ne Liga</w>
te a</w>
te liers</w>
tra -
tra its</w>
tra ins</w>
tra dition</w>
out numbered</w>
out sider</w>
acc ents</w>
acti veness</w>
acti vist</w>
nu dity</w>
grap es</w>
ess on</w>
over burden
over whel
indi gen
Ch at</w>
Ch ase</w>
Ch ampionships</w>
Ch elsea</w>
3. 29</w>
3. 76</w>
3. 06</w>
bo om
bo rough</w>
bo ats</w>
selec ting</w>
fin ally</w>
tw in</w>
tw are
cont ext</w>
shi r
fac turing</w>
Nor thwest</w>
Nor dst
gam y</w>
gam ble</w>
brea ker</w>
Per spectives</w>
Per isc
Per uvi
4. 38</w>
4. 99</w>
rou te</w>
0. 65</w>
0. 43</w>
6. 47</w>
reg retted</w>
reac tion</w>
compan ion</w>
bro kerage</w>
sch ino</w>
sch olar
cl er</w>
cl ones</w>
cl aim</w>
5. 49</w>
5. 76</w>
househ older</w>
mi x
mi grant</w>
mi gra
requ est</w>
Fran k
eng ine
Re ported</w>
Re ach</w>
Re liance</w>
Re staurant</w>
Re agan</w>
Re generon</w>
mu r</w>
mu ting</w>
mu tt
7. 42</w>
ris er</w>
fa tality</w>
fa ith</w>
cu r</w>
cu it</w>
tur b
br o</w>
ass ing</w>
wi se</w>
ari ed</w>
ari zed</w>
milli onair
ge ar</w>
ge stive</w>
devi ant</w>
Indi anapolis</w>
Le w
Le ste</w>
Le ón</w>
Le ave</w>
e- based</w>
e- added</w>
e- stick</w>
decreas es</w>
car a</w>
car av
fer ence</w>
parti ally</w>
shop per</w>
ban cassurance</w>
equ als</w>
equ ally</w>
au dit</w>
au ction</w>
der ers</w>
der ness</w>
ear ic</w>
ear thqu
conduc ed</w>
conduc ting</w>
inf ants</w>
inf low</w>
sub group</w>
sub titles</w>
Gre y</w>
can ned</w>
pac k</w>
adi oli</w>
Mo to</w>
Mo zambi
Mo torol
Mo schino</w>
hal luc
ke es</w>
ke tt
ke tch
Pol l</w>
Pol ska</w>
particip ate</w>
mil ls</w>
bl r</w>
bl ing</w>
bl own</w>
cap aci
cap ex</w>
insur ers</w>
ca using</w>
ca sting</w>
ca fes</w>
vide or</w>
cri tical</w>
Sp rite</w>
spec ta
poli sh</w>
poli cies</w>
9. 19</w>
hel l</w>
cur ved</w>
visi tation</w>
Con air</w>
Con sidering</w>
bran d
Al tern
Al legro</w>
meas les</w>
the by</w>
the ories</w>
da fone</w>
part -day</w>
belie f</w>
af t</w>
af firmed</w>
af ro-
af firmatively</w>
expec tation</w>
man n</w>
man i</w>
man age</w>
man ager</w>
man tling</w>
work places</w>
work stations</w>
bir d</w>
ob sol
ob serve</w>
govern mental</w>
ey e</w>
ey ball</w>
invest or-
18 9</w>
18 71</w>
18 52</w>
clo sing</w>
clo ser</w>
regul ations</w>
dis abilities</w>
dis ruptions</w>
dis mantling</w>
sex ism</w>
Ar men
Ar unachal</w>
Ar mani</w>
inclu sive</w>
Bo ts
develop s</w>
int -G
int oler
app endi
stre ets</w>
Co ach</w>
Co al-mining</w>
go al</w>
go ers</w>
non- working</w>
non- LGBT</w>
non- renewable</w>
non- essential</w>
non- MHS</w>
enter ing</w>
ans wer</w>
fun ny</w>
raz olam</w>
coll ection</w>
ste in</w>
ste aling</w>
100 th</w>
sa ving</w>
sa usages</w>
Pro gress</w>
Pro fitability</w>
exc essi
Mexic ans</w>
Par tnership</w>
stri p</w>
Den omination</w>
Fi lip
cul tures</w>
dro ve</w>
An heuser-
Li ech
trans l
trans formation</w>
win s</w>
win dows</w>
sear ching</w>
ssi er</w>
cre d
cre w</w>
cre ating</w>
ecti ves</w>
ecti vity</w>
ecti cut</w>
Com ics</w>
Com mon</w>
wa sher</w>
compu ted</w>
ak es</w>
manu el</w>
view points</w>
sal aried</w>
tac k
holi day
fil ed</w>
fil med</w>
Hi stor
men us</w>
bud geting</w>
week day</w>
char ges</w>
1, 6
1, 100</w>
bor ders</w>
cen turies</w>
wai st</w>
cy cles</w>
cy clones</w>
har m</w>
har sh</w>
har ash
ly rics</w>
mac y</w>
mac ists</w>
attend ed</w>
sol o</w>
sol ve</w>
sol diers</w>
anti biotics</w>
sk atebo
asse ssing</w>
Col ts</w>
health -related</w>
Be NeLiga</w>
Tr ayvon</w>
Tr entino-
down turn</w>
tain ties</w>
lit y-
10 8</w>
rema kes</w>
plan t-based</w>
soci alizing</w>
fel low</w>
ot ron</w>
Rom an</w>
don ating</w>
Kore as</w>
Mon tr
Mon san
Mon cler</w>
deli cious</w>
indic ation</w>
identi fication</w>
17 71</w>
spe ech</w>
spe eds</w>
Popul ar</w>
Popul arity</w>
multi channel</w>
10. 2</w>
ori ans</w>
ori zations</w>
attac ked</w>
star ch</w>
star ter</w>
star ring</w>
star vation</w>
He at</w>
De aths</w>
De 'L
Gam bia</w>
travel s</w>
Chi ld</w>
Chi ef
nat ure</w>
bel ong</w>
wel fare</w>
stron gest</w>
ach e</w>
ach ing</w>
Vi acomCBS</w>
cro iss
Du Pont</w>
Du fry</w>
diagno stics</w>
Ma ximum</w>
Ma fia</w>
Ma harash
immi grated</w>
occup ational</w>
occup ying</w>
14. 2</w>
14. 1</w>
14. 4</w>
14. 3</w>
2, 9
behavi oral</w>
audi o</w>
Gu zz
Gu ia
Vo dafone</w>
ent /
ent aries</w>
15. 5</w>
15. 3</w>
new ly
17. 2</w>
17. 1</w>
17. 4</w>
cha ir</w>
hand eling</w>
hand eled</w>
hand bags</w>
tele health</w>
Net gear</w>
full- day</w>
full- size</w>
12. 8</w>
12. 4</w>
12. 9</w>
12. 33</w>
Wal -Mar
az ine</w>
hy drau
qui d</w>
sof tball</w>
sof tware
rit ories</w>
stm an</w>
dist ances</w>
year- round</w>
SM A</w>
kid nap
lin ear</w>
ext ortion</w>
18. 8</w>
18. 5</w>
loo ks</w>
cir cuit</w>
phar ming</w>
16. 6</w>
16. 5</w>
fl at</w>
fl ation</w>
fl our</w>
fl ash</w>
fl exi
publi c
publi cans</w>
organi zational</w>
En during</w>
Pl an</w>
ss mann</w>
onal -inj
lead ers</w>
Inc reas
mariju ana-
Sco ts</w>
ten stein</w>
self- diagnosis</w>
self- funded</w>
23. 3</w>
23. 9</w>
nation alism</w>
nation alities</w>
religi osity</w>
dep ends</w>
19. 7</w>
19. 2</w>
19. 5</w>
19. 3</w>
13. 2</w>
comple ting</w>
drop ping</w>
Un til</w>
run way</w>
run ner-
hot -air</w>
21. 2</w>
Im ports</w>
Im possible</w>
Im migration</w>
nam ese</w>
tom ography</w>
20. 6</w>
20. 4</w>
predic tions</w>
luc rative</w>
So theby</w>
den ing</w>
tro pical</w>
tro phy</w>
protec tive</w>
head lines</w>
head set</w>
head -moun
head ache</w>
pol yol</w>
sam ples</w>
sho ts</w>
cho res</w>
cho ices</w>
super stores</w>
super vision</w>
iss -based</w>
prospec t</w>
Ba usch</w>
gir l
Dut ch-speaking</w>
Ni xon</w>
desig ner</w>
Comp agnia</w>
28. 4</w>
28. 9</w>
Car l</w>
We Chat</w>
land -based</w>
land lor
land scape</w>
in- home</w>
in- house</w>
Ge ographi
to- date</w>
casi an</w>
26. 2</w>
fr yers</w>
fr acking</w>
gl er</w>
gl adioli</w>
gar den</w>
gar dening</w>
hol m</w>
stric tness</w>
doc ked</w>
doc toral</w>
Regi strations</w>
charac ter</w>
Hou ston</w>
Su n</w>
Su icide</w>
life sty
continu ing</w>
continu ous</w>
continu um</w>
15 ,
24. 2</w>
24. 1</w>
4, 0
4, 7
ES PN</w>
ks en</w>
ks burg</w>
pen al</w>
shor tfall</w>
occasi on</w>
Forec asts</w>
30. 1</w>
30. 3</w>
Min or</w>
Min imum</w>
Min ecraft</w>
Min neapolis</w>
ts bur
defin ition</w>
suff ers</w>
fluctu ate</w>
Em plo
Em manuel</w>
her d</w>
her nia</w>
mas sively</w>
mas cara</w>
sen se</w>
telec oms</w>
stan i</w>
disc re
depend ency</w>
22. 3</w>
25. 1</w>
25. 5</w>
25. 9</w>
Qu e
Qu ébec</w>
Vol vo</w>
micro loans</w>
micro wave</w>
occur ring</w>
sponsor ships</w>
27. 71</w>
Ea stman</w>
Ken nedy</w>
invol vement</w>
Ro ssmann</w>
avo cados</w>
mal ware</w>
mal nou
pi e</w>
pi er
pi stachi
reti red</w>
stand ardi
contac ts</w>
Norwegi ans</w>
Eb ay</w>
Fur niture</w>
IC U</w>
IC E</w>
Mic hoac
NA SA</w>
tax ation</w>
conn ectivity</w>
radi o
offic es</w>
offic e-based</w>
Viet namese</w>
athle tica</w>
9, 4
9, 8
Br and</w>
Br ady</w>
Br asil
Hun ter</w>
Hun ters</w>
Hun ger</w>
preven tive</w>
8, 4
Pe ace</w>
Pe acock</w>
Sa int-G
zz Fe
enh anced</w>
emb ly</w>
veter inarians</w>
gambl ers</w>
theat re</w>
35. 5</w>
35. 9</w>
Bu ccan
Bu ffalo</w>
Bu zzFe
Cro cs</w>
For ty-
Si ege</w>
Sain ts</w>
Sain sbury</w>
Ti m</w>
Ti vit</w>
lab s</w>
anta ge</w>
profil es</w>
commu ting</w>
chec king</w>
correc tion</w>
correc tional</w>
feat ured</w>
cigaret te</w>
33. 1</w>
Bul l</w>
Cap com</w>
IS AF</w>
bri des</w>
tem porarily</w>
16 ,
16 ,000</w>
38. 9</w>
Bur ger</w>
Bur undi</w>
Fa thers</w>
Se ars</w>
Se ven
Se attle</w>
Se ahawks</w>
Sur vival</w>
ck outs</w>
ck holm</w>
perf ect</w>
fif teen</w>
compo sed</w>
answ ering</w>
multi- division</w>
36. 4</w>
50. 6</w>
50. 4</w>
Hol mes</w>
Op en</w>
Sec ond-ranked</w>
US -led</w>
lam p</w>
lam b</w>
mur mur</w>
mur derers</w>
top ped</w>
alle ged</w>
associ ation</w>
associ ations</w>
descri be</w>
logi stic</w>
trac ing</w>
trac ks</w>
trac kers</w>
fix ture</w>
telecom muting</w>
FI SMA</w>
dre amed</w>
fit ters</w>
jour neys</w>
pan els</w>
disp ens
disp ensed</w>
quaranti ned</w>
initi ative</w>
Star ting</w>
Play ers</w>
PE T</w>
PE TA</w>
ba ht</w>
non surgical</w>
non metropolitan</w>
retur ning</w>
2011 /2012</w>
consi st</w>
moder ately</w>
person ality</w>
person alized</w>
celeb r
temper ed</w>
6, 8
66. 4</w>
66. 9</w>
CE O</w>
CE E</w>
Ric hem
eas y</w>
wid er</w>
wid owed</w>
refl exology</w>
appe ar</w>
Char les</w>
Char lton</w>
clou d-based</w>
carb onated</w>
auth ority</w>
auth orizations</w>
mid- tier</w>
Feder alist</w>
Bun ge</w>
Fre deri
Fre elance</w>
Hond a</w>
Lat est</w>
clic kthrough</w>
nes see</w>
uti lity-
tit le</w>
tiv ation</w>
recipi ent</w>
ell ite</w>
motor home</w>
motor cycles</w>
pregn an
Vide otron</w>
cross ings</w>
cross breed</w>
character ised</w>
norm ally</w>
34. 8</w>
Cel tics</w>
Coo p</w>
Ho tel</w>
Mad den</w>
Ver de</w>
fra is</w>
mag ici
rai sing</w>
s- Capital</w>
arti san
liqu ids</w>
lot ted</w>
separ ation</w>
separ ately</w>
mill ennial</w>
Arab ian</w>
Phil o</w>
defen sive</w>
defen sively</w>
47. 7</w>
69. 6</w>
Cu riosit
Cal vin</w>
Fer rag
hor se</w>
hor ror</w>
ide as</w>
rap idly</w>
sle eping</w>
sle pt</w>
fire figh
territ orial</w>
pota to</w>
pota sh</w>
pota ssium</w>
intern ationally</w>
high- value</w>
high- end</w>
Democr acy</w>
origin als</w>
origin ations</w>
Paki stani</w>
45. 3</w>
59. 3</w>
Hor tons</w>
Lab or</w>
Mag azine</w>
Ra vens</w>
Tim e</w>
Tim or-
Zim merman</w>
dam aged</w>
rac es</w>
sw im
sent ence</w>
exhi bit
discoun t</w>
citizen ships</w>
Taiw anese</w>
-to- day</w>
Bro wns</w>
Pac ers</w>
Tre k</w>
flow back</w>
flow /issues</w>
fanta sized</w>
happ ily</w>
tour s</w>
conc ussions</w>
festi vities</w>
withdra w</w>
ski m</w>
achie ve</w>
29 -year-olds</w>
Ber lin</w>
Ber nie</w>
CP V</w>
CP I-U</w>
igh ed</w>
os k</w>
p. m.</w>
re- only</w>
rep air</w>
rep lied</w>
rep tile-
one- night</w>
des ks</w>
impres sion</w>
graph ite</w>
subj ects</w>
Enter pri
characteri ze</w>
characteri zed</w>
Doll arama</w>
Mat tel</w>
Pen ney</w>
Tw enty</w>
Ty pe</w>
Ty rol</w>
bing o</w>
eye sight</w>
sun shine</w>
tan ning</w>
roun dwood</w>
alp razolam</w>
oppo site</w>
pre- kindergarten</w>
groun ded</w>
mega watt</w>
mega projects</w>
mega joules</w>
mega watts</w>
renov ated</w>
Cont ent</w>
shorta ge</w>
Brussel s-Capital</w>
Flem ing</w>
questi oned</w>
Cre dit</w>
Jer emy</w>
Rap tr</w>
Ste ve</w>
Stre et</w>
care ers</w>
day -to-day</w>
less ly</w>
less ons</w>
mis ed</w>
relie ve</w>
attr actions</w>
attr activeness</w>
asi an</w>
survi ve</w>
rans omware</w>
not ebooks</w>
brow sed</w>
justi ce</w>
justi fiable</w>
Ag ordo</w>
Ben in</w>
Cur rent</w>
MS Ps</w>
MS Rs</w>
even ing</w>
inv est</w>
2016 /2017</w>
appreci ation</w>
appreci ate</w>
addic tion</w>
adoles cent</w>
rub bers</w>
cobal di</w>
198 0/
commit te
furni shing</w>
Med tronic</w>
demon strations</w>
second- hand</w>
know ingly</w>
establish ment</w>
39. 6</w>
Bal earic</w>
Bol so</w>
Bus ch</w>
Lau ren</w>
Pa ul
Sou thern</w>
Sou theast</w>
Te am</w>
Te ams</w>
Vic ksburg</w>
cau cus</w>
hub s</w>
pat ent</w>
pat ronize</w>
pup ils</w>
pup pies</w>
resi li
alkal ine</w>
il- teacher</w>
stres s
desc ent</w>
desc endants</w>
adop t</w>
supre macists</w>
cuis ines</w>
water boarding</w>
selfi e-stick</w>
subst ances</w>
Occup y</w>
Occup ancy</w>
Poli ce</w>
Poli tical</w>
Adv antage</w>
free zers</w>
tournam ents</w>
studi o</w>
studi es</w>
studi os</w>
legis lative</w>
AP I</w>
Bla ke</w>
Do es</w>
Do ssier</w>
Trans atlan
Trans formers</w>
Wil derness</w>
bat tery</w>
bat teries</w>
hem ophilia</w>
ki e</w>
ki osk</w>
pel lets</w>
pir ated</w>
ware house</w>
ware houses</w>
aggreg ated</w>
emi grated</w>
ad- blocking</w>
decor ations</w>
accessi bility</w>
foc used</w>
two- thirds</w>
requi rements</w>
subm issions</w>
sexi est</w>
10, 800</w>
well- known</w>
contracep tive</w>
docum ents</w>
docum entaries</w>
advanta ge</w>
utili ties</w>
Timber land</w>
sanitiz ers</w>
mathemati cs</w>
49 ers</w>
Bor is</w>
DV Ds</w>
FY 2020</w>
LE GO</w>
Pic ture</w>
Ri ghts</w>
SE O</w>
Ter adata</w>
Ter ritories</w>
Yo ko
Yan dex</w>
Yan kees</w>
now adays</w>
sat ellite</w>
dish washer</w>
distru st</w>
spo t</w>
spo ke</w>
bedro om</w>
portr ays</w>
surpri se</w>
surpri sing</w>
fiel ds</w>
fiel ded</w>
immedi ate</w>
pick les</w>
company- operated</w>
aut onomous</w>
electric /gas</w>
Porn hub.com</w>
Black Berry</w>
coup on</w>
Card inal</w>
favour able</w>
pancre as</w>
Adul t</w>
BL M</w>
BL IK</w>
Bill s</w>
Bill iton</w>
Dar k</w>
Dar ussal
Eag le</w>
Eag les</w>
Foun ded</w>
HI V</w>
HI V/
Sel f-
TV s</w>
Tom my</w>
Tom Tom</w>
VR BO</w>
VR /AR</w>
g/ m
kno ts</w>
kno ckouts</w>
moun tain</w>
pain lessly</w>
sn acks</w>
tun a</w>
insul in</w>
reli able</w>
reuni fied</w>
reuni fication</w>
hip sters</w>
agri business</w>
agri -food</w>
age- standardi
mobil es</w>
end- use</w>
respir atory</w>
respir ators</w>
margin al</w>
margin ally</w>
impro ve</w>
impro ving</w>
expir y</w>
nutri tional</w>
business -to-
ge- off</w>
big- 5</w>
big- data</w>
distric t</w>
distric ts</w>
circum ference</w>
environmenta lly</w>
environmenta lists</w>
poly gamy</w>
Out fitters</w>
diffic ult</w>
diffic ulties</w>
posse ss</w>
over-the- top</w>
over-the- counter</w>
punc tual</w>
punc tuality</w>
'M ulan</w>
Cr ush</w>
Cer ner</w>
CAG R</w>
Educ ation</w>
Fres cobaldi</w>
Grou pon</w>
Loc ker</w>
Mel odi
Ten nessee</w>
Ul ster-
Youn g</w>
barri ers</w>
gau ge</w>
king bird</w>
slow ly</w>
sla ves</w>
tend ency</w>
encounter ed</w>
any one</w>
histor ical</w>
at- home</w>
stem ming</w>
simp ly</w>
pro- choice</w>
deplo yed</w>
compro mised</w>
see king</w>
moistu riser</w>
expo sures</w>
trim m
Marti n</w>
Institu te</w>
guarante ed</w>
entit lement</w>
grape fruit</w>
class ed</w>
assass ination</w>
off- price</w>
infring ement</w>
cash back</w>
video- sharing</w>
Conn ecticut</w>
obj ectives</w>
third- largest</w>
fundam entally</w>
gather ings</w>
wheel chair</w>
borro w
truth fulness</w>
Amoun t</w>
pollu ted</w>
hydr o</w>
three- quarters</w>
diversi fication</w>
paper board</w>
Broad casting</w>
Pack aged</w>
yiel ded</w>
concessi ons</w>
invasi ve</w>
Pharmaceu ticals</w>
cryp tocurrency</w>
uphol stered</w>
Musli ms</w>
enthusi astic</w>
AI DS</w>
Boo t</w>
DS W</w>
Dep endence</w>
Fam ily</w>
Hal f</w>
Home Away</w>
Les otho</w>
L'Or éal</w>
MM Os</w>
Oa xac
Old er</w>
PH As</w>
Pit tsbur
Pal e
Petro bras</w>
Ru n</w>
Rail way</w>
Sil ent</w>
Sto ckholm</w>
Saf ilo</w>
T- Mobile</w>
Tum blr</w>
Wis consin</w>
Wear ables</w>
Zen eca</w>
flu ff</w>
from age</w>
han nel</w>
hur dles</w>
nd ham</w>
nine teenth</w>
pill s</w>
trol ling</w>
anc illary</w>
resc ue</w>
rebel lious</w>
archi pel
ury -related</w>
digi tally</w>
ammuni tion</w>
contra sted</w>
total ing</w>
leth al</w>
termin ate</w>
pedi atric</w>
periph erals</w>
tuli p</w>
Nestl é</w>
mush room</w>
certi fic
fertili zer</w>
blad der</w>
cata log</w>
pay- TV</w>
App liance</w>
Proj ections</w>
Progres sive</w>
African- American</w>
Commer cial</w>
advertis ements</w>
Democratic- Republican</w>
Steph en</w>
Beli ze</w>
truc king</w>
enrolle e</w>
Vie ws</w>
single- family</w>
representa tive</w>
merchandis ers</w>
flexit arians</w>
Syn dicate</w>
Roy al</w>
Surin ame</w>
fixed- line</w>
McK esson</w>
Merce des</w>
Stream labs</w>
day- delivery</w>
Agricul tural</w>
Newfound land</w>
flav our</w>
British- headquartered</w>
dermatologi sts</w>
Speci alty</w>
Sereti de/Advair</w>
Vehi cle</w>
evid ence</w>
-year s-
4G -LTE</w>
Are a</w>
Adid as</w>
Astra Zeneca</w>
BE C</w>
Bt u</w>
Beng als</w>
CF Os</w>
Cab o</w>
Cavi ro</w>
Cho ice</w>
Cau casian</w>
Dans k</w>
Drag ons</w>
Eur asian</w>
Ecol ab</w>
Gat wick</w>
Geb r</w>
Han esbrands</w>
Hil figer</w>
Has bro</w>
Ibi za</w>
Jur assic</w>
JPM organ</w>
KL M</w>
Kol kata</w>
Kle in</w>
Kak ao</w>
LS S</w>
Lar gest</w>
Low e</w>
Lid l</w>
Lis bon</w>
Lob ster</w>
Laborat ories</w>
MO OC</w>
Manu facturing</w>
Moc kingbird</w>
Mov ement</w>
Memp his</w>
Nash ville</w>
PT SD</w>
Publi cis</w>
Pover ty</w>
Pass enger</w>
PUB G</w>
P.E. I</w>
Roll 20</w>
Rei seliv</w>
Ralp h</w>
Sw iss-based</w>
Spor tswear</w>
Sex ual</w>
Sab re</w>
Sand ers</w>
Sear ch</w>
Sof tware</w>
Snow den</w>
Scand inavian</w>
Twi light</w>
Tak enak
Tamp a</w>
Utre cht</w>
Wy ndham</w>
Wim ble
Wran gler</w>
Will ingness</w>
Xia omi</w>
Zon in</w>
Zei ss</w>
bron ze</w>
bath room</w>
cow orking</w>
dron e</w>
dwel ling</w>
ej acul
fing erprint</w>
gol fers</w>
germ eister</w>
hul l</w>
ivi vva</w>
iron s</w>
other wise</w>
poo rest</w>
pne umonia</w>
passi onate</w>
pell et</w>
rin ks</w>
swit ching</w>
ton- miles</w>
tomin ing</w>
telem arketing</w>
vul ner
voll eyball</w>
vess els</w>
vlog gers</w>
thyro xine</w>
inde xed</w>
inven tory</w>
infer ior</w>
inher itance</w>
inogen ic</w>
anch ors</w>
angr y</w>
robber ies</w>
ongh i</w>
onlin e-only</w>
orchi ds</w>
outwe ighed</w>
persec ution</w>
along side</w>
alcop ops</w>
licor ice</w>
ride- sharing</w>
omnic hannel</w>
stay- at-home</w>
strea k</w>
spaw n</w>
ultim ately</w>
consen ting</w>
verdic t</w>
haun ted</w>
uncer tainties</w>
unintenti onal-inj
seiz ures</w>
surge ons</w>
chot ropic</w>
bulim ia</w>
butan e</w>
butter milk</w>
predomin antly</w>
precipi tation</w>
precau tions</w>
esoph ag
levo thyroxine</w>
megab its</w>
petaby tes</w>
priori ti
ranso m</w>
neare st</w>
mainten ance</w>
Marvel l</w>
scann ers</w>
mononucle osis</w>
tutor ing</w>
Acush net</w>
chiropracti c</w>
change over</w>
phenom en
Negar a</w>
overburden ed</w>
indigen ous</w>
Nordst rom</w>
Perisc ope</w>
Peruvi an</w>
migra ine</w>
mutt on</w>
millionair e</w>
carav ans</w>
earthqu akes</w>
Mozambi que</w>
Motorol a</w>
halluc inogenic</w>
kett les</w>
ketch up</w>
Altern ative</w>
obsol ete</w>
investor- owned</w>
Armen ia</w>
Bots wana</w>
appendi x</w>
excessi ve</w>
Anheuser- Busch</w>
Liech tenstein</w>
holiday makers</w>
Histor ically</w>
skatebo arding</w>
Trentino- South</w>
Monsan to</w>
De'L onghi</w>
Chief s</w>
Maharash tra</w>
Guzz i</w>
Guia Bolso</w>
Wal-Mar t</w>
hydrau lic</w>
kidnap ping</w>
marijuana- derived</w>
head-moun ted</w>
malnou rished</w>
pistachi os</w>
Saint-G ermain</w>
Buccan eers</w>
BuzzFe ed</w>
dispens ary</w>
Richem ont</w>
Frederi ksen</w>
utility- scale</w>
artisan al</w>
Curiosit yStream</w>
Ferrag amo</w>
Timor- Leste</w>
exhibit ors</w>
reptile- ownership</w>
Transatlan tic</w>
Yoko hama</w>
Darussal am</w>
HIV/ AIDS</w>
age-standardi zed</w>
Ulster- Scots</w>
Oaxac a</w>
Pittsbur gh</w>
Takenak a</w>
unintentional-inj ury-related</w>
' P
' coronavirus</w>
' Ita
' Au
' not</w>
' look</w>
' big</w>
' applied</w>
' Alien</w>
- as
- 20</w>
- 54</w>
- management</w>
- Ma
- positive</w>
- born</w>
- hour</w>
- off</w>
- Region</w>
- a-
- lending</w>
- supported</w>
- Men</w>
- bullied</w>
- hop</w>
- conditioning</w>
- moon</w>
. n
. l</w>
. Coop</w>
/ E</w>
/ 2013</w>
/ private</w>
/ personal</w>
/ Pacific</w>
/ decline</w>
/ Singapore</w>
/ position</w>
0 60</w>
0 31</w>
1 25</w>
1 29</w>
1 34</w>
1 35</w>
1 55</w>
1 51</w>
1 11.
1 62</w>
1 59</w>
1 66</w>
1 61</w>
1 68</w>
1 1,5
1 20,
1 3,9
2 3
2 15</w>
2 65</w>
2 34</w>
2 45</w>
2 28</w>
2 11</w>
2 27</w>
2 26</w>
2 55</w>
2 47</w>
2 49</w>
2 75</w>
2 51</w>
2 38</w>
2 37</w>
2 63</w>
2 71</w>
2 69</w>
2 78</w>
2 81</w>
2 2nd</w>
2 91</w>
2 96</w>
2 60.
2 45.
3 0
3 3
3 -</w>
3 D-
3 20</w>
3 30</w>
3 12</w>
3 15</w>
3 65</w>
3 70</w>
3 0s</w>
3 32</w>
3 54</w>
3 39</w>
3 51</w>
3 62</w>
3 48</w>
3 56</w>
3 66</w>
3 69</w>
3 61</w>
3 2.5</w>
3 09</w>
3 91</w>
3 94</w>
3 1.6</w>
3 1.1</w>
3 06</w>
3 2.8</w>
3 1.7</w>
3 02</w>
3 7,
3 39.
3 6,000</w>
3 8th</w>
4 6
4 00
4 20</w>
4 12</w>
4 15</w>
4 28</w>
4 70</w>
4 0s</w>
4 54</w>
4 41</w>
4 74</w>
4 2.5</w>
4 91</w>
4 95</w>
4 97</w>
4 86</w>
4 1.2</w>
4 2.1</w>
4 4.7</w>
4 3.1</w>
4 6.5</w>
4 6.2</w>
4 -year-old</w>
4 6.3</w>
5 65</w>
5 23</w>
5 36</w>
5 63</w>
5 46</w>
5 90</w>
5 2.5</w>
5 3.5</w>
5 2.8</w>
5 2.6</w>
5 3.2</w>
5 6,
5 5.5</w>
5 5.6</w>
5 2.7</w>
5 6.9</w>
5 5.7</w>
5 4,000</w>
6 8
6 70</w>
6 27</w>
6 13</w>
6 39</w>
6 74</w>
6 2.5</w>
6 26.
6 1.2</w>
6 1.4</w>
6 0,000</w>
6 02</w>
6 4.2</w>
6 5.4</w>
6 18,
6 2,5
7 9
7 /0
7 90</w>
7 2.5</w>
7 3.8</w>
7 3.7</w>
7 5.6</w>
7 4.2</w>
7 6.6</w>
7 5,000</w>
7 0,
8 .</w>
8 1.
8 20</w>
8 18</w>
8 7.
8 40</w>
8 39</w>
8 61</w>
8 90</w>
8 52</w>
8 96</w>
8 3.5</w>
8 3.1</w>
8 0.5</w>
8 6.6</w>
8 7.7</w>
9 9
9 ,000</w>
9 70</w>
9 07</w>
9 3.8</w>
9 6.5</w>
9 9.5</w>
9 6.4</w>
9 â€</w>
A j
A er
A ld
A val
A BC</w>
A DA</w>
A PM
A rub
A PAC</w>
A MC</w>
A then
B J
B M
B s</w>
B ed</w>
B ou
B li
B ec
B ru
B ub
B ig
B att
B ey
B har
B icy
B ron</w>
B attles</w>
B SI</w>
B ombing</w>
C K
C N
C 2</w>
C 1</w>
C N</w>
C S</w>
C E</w>
C P</w>
C in
C it
C ow
C ars</w>
C ond
C all</w>
C D-
C our
C ook</w>
C lim
C CT</w>
C lip
C Universal</w>
D U
D r
D z
D B</w>
D on
D ol
D ic
D un
D ub
D eg
D ud
D ow</w>
D o-
D Cs</w>
D avid</w>
D OT
D uma</w>
D NC</w>
D CMS</w>
D river</w>
D rug</w>
E R
E T
E k
E r
E D</w>
E ti
E ch
E qu
E is
E mi
E spor
E mp
E sw
E igh
E ase</w>
E ind
E CT</w>
E NT</w>
E rh
F S
F .</w>
F it
F il
F ul
F un
F all
F ly
F av
F 500</w>
F resh</w>
F arm</w>
G A
G en
G ri
G il
G 20</w>
G NI</w>
G IV</w>
H M
H Y
H on
H ur
H umber</w>
H is</w>
H indu
H ague</w>
H amp
H ind
I N
I U
I I</w>
I M</w>
I E</w>
I ts</w>
I ow
I t-
I ron</w>
I le-
I BM</w>
J a
J ä
J R</w>
J on</w>
J ac
J et</w>
J ack</w>
J ones</w>
J up
J an-
J ack
J agu
K a
K er
K om
K ey</w>
K ra
K IA</w>
L M
L a</w>
L ec
L am
L un
L ei
L ong</w>
L and
L ending</w>
L ot
L loy
L ego</w>
L DC</w>
L ady</w>
L ombar
L ADA</w>
L CD-
L DCs</w>
L IN
M A
M em
M ul
M ar</w>
M ap
M ale</w>
M AT</w>
M GM</w>
M aple</w>
M useum</w>
N S</w>
N ag
N ap
N ine</w>
N ext</w>
N ight</w>
N 95</w>
N SA</w>
N ET</w>
O A</w>
O ri
O il
O pe
O sc
O dish
P V</w>
P I</w>
P M</w>
P E</w>
P G</w>
P in
P om
P am
P ye
P ul
P et</w>
P oll
P ati
P la
P sy
P ell</w>
P lat
P PC</w>
P uti
P /E</w>
Q ash
R x</w>
R ow
R em
R ati
R ing
R ho
R is
R oc
R ight</w>
R enewable</w>
R FI
R emo
R ock</w>
R NC</w>
R WE</w>
R /E
S 7</w>
S .</w>
S at
S ac
S em
S ay</w>
S ho
S ir
S tran
S pac
S up
S audi
S til
S ands</w>
S nam</w>
S ann
S ources</w>
S SD</w>
S VOD</w>
S DA
S ão</w>
S ites</w>
T s
T ol
T el
T ic
T ap
T ru
T ran
T issue</w>
T aking</w>
T ower</w>
T ariff</w>
T MC</w>
U u
U N</w>
U ly
U FC</w>
V olo
V all
V ice</w>
V ery</w>
V arian</w>
V ille</w>
V SC
V ladi
W a
W eb
W ings</w>
W itch</w>
X box</w>
X -Men</w>
Y el
Y en</w>
Y ves</w>
Y ourself</w>
Y UM</w>
Z o
Z v
Z elen
a x</w>
a ud
a ke</w>
a health</w>
a -based</w>
a stating</w>
a ided</w>
a hei
a /Singapore</w>
b t</w>
b i</w>
b ans</w>
b our
b are
b icides</w>
b yp
b ombing</w>
b adly</w>
c p
c l</w>
c ti
c it
c un
c enter
c rit
d on</w>
d an</w>
d ine</w>
d ingly</w>
d Up</w>
d ator</w>
d ym
d dar</w>
d 'Ita
e q
e m</w>
e w</w>
e v</w>
e ed</w>
e ars</w>
e ding</w>
e stry</w>
e au
e hn
e spi
e ders</w>
e ania</w>
e Har
e dic</w>
e dule</w>
e Book</w>
e stingly</w>
f ar
f ec
f ting</w>
f old</w>
f lower</w>
f ought</w>
f aded</w>
g i</w>
g on
g at
g ary</w>
g olds</w>
g ain
g aps</w>
h op
h ar</w>
h oo
h ni
h oods</w>
h ols</w>
h eri
h ops</w>
h then
i or
i est</w>
i ting</w>
i tal
i table</w>
i os</w>
i shing</w>
i bi</w>
j ail
j ury</w>
k m</w>
k en
k us
k ay</w>
k ies</w>
k is
k king</w>
k top</w>
k yo</w>
k shire</w>
k ah</w>
k g/m
k har</w>
l et</w>
l end
l ity</w>
l am</w>
l ink</w>
l ined</w>
l ery</w>
l abor
l asts</w>
l aborat
m y
m in</w>
m om
m el
m is</w>
m end
m one</w>
m ps</w>
m ath</w>
m ys</w>
m itted</w>
m self</w>
m ission</w>
m na
m ru</w>
n il
o es</w>
o st
o sed</w>
o ise</w>
o ils</w>
o ats</w>
o gue</w>
o kay</w>
p A</w>
p ti
p om
p ly</w>
p it</w>
p eline</w>
p ine
q ai</w>
r as
r ents</w>
r able</w>
r .l</w>
s us
s ally</w>
s nu
s ound</w>
s wi
s sm
s abo
s ought</w>
s .com</w>
s ult</w>
s ondents</w>
t resp
t one</w>
t ener
t ub
t enti
t old</w>
t gage</w>
t print</w>
t lists</w>
u k</w>
u ts</w>
u pri
u it</w>
u ations</w>
u um</w>
u tely</w>
v ou
v ant</w>
v ascular</w>
v ils</w>
v log</w>
v inced</w>
w o</w>
w ro
w al</w>
w ond
w let
x ia</w>
y r</w>
y di
y tes</w>
y gu
y ond</w>
y wat
y cling</w>
y bit</w>
y friend</w>
z ost
£ 14
á n</w>
â ‚</w>
é ric
ô nia</w>
th op
th inking</w>
th entication</w>
th /decline</w>
er a
er as</w>
er parti
er ical</w>
er Un
ti a</w>
ti res</w>
ti ple</w>
ti vity</w>
ti ss
ti bility</w>
ti ef</w>
ti pping</w>
ti dal</w>
20 34</w>
20 45</w>
20 36</w>
20 43</w>
en to</w>
en ers</w>
en ty
en tries</w>
en agers</w>
en larg
en ce-
en counters</w>
in k
in ars</w>
in comp
in ity</w>
in efficient</w>
in take</w>
in side</w>
in ists</w>
in corpor
in corporation</w>
in formal</w>
in mate</w>
in doors</w>
an g
an n</w>
an g</w>
an al</w>
an gi
an ore
an ce
an ges</w>
an che</w>
an /Pacific</w>
ro ver
ro oming</w>
ro busta</w>
re l</w>
re es</w>
re age</w>
re le
re mark
re sum
re fur
re four</w>
re men
re payment</w>
re ign</w>
re house</w>
re sist
re mod
re finance</w>
re wards</w>
re frame</w>
re alized</w>
re alization</w>
re memb
re integration</w>
re ios</w>
201 8.</w>
ar gu
ar cer
ar til
ar rest</w>
ar na
ar t/
on age</w>
on ation</w>
on est</w>
on so
on el</w>
ta s</w>
ta te</w>
ta ste</w>
ta mine</w>
ta ke-up</w>
ta wa</w>
ta gon
or bi
or ally</w>
or der
or y-
or bit</w>
or rh
or skie</w>
or step</w>
or thop
or anges</w>
it ob
it ania</w>
it rose</w>
it ects</w>
it y/
it y-based</w>
ou d</w>
ou l</w>
per pe
per spectives</w>
al um
al ese</w>
al location</w>
al lies</w>
al s/
al together</w>
al e-to-
al lotted</w>
hi ma</w>
hi mself</w>
li king</w>
li tical</w>
li ani
li gen
li ve-
li ra</w>
li ght
li quid</w>
at i</w>
at ore</w>
at res</w>
at eu
at ches</w>
at oes</w>
ri g
ri t</w>
ri c</w>
ri er</w>
ri val
ri cal</w>
ri ders</w>
ri val</w>
ri ght-
il er</w>
il lo
il y-
il s.
om o</w>
om ass</w>
om ics</w>
om erate</w>
ec ast</w>
ur day</w>
ur ani
ur itania</w>
sta t</w>
sta ke</w>
st /
st ars</w>
st ors</w>
st ence</w>
st ones</w>
sh /
sh i</w>
sh u</w>
sh ales</w>
sh av
sh rank</w>
sh aver</w>
sti le</w>
sti cal</w>
sti ned</w>
sti cular</w>
di s</w>
di e</w>
di sti
di ve
di str
di ties</w>
di ps</w>
di ence</w>
di min
di bility</w>
di tives</w>
di visions</w>
as ka</w>
as surance</w>
ac ed</w>
ac cor
ac tly</w>
ac tress</w>
ac reage</w>
ag g</w>
ag aw
ag ogue</w>
ol ate</w>
ol ated</w>
ol ining</w>
ol d-
ol skie</w>
vi der</w>
vi go
vi star</w>
vi tamin
el /
el led</w>
el os</w>
el ska</w>
sp s</w>
sp an</w>
sp end
sp read
stati stically</w>
em ph
em ig
em ens</w>
em bar
em onies</w>
du lat
du al-
du .com</w>
am ing</w>
am id
am ming</w>
am endment</w>
am ateu
si ma
si onal</w>
si ble</w>
si tive</w>
si ghts</w>
si zes</w>
si a/Singapore</w>
si tivity</w>
pro pen
pro tagon
op les</w>
op tical</w>
op en-
op olskie</w>
ye es</w>
ul ar</w>
ul ty</w>
ul ants</w>
Th eir</w>
Th ree</w>
de es</w>
de ployment</w>
de stro
de ferred</w>
de shi</w>
de stined</w>
ic al-
U. K.</w>
us ts</w>
us als</w>
us sian</w>
con fin
con cre
con gl
con ferred</w>
con gestive</w>
con uts</w>
con vinced</w>
200 7/0
com a</w>
com edi
com edy</w>
com orbi
Sta tu
Sta mps</w>
ver v</w>
ver al</w>
ver tical</w>
ver pool</w>
be id
be ast</w>
be ach
be gin</w>
be ets</w>
be yond</w>
ap ters</w>
ap ples</w>
ap legi
ap lay</w>
ap pointed</w>
ap olated</w>
ha ir
ha ul</w>
un -
un able</w>
un popular</w>
un lead
un known</w>
un professional</w>
un adjusted</w>
un anim
un certain</w>
un tary</w>
un docum
un knowingly</w>
un surprising</w>
wit ness
wor n</w>
wor rying</w>
tr e</w>
tr amp
tr ail</w>
tr aying</w>
tr aded</w>
tr usts</w>
se d
se p
se ts</w>
se at</w>
se tt
se tting</w>
ad o
ad he
ad ditionally</w>
ad quartered</w>
ad versely</w>
ad ditives</w>
ati le</w>
ati ble</w>
ati ya</w>
ati ni</w>
we ds</w>
we bro
mo des</w>
mo dulat
por ate</w>
por tions</w>
por tals</w>
por tation</w>
wh ey</w>
wh opping</w>
ch am
ch ers</w>
ch ore</w>
ch oc
ch ari
ch lam
ch ops</w>
ch tief</w>
ch apters</w>
bu l</w>
bu li
pre me</w>
pre liminary</w>
es /
end y</w>
end ant</w>
ex ab
ex plan
ex changes</w>
ex act</w>
ex tra-
resp ond</w>
resp od
fi ers</w>
fi res</w>
co inc
co ronavi
co ach</w>
co ali
co -related</w>
co stly</w>
co ca</w>
co conuts</w>
gi t</w>
gi ate</w>
gi ft</w>
im mu
im prison
ab its</w>
ab sor
ab sent</w>
ab original</w>
ab ilty</w>
duc er</w>
coun ts</w>
coun ting</w>
to bac
to immu
le d
le f
le x</w>
le um</w>
le brand</w>
le -related</w>
le aning</w>
le y-
le grounds</w>
le aners</w>
gh an</w>
gh old</w>
ing ing</w>
ing sto
ing redi
ing dale</w>
comp ul
comp lications</w>
ter minal</w>
ter mination</w>
ter sburg</w>
ld ren</w>
qu it</w>
sec tions</w>
ci ent</w>
ci pl
ci sed</w>
ci gar
ei j
ei ra</w>
me ant</w>
me gat
do zen</w>
do orstep</w>
pe g</w>
pe ace</w>
pe el</w>
pe stic
pe oples</w>
ven th</w>
popul arized</w>
ay /
pri de</w>
pri ced</w>
pri cing</w>
ve d/
uro log
su itable</w>
cor relating</w>
mark s</w>
ran ts</w>
ne west</w>
ne urolog
twe ets</w>
mer gers</w>
inc arcer
avi er</w>
tri p
str eng
str ain</w>
str aw
str zost
ser y</w>
ser ved/
pl anti
po sted</w>
po ster</w>
po traying</w>
for -
for d</w>
for th</w>
for get</w>
for gotten</w>
gr aders</w>
gr aft</w>
pres a</w>
pres ent
sum s</w>
ma ker</w>
ma de-
D- based</w>
COVID- 19
COVID- NET</w>
inter medi
inter sex</w>
inter connec
inter act</w>
inter provincial</w>
inter acted</w>
rec k
rec lin
val ence-
19 7</w>
19 th</w>
19 18</w>
19 00</w>
19 16</w>
19 35</w>
19 22</w>
19 36</w>
19 59</w>
19 81</w>
19 83</w>
19 06</w>
19 02</w>
19 04</w>
19 50s</w>
thou ghts</w>
ty ping</w>
ty sburg</w>
Mar in</w>
lu bes</w>
yo tes</w>
In sur
In tel</w>
In nov
In flation</w>
In tenti
so ared</w>
so aps</w>
appro aching</w>
ho ven</w>
ho teliers</w>
ho khar</w>
sc and
sc uit</w>
sc amming</w>
no tion</w>
no vels</w>
mon y</w>
mon ton</w>
mon omer</w>
high s</w>
1. 19</w>
1. 18</w>
1. 25</w>
1. 29</w>
1. 65</w>
1. 11</w>
1. 23</w>
1. 27</w>
1. 26</w>
1. 32</w>
1. 51</w>
1. 38</w>
1. 37</w>
1. 33</w>
1. 59</w>
1. 66</w>
1. 88</w>
1. 67</w>
1. 79</w>
1. 84</w>
1. 86</w>
1. 98</w>
1. 07</w>
1. 05</w>
1. 04</w>
gu ide</w>
gu ard</w>
gu av
gu ins</w>
spl ay</w>
he w</w>
he li
he ading</w>
he ater</w>
he aven</w>
he tamine</w>
quar tiles</w>
gener ates</w>
Sh ell</w>
Sh opping</w>
Can cer</w>
Can nab
Can nes</w>
res ses</w>
res ource</w>
bil es</w>
medi ums</w>
tu ce</w>
tu be</w>
tu de</w>
tu rehouse</w>
Di seas
Di ffer
Di vor
Di rect</w>
Di splay</w>
bi o</w>
bi an</w>
bi ome</w>
bi shment</w>
bi omass</w>
bi scuit</w>
enti ties</w>
ni ans</w>
ni ght
ni peg</w>
form ing</w>
form ally</w>
Ac quisi
Ac tress</w>
Ac counting</w>
dec or</w>
dec lines</w>
dec adal</w>
ra ham</w>
our ing</w>
our ite</w>
displ aying</w>
displ aced</w>
2. 12</w>
2. 15</w>
2. 16</w>
2. 45</w>
2. 21</w>
2. 27</w>
2. 36</w>
2. 47</w>
2. 63</w>
2. 46</w>
2. 53</w>
2. 66</w>
2. 88</w>
2. 09</w>
2. 86</w>
2. 137</w>
chan ces</w>
fir ed</w>
ph ine</w>
Bri co</w>
te sticular</w>
employ ability</w>
employ er-
tra ditions</w>
tra stingly</w>
out flow</w>
out comes</w>
acti vated</w>
acti onation</w>
reta in</w>
depic ted</w>
nu des</w>
nu cle
nu trition</w>
grap e</w>
fo s</w>
fo x</w>
over taken</w>
over took</w>
over haul</w>
Ita ly
Ita liani
indi ces</w>
Ch op
Ch amp
Ch ronic</w>
Ch rom
3. 40</w>
3. 65</w>
3. 64</w>
3. 45</w>
3. 11</w>
3. 21</w>
3. 23</w>
3. 32</w>
3. 47</w>
3. 51</w>
3. 37</w>
3. 41</w>
3. 61</w>
3. 67</w>
3. 73</w>
3. 08</w>
bo ards</w>
bo asted</w>
bo yfriend</w>
bas eline</w>
fem icide</w>
fem icides</w>
fem inists</w>
sit u</w>
sit com</w>
sit uations</w>
tw atches</w>
Janu ary/
cont rover
ric anes</w>
shi lling</w>
shi fting</w>
fac es</w>
fac ulty</w>
seas ons</w>
seas ide</w>
seas onal</w>
Au t
Au to
Au dience</w>
oc cur</w>
Nor theast</w>
gam er</w>
gam bled</w>
fe west</w>
fe asi
Germ an-
4. 25</w>
4. 36</w>
4. 71</w>
4. 95</w>
4. 86</w>
rou tes</w>
0. 45</w>
0. 28</w>
0. 53</w>
0. 74</w>
0. 61</w>
ir s</w>
ir ations</w>
6. 11</w>
6. 27</w>
6. 38</w>
6. 89</w>
6. 88</w>
6. 87</w>
6. 07</w>
reac ted</w>
bro ke</w>
sch edule</w>
Europe ans</w>
5. 25</w>
5. 34</w>
5. 69</w>
5. 78</w>
5. 98</w>
5. 08</w>
grow th/decline</w>
impor ters</w>
lan e</w>
mi r</w>
mi se</w>
mi xed</w>
mi grating</w>
mi stake</w>
Fran co-
Re sid
Re stric
Re vised</w>
Re tail
mu ch-
sup ports</w>
sup pression</w>
vidu als</w>
7. 25</w>
7. 29</w>
7. 34</w>
7. 76</w>
7. 74</w>
7. 69</w>
199 9/
199 0s</w>
ris m</w>
ris ons</w>
stud ying</w>
8. 1</w>
8. 64</w>
8. 49</w>
8. 48</w>
8. 77</w>
8. 73</w>
ju ices</w>
fa ste
fa ult</w>
fa thered</w>
fa tally</w>
cu tting</w>
cer eal</w>
cer emonies</w>
tur ned</w>
tho gen</w>
br ing</w>
br ings</w>
br inging</w>
ass embly</w>
wi fe</w>
ari zation</w>
milli liters</w>
child care</w>
ov o</w>
ov en</w>
To day</w>
To gether</w>
To kyo</w>
ge l</w>
ge on</w>
Indi viduals</w>
Le af
Le vels</w>
Le Bron</w>
e- in</w>
e- related</w>
e- night</w>
e- reading</w>
e- retailer</w>
e- offs</w>
e- bikes</w>
e- readers</w>
e- ho</w>
e- mails</w>
stim ulants</w>
car t</w>
car ed</w>
car bo
sel ler</w>
low er-
parti al</w>
parti san
parti cp
sto re-only</w>
ban ds</w>
ban ning</w>
smar twatches</w>
equ ated</w>
equ ity-based</w>
off ensive</w>
au x
au ti
au coma</w>
au toimmu
eth ics</w>
eth ylene</w>
tec hni
Eng li
der -
ear ner</w>
Dec .</w>
Dec reas
stru gg
sub market</w>
sub region</w>
sub sectors</w>
rel ate</w>
rel ates</w>
comm ands</w>
estim ation</w>
ig ner</w>
Nov a</w>
Oc eania</w>
Mo tor</w>
Mo del</w>
Mo vistar</w>
hal t</w>
hal ved</w>
hal ves</w>
Pol ski</w>
plat eau
mil d</w>
mil le</w>
mil llion</w>
sig n
sig ned</w>
bl ast</w>
bl ind
8/ 89</w>
insur ances</w>
ca ke</w>
ca o-
ren aming</w>
on- week</w>
on- Demand</w>
cri sps</w>
poli tics</w>
inve stable</w>
9. 51</w>
9. 83</w>
hel in</w>
hel ped</w>
la ke</w>
cur ed</w>
cur ve</w>
Bel l</w>
Con cer
Con med</w>
Con firmed</w>
Con trac
Con duct</w>
Con trol</w>
Con sult</w>
Con trastingly</w>
fu eled</w>
fu elled</w>
Al ex
Al lies</w>
Al ask
Al aska</w>
Me tte</w>
Me ghan</w>
the fts</w>
af fordable</w>
finan ces</w>
foo tprint</w>
man ners</w>
loc ating</w>
Ap prov
work out</w>
work -related</w>
play off</w>
play offs</w>
ob li
ob tain</w>
ob vious</w>
thir ty</w>
thir teen</w>
access ory</w>
dr yers</w>
dr ze
dr unk</w>
pass words</w>
pass word</w>
marke ter</w>
18 2</w>
18 5</w>
18 3</w>
18 12</w>
18 24</w>
18 16</w>
18 65</w>
18 32</w>
18 36</w>
18 75</w>
18 90</w>
18 72</w>
18 68</w>
dis k</w>
dis approval</w>
dis advantages</w>
dis embar
dis cipl
air plan
air -conditioning</w>
ali zes</w>
Ar t</w>
Ar ts</w>
Ar sen
Ar beid
lic ans</w>
inclu sion</w>
Pre dic
Pre liminary</w>
Pre dator</w>
Pre fec
dem anded</w>
net -
net workers</w>
kil os</w>
kil ler</w>
fam ily-
int ending</w>
int angi
differ ently</w>
Co R</w>
Co de</w>
Co sts</w>
Co yotes</w>
go m</w>
go v</w>
stitu res</w>
mor phine</w>
non- users</w>
non- banking</w>
non- suicide</w>
non- smart</w>
non- Western</w>
non- stop</w>
non- performing</w>
non- Aboriginal</w>
tic o</w>
tic le</w>
enter ed</w>
enter tain</w>
ans wear</w>
impac ting</w>
impac tful</w>
ste ens</w>
passeng er-
sa vory</w>
Pro c
Pro gram</w>
Pro posed</w>
Pro blems</w>
Pro gram
Pro visions</w>
Pro vider</w>
Pro ducer</w>
fran c</w>
Par á</w>
Par ents</w>
Par agu
stri es</w>
stri al</w>
Den tal</w>
watch OS</w>
Fi ghting</w>
Fi ve-year</w>
cul tivation</w>
dro ps</w>
An al
An nu
An drew</w>
An ahei
An drze
Li st</w>
Li ve</w>
Li ving</w>
Li onel</w>
Li verpool</w>
ain s</w>
some day</w>
some body</w>
win eries</w>
all -
all pox</w>
subscri pti
Cor si
Cor reios</w>
Cor porate</w>
On ce</w>
boo st</w>
boo kers</w>
cre ws</w>
Lati no
tre ating</w>
tre kking</w>
tre mend
Fin al</w>
rol ending</w>
rol lment</w>
adverti ser</w>
web -based</w>
web cam</w>
web inars</w>
speci alties</w>
speci alizes</w>
week ends</w>
week night</w>
sli de</w>
uni or</w>
uni ons</w>
uni form</w>
jo gging</w>
ship ping</w>
whe els</w>
char ts</w>
char tered</w>
char ge-off</w>
1, 2
1, 200</w>
bor o</w>
bor der-
cen tre</w>
cy -related</w>
cy cled</w>
har der</w>
har dest</w>
mac ies</w>
Inter est</w>
Inter active</w>
Inter estingly</w>
attend ances</w>
anti body</w>
anti anxiety</w>
Fren ch-speaking</w>
St ars</w>
colle giate</w>
ber ries</w>
sk y</w>
asse sses</w>
Col o</w>
health ful</w>
health iness</w>
health ier</w>
Be er</w>
Be havi
down time</w>
them ed</w>
them es</w>
them atic</w>
alco hols</w>
orig ins</w>
gradu al</w>
gradu ating</w>
mem es</w>
10 6</w>
10 4</w>
10 3</w>
10 th</w>
10 1,000</w>
10 -year</w>
10 5,000</w>
bac ter
plan et</w>
plan ting</w>
soci al-
soci eties</w>
soci opo
up wards</w>
up dated</w>
up dates</w>
up lifted</w>
up bringing</w>
vari ants</w>
ong Chan
ele vated</w>
ele venth</w>
amp hetamine</w>
deb ates</w>
tru th</w>
stream er</w>
11. 9</w>
11. 95</w>
NB CUniversal</w>
cle an</w>
cle aners</w>
Am ster
Am éric
don ated</w>
tali zations</w>
Mon roe</w>
mul a</w>
tow a</w>
deli ver</w>
deli veries</w>
ble -
identi fiable</w>
17 1</w>
17 8</w>
17 4</w>
17 3</w>
17 40</w>
17 90</w>
17 92</w>
17 99</w>
17 07</w>
17 02</w>
17 2,000</w>
lat ure</w>
lat e-night</w>
mat ure</w>
mat ernal</w>
spe edi
spe eding</w>
accep ting</w>
accep tability</w>
fore igner</w>
electri cal</w>
multi media</w>
multi tude</w>
10. 7</w>
10. 1</w>
10. 35</w>
10. 39</w>
10. 93</w>
Ha ving</w>
star k</w>
He inem
He ath
He althy</w>
He wlet
He adquartered</w>
You gov</w>
stin e</w>
De pop</w>
De ut
De vils</w>
Gam esa</w>
ster y</w>
travel er</w>
travel led</w>
Chi ldren</w>
Ob structive</w>
Ob ywat
nat ur
poll ing</w>
wel ers</w>
stron ghold</w>
under stood</w>
under served</w>
Vi aplay</w>
cro ps</w>
Du ty</w>
Du cks</w>
Du ck
Over night</w>
aff ection</w>
aff airs</w>
Medic ines</w>
Malay sia/Singapore</w>
Ex ec
Ex peri
Ex change</w>
Ex press</w>
Ma c</w>
Ma uritania</w>
immi grant</w>
14. 7</w>
14. 27</w>
14. 36</w>
14. 69</w>
14. 58</w>
2, 500</w>
sing er</w>
sing ly</w>
sing les</w>
perform ances</w>
Gu ide</w>
Gu jar
Lu cia</w>
Vo te</w>
Vo ivode
Vo dka</w>
aim s</w>
fru stration</w>
st- growing</w>
sist ers</w>
15. 2</w>
15. 1</w>
15. 69</w>
15. 07</w>
Po ints</w>
Po sitive</w>
Pri or</w>
ee house</w>
abo ve-
avail abilty</w>
17. 9</w>
17. 41</w>
cha ined</w>
cha irs</w>
hand guns</w>
nec k</w>
coff eehouse</w>
full- service</w>
full- length</w>
full- calorie</w>
12. 7</w>
hy bri
lea ves</w>
contrac ted</w>
year- to-date</w>
Ad option</w>
Ad -supported</w>
Ban kers</w>
SM Bs</w>
cru cial</w>
kid neys</w>
lin ks</w>
lin ens</w>
vac ation
vac uum</w>
ext ended</w>
valu ing</w>
valu e-added</w>
quarter back</w>
18. 6</w>
18. 09</w>
pu shed</w>
arri ve</w>
arri val</w>
feder ation</w>
16. 2</w>
16. 8</w>
16. 31</w>
3, 438</w>
Jo se</w>
fl own</w>
fl ying</w>
gen ital</w>
gen omics</w>
resid ence</w>
influ ences</w>
organi zing</w>
En d</w>
En cr
En rollment</w>
Pl ant</w>
Pl aid</w>
Pl enty
Sco tia</w>
fre ely</w>
fre e-
ten -off</w>
issu ing</w>
self- storage</w>
self- isol
self- managing</w>
self- isolation</w>
exclu sive</w>
23. 7</w>
23. 1</w>
23. 8</w>
23. 5</w>
23. 64</w>
Bl ue</w>
dri ve-
nation alized</w>
dep th</w>
dep ended</w>
19. 1</w>
19. 4</w>
19. 65</w>
19. 49</w>
scen e</w>
13. 8</w>
13. 89</w>
Bas ingsto
che z</w>
che ap</w>
che ddar</w>
comple tions</w>
victim ization</w>
cou rier</w>
run ways</w>
sug ge
21. 4</w>
21. 3</w>
21. 92</w>
Fo x</w>
tom atoes</w>
20. 2</w>
20. 1</w>
20. 5</w>
20. 9</w>
20. 84</w>
predic ts</w>
predic tion</w>
luc k</w>
luc ky</w>
So da</w>
den i
den omin
tro uble</w>
protec ting</w>
Is lam</w>
cho sis</w>
super her
super stitions</w>
stoc king</w>
Chan nel</w>
Chan gi</w>
bal anced</w>
Compar able</w>
desig ned</w>
desig ns</w>
univer sally</w>
28. 3</w>
28. 16</w>
Car di
Car refour</w>
We ap
We alth</w>
fri dge</w>
land ed</w>
land line</w>
land slide</w>
thre shold</w>
in- game</w>
serv ants</w>
plac ing</w>
leg umes</w>
leg alizing</w>
main line</w>
main land</w>
declar ing</w>
equip ped</w>
26. 6</w>
26. 8</w>
26. 19</w>
26. 62</w>
fr actionation</w>
gl aucoma</w>
remo ving</w>
vir al</w>
terro r</w>
As surance</w>
Hou sing</w>
Pr ussian</w>
Su preme</w>
cop e</w>
cop ing</w>
cop yright</w>
life span</w>
offici als/
Arg enti
continu es</w>
15 -year-old</w>
24. 8</w>
24. 9</w>
24. 29</w>
24. 56</w>
ES L</w>
ES ports</w>
ES LM
La w</w>
La Liga</w>
Mid west</w>
War c</w>
War zone</w>
dou bling</w>
dou bt</w>
dou ble-
ks /
pen sions</w>
pen ny</w>
annu alized</w>
list eners</w>
shor t-
shor tlists</w>
adju stment</w>
occasi onal</w>
30. 7</w>
30. 2</w>
30. 4</w>
30. 9</w>
30. 55</w>
Ab bot
Ab bot</w>
Ab raham</w>
EU As</w>
EU /E
Min era</w>
Sy stem</w>
defin es</w>
suff er</w>
epid emi
emerg ence</w>
Cen ter</w>
Cen sus</w>
Em mental</w>
Em mis</w>
Em presa</w>
Win nipeg</w>
her b</w>
her bicides</w>
mas sive</w>
sen sitivity</w>
telec asts</w>
disc ards</w>
disc us</w>
disc lose</w>
disc losing</w>
Appro ximate</w>
22. 6</w>
22. 4</w>
22. 9</w>
22. 62</w>
22. 52</w>
25. 6</w>
25. 2</w>
Qu een</w>
Qu ibi</w>
Vol umes</w>
micro grams</w>
micro credit</w>
micro -lending</w>
micro biome</w>
o- on-Demand</w>
sponsor ed</w>
27. 9</w>
27. 81</w>
37. 8</w>
Or der</w>
Yor kshire</w>
invol untary</w>
Whats app</w>
Ro y</w>
Ro ad</w>
Ro gan</w>
Ro ku</w>
Ro ssm
avo ids</w>
mal practice</w>
pi pe</w>
pi pel
pi peline</w>
raci ally</w>
reti remen
bio techn
tattoo ed</w>
Fur ther</w>
IC S</w>
IC I</w>
IC ICI</w>
Mic helin</w>
NA SDA
bene fit</w>
kin ds</w>
def enders</w>
def endants</w>
loy al</w>
counter top</w>
med alist</w>
offic er</w>
Ukra ini
29. 8</w>
29. 5</w>
29. 4</w>
9, 999</w>
Air line</w>
Br agg</w>
Cl ell
Cl oud</w>
El f</w>
Govern or</w>
Govern mental</w>
je answear</w>
instal ls</w>
instal lations</w>
2012 /2013</w>
hist orians</w>
preven table</w>
cig ars</w>
autom ation</w>
licen ses</w>
Premi um</w>
design ers</w>
40. 2</w>
40. 3</w>
8, 5
8, 7
Ir ving</w>
Pe er-to-peer</w>
Pe tersburg</w>
Pe licans</w>
blo gging</w>
d- service</w>
d- the-
domin ance</w>
domin ating</w>
job /position</w>
sem i-
writ e-offs</w>
writ ten-off</w>
zz ard</w>
zz lies</w>
enh ower</w>
exer cised</w>
veter an</w>
theat rical</w>
35. 6</w>
35. 2</w>
35. 3</w>
35. 62</w>
For ces</w>
For mula</w>
Si emens</w>
Sen ators</w>
Ti zen</w>
bab ies</w>
2008/ 2009</w>
chec k
hospitali zation</w>
broadca sted</w>
At l
Bul ls</w>
Cap itali
Cap ital
Fl ash</w>
Fl ames</w>
S. pA</w>
S. r.l</w>
bri a</w>
bri dal</w>
dra stic</w>
lim ite
automo biles</w>
38. 2</w>
38. 1</w>
38. 5</w>
Bur ma</w>
Fa roe</w>
Se a</w>
Se do</w>
Se oul</w>
Se veral</w>
Sur face</w>
Sur veyed</w>
perf umes</w>
sty les</w>
expres ses</w>
multi- country</w>
multi- person</w>
influen cer</w>
Phili ps</w>
Elec tric</w>
36. 7</w>
36. 1</w>
36. 5</w>
36. 87</w>
50. 8</w>
50. 21</w>
50. 42</w>
Cub an</w>
Cub ans</w>
Har d
Har ley</w>
Har rison</w>
Har bor</w>
Har ley-
Sec tor</w>
nor thern</w>
top -
restric ted</w>
restric tive</w>
trac ker</w>
fix ation</w>
meth amphetamine</w>
vege table</w>
Wi reless</w>
dre ams</w>
jour ney</w>
pan cies</w>
disp osed</w>
absol utely</w>
pod ca
quaranti ning</w>
laun ches</w>
necess ity</w>
Play erUn
Ci sco</w>
ba g</w>
eti s</w>
non financial</w>
non fatal</w>
s/ sugar</w>
s/ vendors</w>
s/ promote</w>
s/ PERS</w>
altern ately</w>
altern atives</w>
person alities</w>
hyper market</w>
Croati an</w>
Purchas e</w>
48. 7</w>
48. 2</w>
48. 5</w>
48. 4</w>
54. 6</w>
54. 8</w>
54. 4</w>
54. 3</w>
54. 38</w>
6, 9
6, 500</w>
66. 3</w>
FT E</w>
Her oin</w>
Mc Clell
Ric hard</w>
Sal t</w>
eas e</w>
eas ing</w>
eas ier</w>
pa role</w>
pa stries</w>
refl ection</w>
appe ars</w>
auth entication</w>
volun tar
mid- eigh
avoid ability</w>
Feder ation</w>
BR ICS</w>
Lim a</w>
Man agers</w>
Man itob
vacc ination</w>
vacc inated</w>
perman ently</w>
motor bike</w>
pregn ant</w>
exec utions</w>
eigh th</w>
eigh teen</w>
medic ines</w>
deri ve</w>
harve stings</w>
belong s</w>
Vide o-on-Demand</w>
character ises</w>
analy st</w>
Hung arian</w>
49. 6</w>
49. 5</w>
60. 3</w>
Da e-ho</w>
Ho chtief</w>
Nep alese</w>
Nep hew</w>
PM A</w>
PM MA</w>
Ver mont</w>
pul se</w>
s- producing</w>
real ity/
arti sts</w>
stop ping</w>
consequ ent</w>
lot teries</w>
separ ated</w>
separ ations</w>
chall enger</w>
soli ds</w>
scre ened</w>
relation ships</w>
Arab ica</w>
transplan ted</w>
hard ware
Australi ans</w>
calcul ations</w>
calcul ating</w>
benef ited</w>
47. 6</w>
47. 8</w>
47. 3</w>
47. 9</w>
68. 4</w>
68. 9</w>
69. 2</w>
69. 75</w>
69. 74</w>
7, 6
7, 8
7, 500</w>
Cal gary</w>
e/ cellular</w>
fair s</w>
hor mone</w>
rap es</w>
rap id</w>
sle eper</w>
an- assisted</w>
exam ples</w>
fire places</w>
high- income</w>
45. 2</w>
45. 4</w>
45. 9</w>
Mag ic</w>
NH CS</w>
bai du.com</w>
home ware</w>
â€ œ
percenti les</w>
advi sing</w>
exhi bited</w>
improv ements</w>
competi tor</w>
competi tors</w>
particul ate</w>
cannab idi
Univer se</w>
Colum bus</w>
Ener gy
Salv atore</w>
every one</w>
embezz led</w>
Ali pay</w>
Bro s.</w>
Bro wn</w>
IP TV</w>
Il lumin
Mi u</w>
Mi ami</w>
Mi strzost
PP I</w>
PP E</w>
Som me</w>
ed ad</w>
gres sional</w>
hu ge</w>
hum an
happ ening</w>
enfor ced</w>
arter y</w>
depres sed</w>
behin d-the-
motiv ating</w>
extr apolated</w>
post- injury</w>
post- COVID</w>
out-of- home</w>
out-of- state</w>
out-of- stock</w>
festi valen</w>
withdra wal</w>
symp tom</w>
demographi cs</w>
Bangla deshi</w>
confection ary</w>
Soci alists</w>
Soci edad</w>
discus sion</w>
discus sing</w>
strate gic</w>
achie ving</w>
29 th</w>
29 ,000</w>
29 -year-old</w>
58. 6</w>
CP G</w>
EM D</w>
EM R/E
Rw andan</w>
col i</w>
coo kies</w>
mand ates</w>
rep sondents</w>
one- quarter</w>
one- stop</w>
one- bedroom</w>
asp ect</w>
asp irations</w>
ty- two</w>
ty- five</w>
green field</w>
EU- 18</w>
Bloom ingdale</w>
â€™ t</w>
municip alities</w>
14 4.8</w>
53. 4</w>
70. 6</w>
70. 8</w>
IT -management</w>
Pen guins</w>
Pan thers</w>
Tw enty-
bing ed</w>
gy mna
rabb its</w>
uplo ading</w>
uplo aded</w>
pre- primary</w>
pre- vacation</w>
exi st</w>
exi stence</w>
suffer ers</w>
control lers</w>
therap ies</w>
suppor ter</w>
atten dees</w>
capitali ze</w>
renov ation</w>
power train</w>
Custom s</w>
12, 3
57. 9</w>
57. 53</w>
AC SI</w>
Cre ek</w>
TI M</w>
gas oil</w>
greg ated</w>
mis si
eni us</w>
inte gr
diff ers</w>
diff ered</w>
comfor t</w>
survi ved</w>
chur n</w>
heter o
brow sing</w>
brow sers</w>
justi ces</w>
justi fied</w>
geo social</w>
geo graphy</w>
admini stered</w>
admini strative</w>
Atlan tic</w>
24 -hour</w>
27 th</w>
48 ,000</w>
48 1,9
Ag gregated</w>
Asi an/Pacific</w>
Cy mru</w>
Ed monton</w>
Lo cal</w>
Lo sses</w>
MS C</w>
Mor tgage</w>
Mor risons</w>
OT C</w>
Smar twatch</w>
even ly</w>
recomm end</w>
emo tions</w>
prote in</w>
constitu tional</w>
appreci ated</w>
appreci ating</w>
expl ain</w>
expl oring</w>
imp lications</w>
former -
over- budget</w>
over- speeding</w>
furni shed</w>
Med al</w>
sym bols</w>
High est-paid</w>
1,0 26</w>
second- largest</w>
second- ranked</w>
know led
dispos ables</w>
volunte er</w>
43. 9</w>
67. 4</w>
67. 49</w>
80. 7</w>
Bal tic</w>
Bir d</w>
Bir ken
Gren ada</w>
Pa thogen</w>
Sou th-
Te enagers</w>
Ug andan</w>
Vinc i</w>
bre eders</w>
cep tibility</w>
cau ght</w>
lay ers</w>
psy chosis</w>
pup il-teacher</w>
ram ento</w>
arm s-producing</w>
stres s/promote</w>
assum ed</w>
assum es</w>
desc endant</w>
co- living</w>
co- worker</w>
plu g</w>
Chem icals</w>
bot ched</w>
water sport</w>
Green house</w>
Green s/
ign ore</w>
ign -born</w>
Occup ational</w>
conditi oners</w>
conditi oner</w>
Poli cy</w>
legis lature</w>
Techn ologies</w>
impeach ed</w>
28 th</w>
28 ,000</w>
Abor tion</w>
Bud geted</w>
Ku ehn
Plan ned</w>
Phar macy</w>
Sm ith</w>
Sm allpox</w>
Trans fer</w>
Wil d</w>
Wil lebrand</w>
bru tality</w>
hem orrh
i. e.</w>
ki en</w>
nur sery</w>
rul ing</w>
Ã© al</w>
Ã© mon</w>
perm ission</w>
limi tations</w>
spou ses</w>
emi gration</w>
de- France</w>
deter ior
ad- free</w>
ad- supported</w>
modi fication</w>
parliam ents</w>
parliam ent/
accur acy</w>
two- course</w>
two- wheel
fast- casual</w>
fast- moving</w>
Constitu tional</w>
syn agogue</w>
benefici ary</w>
utili zed</w>
utili zation</w>
Smart phones</w>
neighbor hood</w>
neighbor hoods</w>
recommend ation</w>
stereo typing</w>
51. 85</w>
Cru ises</w>
FY 2019</w>
LE D</w>
LE D-based</w>
Mess i</w>
No v</w>
Pic tures</w>
Pic turehouse</w>
Ri ver</w>
SE K</w>
Sim mons</w>
WH OA</w>
bit rate</w>
race track</w>
repor ters</w>
repe at</w>
repe aling</w>
live lihood</w>
share holders</w>
dish onest</w>
spir its</w>
spir acy</w>
The atres</w>
portr ayed</w>
portr ayal</w>
recru iting</w>
highli ghting</w>
voc ational</w>
pick up</w>
pick ups</w>
first- class</w>
break downs</w>
low- end</w>
low- income</w>
low- risk</w>
All- time</w>
physici an-assisted</w>
2,2 51</w>
Black hawks</w>
favour ite</w>
teleph ony</w>
appoint ments</w>
Year- over-year</w>
35 -
55. 91</w>
65 +</w>
AT AC</w>
Cri me</w>
Foun ding</w>
Gram mys</w>
Jan ata</w>
Ki k</w>
Ki -moon</w>
Sel ling</w>
Thi rd</w>
aero thermal</w>
dome stic
g/ km</w>
pain ting</w>
sn ack</w>
t/ assisted</w>
tun ing</w>
insul a</w>
reli ant</w>
per- view</w>
per- mille</w>
hip -hop</w>
age- specific</w>
ambi tious</w>
mobil e/cellular</w>
most- viewed</w>
end- users</w>
coron a</w>
quin tile</w>
civi lian</w>
Independ ent</w>
Independ ents</w>
expir ations</w>
nutri ent</w>
business /private</w>
substitu te</w>
intel ligen
alcohol -specific</w>
Pok Ã©mon</w>
circum stances</w>
system /personal</w>
system s/PERS</w>
poly propylene</w>
threat ening</w>
Super stitions</w>
check- ups</w>
Hospi tal</w>
Hospi tals</w>
Hospi talizations</w>
28, 031</w>
44, 415</w>
Cr yp
Cer tain</w>
Cop enh
CAG Rs</w>
Educ ational</w>
Fres enius</w>
Grou pe</w>
Je welers</w>
Rec ent</w>
Rec ycling</w>
UB S</w>
Ul timate</w>
Youn ger</w>
barri er</w>
ce- gather
evalu ate</w>
evalu ated</w>
gau ging</w>
nati onally</w>
pon y</w>
sl ump</w>
tend encies</w>
encounter ing</w>
rever sed</w>
rever sible</w>
oni ons</w>
histor ical-
stem med</w>
simp lex</w>
pro- life</w>
dev astating</w>
dev ils.
deplo ying</w>
compro mise</w>
see m</w>
advoc ated</w>
advoc ates</w>
expo sure</w>
dollars. The</w>
dollars. La-Z-Boy</w>
suspec t</w>
suspec ts</w>
trim mer</w>
gra fos</w>
Institu tional</w>
no- deal</w>
guarante e</w>
entit led</w>
grape fruits</w>
cash ew</w>
video- on-demand</w>
investig ated</w>
investig ations</w>
Conn ected</w>
obj ective</w>
third- party</w>
fundam ental</w>
borro wer</w>
cyber crime</w>
cyber -bullied</w>
truth fully</w>
Amoun ts</w>
17, 3
news room</w>
3,8 63</w>
Under ground</w>
Under -five</w>
three- year</w>
5,8 94</w>
Broad cast</w>
Pack ard</w>
yiel ds</w>
concessi onaires</w>
invasi on</w>
Pharmaceu tical</w>
cryp tomining</w>
uphol stery</w>
Musli m</w>
enthusi asts</w>
14, 5
45 th</w>
45 -54</w>
52. 64</w>
Ax is</w>
Camp ania</w>
DA U</w>
Des ktop</w>
Eth ylene</w>
Fu ture</w>
Fu kus
GC C</w>
GC SE</w>
Hum an</w>
Ko alic
ME Ps</w>
ME NA</w>
Ot to</w>
Ot tawa</w>
PS 4</w>
PS V</w>
Str at
Str ength</w>
Wo W</w>
Wo onso
hon or</w>
iP od</w>
iP ad</w>
ler c</w>
lumin aires</w>
rus sian</w>
rus -positive</w>
swee tener
encour aged</w>
ref usals</w>
2019 .</w>
2010. Still</w>
take downs</w>
attrac ted</w>
attrac ting</w>
shar p</w>
shar ply</w>
six th</w>
propor tional</w>
conver sation</w>
consul tancy</w>
wea ther</w>
cost- sharing</w>
cost- per-view</w>
let tuce</w>
incur able</w>
incur red</w>
Marl borough</w>
Marl boro</w>
Indu strial</w>
expon ential</w>
expon entially</w>
Shar ks</w>
voice- enabled</w>
voice- activated</w>
contribu te</w>
school mates</w>
Franç ois</w>
Franç oise</w>
Alco hol</w>
after math</w>
mango es</w>
mango steens</w>
Fire ball</w>
Fire fox</w>
1,8 83</w>
1,8 92</w>
ation/ technology</w>
ation/ ideas</w>
match day</w>
match making</w>
Amazon as</w>
frater nity</w>
multi-tas k</w>
multi-tas ked</w>
Outb ound</w>
Outb ack</w>
achiev ement</w>
achiev ements</w>
Physi cal</w>
domic ile</w>
domic iled</w>
intellig ent</w>
intellig ence</w>
negoti ations</w>
52, 201</w>
A/ S</w>
Bing o</w>
Cat eg
Cul ture</w>
Coll ege</w>
Cinem atic</w>
E- book</w>
EO DB</w>
EP P</w>
GO P</w>
Get tysburg</w>
Ham bur
Kan agaw
Kind gom</w>
Lt d</w>
Len ovo</w>
NC AA</w>
NP R</w>
Of com</w>
Ox y</w>
Smo king</w>
Sig net</w>
TS B</w>
Telec om</w>
UK IP</w>
Wat son</w>
cacha ça</w>
fab ric</w>
fron t</w>
gan gs</w>
hen na</w>
mic rolending</w>
pav ement</w>
rur al/
snap s</w>
than ks</w>
ers k</w>
encomp asses</w>
infe stations</w>
inspir ation/ideas</w>
innov ation/technology</w>
anno ying</w>
anonym ously</w>
reb ate</w>
arch itects</w>
aris ing</w>
outr age</w>
step s</w>
shel ves</w>
agro chemical</w>
vita min</w>
promin ent</w>
progres sively</w>
profici ent</w>
propos al</w>
oppon ent</w>
Thre dUp</w>
best- selling</w>
apart ment</w>
worsen ing</w>
addres sed</w>
weak ening</w>
explo sives</w>
cost umes</w>
countr ywide</w>
toa ster</w>
peace fulness</w>
susta ined</w>
reason able</w>
plum bing</w>
Inf ant</w>
Info Wars</w>
soro rities</w>
moneti zed</w>
voivode ships</w>
Accep tability</w>
overwhel ming</w>
boom ed</w>
shir ts</w>
scholar ships</w>
mix tures</w>
Frank lin</w>
turb ine</w>
Lew is</w>
capaci ties</w>
specta tors</w>
brand s/vendors</w>
afro- descendant</w>
intoler ances</w>
Filip ino</w>
transl ated</w>
cred its</w>
Montr éal</w>
croiss ant</w>
newly weds</w>
software -as
flexi ble</w>
public ly</w>
runner- up</w>
girl friend</w>
landlor d</w>
Geographi cal</w>
lifesty le-related</w>
discre pancies</w>
Que bec</w>
pier cing</w>
Michoac án</w>
radio active</w>
Brasil eira</w>
celebr ation</w>
pregnan cy-related</w>
magici ans</w>
firefigh ter</w>
swim wear</w>
Enterpri se</w>
1980/ 81</w>
committe e</w>
Paul o</w>
resili ency</w>
stress ors</w>
Melodi festivalen</w>
trimm ers</w>
borrow ers</w>
Pale stine</w>
archipel ago</w>
certific ate</w>
-years- old</w>
Wimble don</w>
ejacul ation</w>
vulner abilities</w>
esophag eal</w>
prioriti zed</w>
phenomen on</w>
'P ure</w>
'Au thentication</w>
-Ma ersk</w>
-a- service</w>
.n l</w>
3D- printing</w>
68 6,000</w>
62,5 80</w>
Aj ax</w>
Ald i</w>
Aval anche</w>
APM -Maersk</w>
Arub a</w>
Athen ahealth</w>
BJ P</w>
Bou ygu
Bli zzard</w>
Bec ton</w>
Bru ins</w>
Bub ble</w>
Batt legrounds</w>
Bey ond</w>
Bhar atiya</w>
Bicy cles</w>
CK D</w>
CN N</w>
Cin tas</w>
Cit ro
Cow boys</w>
Cond om</w>
Cour t</w>
Clip pers</w>
DU P</w>
Dr .</w>
Dz hokhar</w>
Dic kinson</w>
Dun geon</w>
Dub lin</w>
Dud a</w>
Do- It-
DOT A</w>
ER P</w>
ET F</w>
Ek ati</w>
Eti dis</w>
Ech o</w>
Eis enhower</w>
Espor towa</w>
Emp ire</w>
Esw atini</w>
Eind hoven</w>
Erh verv</w>
FS U</w>
Ful l-
Fly ers</w>
Fav ourite</w>
Gri zzlies</w>
Gil dan</w>
Hon shu</w>
Hur ricanes</w>
Hindu s</w>
Hamp shire</w>
Hind u</w>
IU CN</w>
Iow a</w>
Ile- de-France</w>
Ja e-in</w>
Jä germeister</w>
Jac kets</w>
Jup iler</w>
Jan- Nov</w>
Jack son</w>
Jagu ar</w>
Ka bul</w>
Ker ala</w>
Lec lerc</w>
Lun ch</w>
Lei sure</w>
Land on</w>
Lot te</w>
Lloy ds</w>
Lombar dy</w>
LCD- TV</w>
LIN E</w>
Mem bers</w>
Mul tiple</w>
Map ei</w>
Nag el</w>
Oil ers</w>
Ope l</w>
Osc ar</w>
Odish a</w>
Pin ault</w>
Pom orskie</w>
Pam pers</w>
Pye ongChan
Pul monary</w>
Poll ing</w>
Pati ents</w>
Psy chotropic</w>
Plat form</w>
Puti n</w>
Qash qai</w>
Row ling</w>
Rem ain</w>
Ring git</w>
Rho de</w>
Ris k</w>
Roc kets</w>
RFI D</w>
Remo te</w>
Sat urday</w>
Sac ramento</w>
Sem iconductor</w>
Sho es</w>
Sir i</w>
Stran ger</w>
Sup port</w>
Stil i</w>
Sann a</w>
Ts arna
Tol kien</w>
Tap estry</w>
Tru st</w>
Tran sport</w>
Uu sima
Uly sses</w>
Volo dym
Vall ey</w>
VSC O</w>
Vladi mir</w>
Wa itrose</w>
Yel p</w>
Zo etis</w>
Zv w</w>
Zelen sky</w>
bare ly</w>
byp ass</w>
cit rus</w>
cun nil
center -
crit eria</w>
d'Ita lia</w>
espi onage</w>
eHar mony</w>
gain ing</w>
hoo kah</w>
heri tage</w>
hthen ic</w>
kis sing</w>
kg/m 2</w>
labor atory</w>
laborat ory-
my self</w>
mom ent</w>
mel on</w>
pom elos</w>
pine apples</w>
sus ceptibility</w>
snu ff</w>
sabo tage</w>
tresp assing</w>
tub es</w>
upri ght</w>
vou chers</w>
wro te</w>
wond ers</w>
ydi a</w>
£14 ,000</w>
erparti et</w>
tiss ue</w>
enlarg ement</w>
incomp atible</w>
incorpor ated</w>
anore xia</w>
ance stry</w>
rele vant</w>
remark able</w>
refur bishment</w>
resist ance</w>
remod eling</w>
rememb ered</w>
argu ed</w>
artil lery</w>
art/ craft</w>
order ing</w>
orthop edic</w>
perpe tr
alum ni</w>
ale-to- male</w>
live- action</w>
light ning</w>
right- wing</w>
illo s</w>
urani um</w>
shav ers</w>
dive stitures</w>
distr act</w>
dimin ish</w>
accor dingly</w>
old- age</w>
vigo rous</w>
vitamin s</w>
spend ings</w>
spread s</w>
emig rants</w>
dual- military</w>
amid st</w>
amateu r</w>
protagon ists</w>
open- cast</w>
destro yed</w>
concre te</w>
congl omerate</w>
2007/0 8</w>
comedi es</w>
comorbi dities</w>
Statu tory</w>
beach -</w>
aplegi a</w>
unlead ed</w>
unanim ously</w>
undocum ented</w>
witness ed</w>
tramp olining</w>
webro oming</w>
modulat ors</w>
choc olate</w>
chari table</w>
chlam ydia</w>
exab ytes</w>
extra- EU</w>
respod ents</w>
coronavi rus-positive</w>
coali tion</w>
imprison ed</w>
absor bed</w>
tobac co-related</w>
cigar illos</w>
megat ons</w>
pestic ides</w>
neurolog ical</w>
incarcer ated</w>
straw berries</w>
served/ not</w>
planti ngs</w>
present -day</w>
made- up</w>
interconnec t</w>
reclin ers</w>
valence- based</w>
Innov ative</w>
Intenti onal</w>
scand al</w>
guav as</w>
Cannab is</w>
Diseas e</w>
Divor ce</w>
employer- sponsored</w>
nucle us</w>
Italiani .Coop</w>
Chrom ecast</w>
January/ February</w>
controver sy</w>
German- speaking</w>
Franco- Prussian</w>
Restric tions</w>
1999/ 00</w>
faste st-growing</w>
Leaf s</w>
lower- calorie</w>
partisan ship</w>
particp ating</w>
autoimmu nity</w>
strugg led</w>
blind ness</w>
cao- sector</w>
Alask an</w>
Approv al</w>
disembar ked</w>
discipl ine</w>
airplan es</w>
Arsen al</w>
Arbeid erpartiet</w>
Prefec ture</w>
family- owned</w>
intangi ble</w>
passenger- kilometers</w>
Program me</w>
Paragu ay</w>
Anahei m</w>
Andrze j</w>
social- emotional</w>
sociopo litical</w>
Amster dam</w>
Améric a</w>
speedi er</w>
Heinem ann</w>
Heath row</w>
Hewlet t</w>
Obywat elska</w>
Gujar at</w>
above- average</w>
hybri d</w>
Encr ybit</w>
drive- in</w>
Basingsto ke</w>
superher o</w>
officials/ civil</w>
ESLM P</w>
Abbot t</w>
EU/E EA</w>
epidemi ological</w>
Rossm an</w>
pipel ines</w>
retiremen t/assisted</w>
NASDA Q</w>
Capitali sm</w>
Capital -Region</w>
limite d-service</w>
Harley- Davidson</w>
McClell an</w>
mid-eigh teenth</w>
Manitob a</w>
reality/ augmented</w>
cannabidi ol</w>
Energy -related</w>
Illumin ar</w>
Mistrzost wa</w>
behind-the- meter</w>
EMR/E HR</w>
Twenty- third</w>
gymna stics</w>
Birken stock</w>
Kuehn e</w>
hemorrh agic</w>
deterior ated</w>
parliament/ legislature</w>
two-wheel ers</w>
intelligen ce-gather
historical- cost</w>
devils. one</w>
Fukus hima</w>
Koalic ja</w>
Woonso cket</w>
sweetener s/sugar</w>
Kanagaw a</w>
rural/ urban</w>
software-as -a-service</w>
Bouygu es</w>
Do-It- Yourself</w>
PyeongChan g</w>
Tsarna ev</w>
Uusima a</w>
Volodym yr</w>
cunnil ingus</w>
laboratory- confirmed</w>
intelligence-gather ing</w>
