{"<unk>":0,"!":1,"$":2,"%":3,"&":4,"'":5,"(":6,")":7,"+":8,",":9,"-":10,".":11,"/":12,"0":13,"1":14,"2":15,"3":16,"4":17,"5":18,"6":19,"7":20,"8":21,"9":22,":":23,";":24,"=":25,"?":26,"A":27,"B":28,"C":29,"D":30,"E":31,"F":32,"G":33,"H":34,"I":35,"J":36,"K":37,"L":38,"M":39,"N":40,"O":41,"P":42,"Q":43,"R":44,"S":45,"T":46,"U":47,"V":48,"W":49,"X":50,"Y":51,"Z":52,"_":53,"`":54,"a":55,"b":56,"c":57,"d":58,"e":59,"f":60,"g":61,"h":62,"i":63,"j":64,"k":65,"l":66,"m":67,"n":68,"o":69,"p":70,"q":71,"r":72,"s":73,"t":74,"u":75,"v":76,"w":77,"x":78,"y":79,"z":80,"¡":81,"£":82,"¤":83,"§":84,"¨":85,"©":86,"°":87,"³":88,"µ":89,"Â":90,"Ã":91,"Å":92,"á":93,"â":94,"ã":95,"ä":96,"ç":97,"è":98,"é":99,"ë":100,"í":101,"ó":102,"ô":103,"ö":104,"ø":105,"ü":106,"ą":107,"ć":108,"ł":109,"œ":110,"ś":111,"Š":112,"‐":113,"–":114,"—":115,"‘":116,"‚":117,"€":118,"™":119,"≥":120,"y</w>":121,"s</w>":122,"r</w>":123,"e</w>":124,"h</w>":125,"d</w>":126,"n</w>":127,"g</w>":128,"t</w>":129,"7</w>":130,"D</w>":131,"o</w>":132,";</w>":133,"6</w>":134,"2</w>":135,"1</w>":136,"R</w>":137,"8</w>":138,"0</w>":139,"5</w>":140,"4</w>":141,"3</w>":142,"c</w>":143,"N</w>":144,"p</w>":145,"m</w>":146,"S</w>":147,"a</w>":148,"f</w>":149,"A</w>":150,"9</w>":151,"l</w>":152,"U</w>":153,"°</w>":154,"O</w>":155,"w</w>":156,"i</w>":157,"k</w>":158,"x</w>":159,"T</w>":160,"v</w>":161,".</w>":162,"V</w>":163,"C</w>":164,")</w>":165,"/</w>":166,"€</w>":167,"u</w>":168,"I</w>":169,"W</w>":170,"ł</w>":171,"‚</w>":172,"H</w>":173,"b</w>":174,"j</w>":175,"M</w>":176,"F</w>":177,"E</w>":178,"B</w>":179,"z</w>":180,"+</w>":181,"P</w>":182,"X</w>":183,"G</w>":184,"-</w>":185,"$</w>":186,"L</w>":187,"`</w>":188,"Y</w>":189,",</w>":190,"Â</w>":191,"K</w>":192,"á</w>":193,"q</w>":194,"Q</w>":195,"%</w>":196,"(</w>":197,"J</w>":198,"Z</w>":199,"é</w>":200,"©</w>":201,"–</w>":202,"_</w>":203,"!</w>":204,"ć</w>":205,"—</w>":206,"?</w>":207,"'</w>":208,"ø</w>":209,"‘</w>":210,"&</w>":211,":</w>":212,"th":213,"the</w>":214,"er":215,"ti":216,"of</w>":217,"20":218,"en":219,"in</w>":220,"in":221,"an":222,"ed</w>":223,"ro":224,"re":225,"201":226,"ar":227,"on</w>":228,"on":229,"ta":230,"or":231,"es</w>":232,"to</w>":233,"er</w>":234,"it":235,"ou":236,"and</w>":237,"ent</w>":238,"per":239,"al":240,"ing</w>":241,"hi":242,"ts</w>":243,"li":244,"by</w>":245,"perc":246,"at":247,"as</w>":248,"ri":249,"rom</w>":250,"from</w>":251,"percent</w>":252,"tion</w>":253,"il":254,"om":255,"ec":256,"ur":257,"sta":258,"st":259,"or</w>":260,"sh":261,"sti":262,"di":263,"as":264,"ac":265,"ow":266,"ag":267,"al</w>":268,"stic</w>":269,"ol":270,"vi":271,"at</w>":272,"el":273,"2019</w>":274,"sp":275,"stati":276,"statistic</w>":277,"his</w>":278,"This</w>":279,"ted</w>":280,"an</w>":281,"st</w>":282,"en</w>":283,"nit":284,"em":285,"du":286,"am":287,"um":288,"Unit":289,"United</w>":290,"si":291,"202":292,"illi":293,"In</w>":294,"ers</w>":295,"oun":296,"ents</w>":297,"pro":298,"are</w>":299,"op":300,"ber</w>":301,"ce</w>":302,"show":303,"illion</w>":304,"ye":305,"2020</w>":306,"ul":307,"shows</w>":308,"Th":309,"de":310,"ars</w>":311,"age</w>":312,"ic":313,"U.":314,"ation</w>":315,"ey</w>":316,"U.S":317,"U.S.</w>":318,"ere</w>":319,"us":320,"tes</w>":321,"con":322,"ly</w>":323,"for</w>":324,"The</w>":325,"that</w>":326,"lo":327,"le</w>":328,"200":329,"com":330,"Sta":331,"ver":332,"ar</w>":333,"States</w>":334,"2018</w>":335,"be":336,"ap":337,"was</w>":338,"ha":339,"un":340,"wit":341,"et</w>":342,"wor":343,"tr":344,"oll":345,"se":346,"ad":347,"were</w>":348,"ati":349,"with</w>":350,"we":351,"umber</w>":352,"id":353,"mo":354,"ru":355,"ons</w>":356,"por":357,"sur":358,"ve</w>":359,"is</w>":360,"wh":361,"ch":362,"bu":363,"pre":364,"es":365,"end":366,"ex":367,"resp":368,"ue</w>":369,"mar":370,"oo":371,"ond":372,"ch</w>":373,"million</w>":374,"th</w>":375,"fi":376,"co":377,"gi":378,"gro":379,"im":380,"ab":381,"2017</w>":382,"duc":383,"respond":384,"coun":385,"to":386,"le":387,"surv":388,"'s</w>":389,"gh":390,"ing":391,"comp":392,"ment</w>":393,"doll":394,"ter":395,"ld":396,"qu":397,"tal</w>":398,"dollars</w>":399,"respondents</w>":400,"ds</w>":401,"share</w>":402,"sec":403,"ci":404,"ribu":405,"ate</w>":406,"survey</w>":407,"ide</w>":408,"year</w>":409,"out</w>":410,"ity</w>":411,"ei":412,"number</w>":413,"me":414,"do":415,"wide</w>":416,"opul":417,"pe":418,"ven":419,"ldwide</w>":420,"ic</w>":421,"ore</w>":422,"worldwide</w>":423,"ron":424,"ge</w>":425,"popul":426,"2016</w>":427,"ales</w>":428,"ated</w>":429,"ay":430,"pri":431,"est</w>":432,"ribution</w>":433,"ine</w>":434,"ver</w>":435,"ay</w>":436,"ding</w>":437,"ve":438,"19</w>":439,"uro":440,"billion</w>":441,"produc":442,"su":443,"up</w>":444,"2014</w>":445,"stribution</w>":446,"ng</w>":447,"years</w>":448,"ely</w>":449,"cor":450,"ter</w>":451,"ary</w>":452,"dom</w>":453,"reas":454,"mark":455,"ran":456,"2015</w>":457,"King":458,"verage</w>":459,"ne":460,"Kingdom</w>":461,"twe":462,"elec":463,"had</w>":464,"ai":465,"uring</w>":466,"2012</w>":467,"per</w>":468,"they</w>":469,"ast</w>":470,"mer":471,"rus</w>":472,"most</w>":473,"tween</w>":474,"inc":475,"se</w>":476,"all</w>":477,"sect":478,"reven":479,"avi":480,"whi":481,"who</w>":482,"tri":483,"UK</w>":484,"eir</w>":485,"their</w>":486,"about</w>":487,"str":488,"population</w>":489,"ser":490,"pl":491,"between</w>":492,"ss</w>":493,"ld</w>":494,"2013</w>":495,"ronavi":496,"sales</w>":497,"ronavirus</w>":498,"po":499,"total</w>":500,"for":501,"pe</w>":502,"ces</w>":503,"gr":504,"regi":505,"market</w>":506,"gend":507,"coronavirus</w>":508,"CO":509,"pres":510,"it</w>":511,"gender</w>":512,"any</w>":513,"par":514,"sum":515,"ma":516,"2009</w>":517,"D-":518,"VI":519,"one</w>":520,"COVI":521,"ong</w>":522,"COVID-":523,"plo":524,"COVID-19</w>":525,"tim":526,"revenue</w>":527,"inter":528,"rec":529,"rate</w>":530,"2010</w>":531,"emplo":532,"00":533,"val":534,"average</w>":535,"19":536,"ener":537,"ure</w>":538,"ff":539,"thou":540,"over</w>":541,"ess</w>":542,"ty":543,"ale</w>":544,"net</w>":545,"tions</w>":546,"Mar":547,"than</w>":548,"enta":549,"ople</w>":550,"increas":551,"res</w>":552,"lu":553,"onal</w>":554,"adu":555,"consum":556,"line</w>":557,"yo":558,"people</w>":559,"In":560,"peri":561,"amoun":562,"more</w>":563,"so":564,"ome":565,"servi":566,"Amer":567,"Americ":568,"Number</w>":569,"cording</w>":570,"ther</w>":571,"among</w>":572,"sector</w>":573,"ep":574,"ans</w>":575,"be</w>":576,"appro":577,"you</w>":578,"xim":579,"entage</w>":580,"exp":581,"aged</w>":582,"hou":583,"ho":584,"sid":585,"ately</w>":586,"sc":587,"ember</w>":588,"distribution</w>":589,"ting</w>":590,"group</w>":591,"ies</w>":592,"have</w>":593,"no":594,"eb":595,"try</w>":596,"adul":597,"mon":598,"region</w>":599,"ximately</w>":600,"od</w>":601,"is":602,"high":603,"users</w>":604,"1.":605,"gu":606,"March</w>":607,"ays</w>":608,"type</w>":609,"cial</w>":610,"lob":611,"als</w>":612,"country</w>":613,"Euro":614,"spl":615,"thous":616,"approximately</w>":617,"lobal</w>":618,"presents</w>":619,"he":620,"this</w>":621,"il</w>":622,"king</w>":623,"rea":624,"quar":625,"und</w>":626,"compar":627,"period</w>":628,"indu":629,"gener":630,"ors</w>":631,"thousand</w>":632,"Sh":633,"ub":634,"Can":635,"ame</w>":636,"online</w>":637,"and":638,"own</w>":639,"product</w>":640,"res":641,"value</w>":642,"ould</w>":643,"bil":644,"vel</w>":645,"medi":646,"has</w>":647,"Share</w>":648,"wom":649,"vo":650,"ance</w>":651,"During</w>":652,"ported</w>":653,",00":654,"tu":655,"adults</w>":656,"ates</w>":657,"Di":658,"ome</w>":659,"bi":660,"enti":661,"ni":662,"pic":663,"2011</w>":664,"euro":665,"form":666,"Ac":667,"old</w>":668,"dec":669,"ra":670,"ths</w>":671,"stry</w>":672,"onom":673,"stated</w>":674,"euros</w>":675,"anu":676,"tries</w>":677,"omestic</w>":678,"round</w>":679,"global</w>":680,"econom":681,"women</w>":682,"ected</w>":683,"industry</w>":684,"ant</w>":685,"countries</w>":686,"while</w>":687,"our":688,"time</w>":689,"chi":690,"amounted</w>":691,"our</w>":692,"displ":693,"2.":694,"domestic</w>":695,"te</w>":696,"ty</w>":697,"chan":698,"ks</w>":699,"land</w>":700,"ally</w>":701,"ubli":702,"2008</w>":703,"aid</w>":704,"around</w>":705,"ght</w>":706,"bile</w>":707,"sh</w>":708,"fir":709,"ph":710,"use</w>":711,"Ne":712,"As</w>":713,"port</w>":714,"Bri":715,"ree</w>":716,"quarter</w>":717,"te":718,"employ":719,"tra":720,"According</w>":721,"GD":722,"out":723,"Distribution</w>":724,"GDP</w>":725,"acc":726,"displays</w>":727,"cy</w>":728,"used</w>":729,"resul":730,"acti":731,",000</w>":732,"reta":733,"der</w>":734,"depic":735,"which</w>":736,"internet</w>":737,"ved</w>":738,"ous</w>":739,"depicts</w>":740,"nu":741,"ational</w>":742,"ood</w>":743,"mobile</w>":744,"cas":745,"gross</w>":746,"during</w>":747,"grap":748,"economic</w>":749,"gh</w>":750,"ess":751,"down</w>":752,"fo":753,"ties</w>":754,"reported</w>":755,"20</w>":756,"over":757,"percentage</w>":758,"Ita":759,"indi":760,"Ch":761,"highest</w>":762,"eg":763,"ada</w>":764,"3.":765,"bo":766,"bas":767,"fem":768,"erm":769,"compared</w>":770,"selec":771,"sit":772,"fin":773,"ollow":774,"day</w>":775,"tw":776,"emic</w>":777,"seg":778,"services</w>":779,"ture</w>":780,"Janu":781,"cal</w>":782,"follow":783,"cont":784,"gest</w>":785,"lar":786,"ric":787,"January</w>":788,"shi":789,"ending</w>":790,"fac":791,"accoun":792,"ound</w>":793,"seas":794,"ption</w>":795,"ps</w>":796,"ants</w>":797,"ations</w>":798,"Au":799,"oc":800,"wee":801,"18</w>":802,"Canada</w>":803,"men</w>":804,"ving</w>":805,"Nor":806,"gam":807,"tly</w>":808,"ook</w>":809,"social</w>":810,"fe":811,"ence</w>":812,"ng":813,"ating</w>":814,"Fac":815,"brea":816,"own":817,"segment</w>":818,"alth</w>":819,"Per":820,"ading</w>":821,"Germ":822,"4.":823,"ublic</w>":824,"rou":825,"ered</w>":826,"cat":827,"ata</w>":828,"ia</w>":829,"results</w>":830,"0.":831,"ud":832,"there</w>":833,"ir":834,"would</w>":835,"not</w>":836,"vel":837,"6.":838,"reg":839,"reac":840,"ory</w>":841,"um</w>":842,"end</w>":843,"increased</w>":844,"retail</w>":845,"compan":846,"sia</w>":847,"seh":848,"ded</w>":849,"bro":850,"sch":851,"ters</w>":852,"maj":853,"Europe":854,"female</w>":855,"are":856,"data</w>":857,"found</w>":858,"ince</w>":859,"very</w>":860,"ke</w>":861,"employe":862,"andemic</w>":863,"European</w>":864,"Apri":865,"cl":866,"ther":867,"media</w>":868,"first</w>":869,"April</w>":870,"only</w>":871,"une</w>":872,"tran":873,"pandemic</w>":874,"its</w>":875,"companies</w>":876,"5.":877,"ked</w>":878,"said</w>":879,"ross</w>":880,"grow":881,"ily</w>":882,"ble</w>":883,"househ":884,"gy</w>":885,"pur":886,"impor":887,"categ":888,"employees</w>":889,"ond</w>":890,"sion</w>":891,"company</w>":892,"service</w>":893,"/1":894,"wil":895,"selected</w>":896,"June</w>":897,"do</w>":898,"ves</w>":899,"employment</w>":900,"bus":901,"tish</w>":902,"lan":903,"come</w>":904,"mi":905,"requ":906,"spor":907,"increase</w>":908,"formation</w>":909,"Fran":910,"eng":911,"been</w>":912,"ade</w>":913,"graph</w>":914,"Re":915,"mu":916,"British</w>":917,"male</w>":918,"sup":919,"generated</w>":920,"forec":921,"vidu":922,"Perc":923,"2000</w>":924,"nual</w>":925,"other</w>":926,"information</w>":927,"individu":928,"busin":929,"7.":930,"ini":931,"199":932,"home</w>":933,"ris":934,"stud":935,"able</w>":936,"8.":937,"ju":938,"ken</w>":939,"am</w>":940,"fa":941,"sor":942,"chas":943,"cu":944,"cer":945,"same</w>":946,"tur":947,"tho":948,"sectors</w>":949,"Germany</w>":950,"France</w>":951,"consumers</w>":952,"br":953,"ass":954,"30</w>":955,"fe</w>":956,"break</w>":957,"largest</w>":958,"wi":959,"ency</w>":960,"00</w>":961,"Feb":962,"Europe</w>":963,"12</w>":964,"ari":965,"across</w>":966,"outbreak</w>":967,"season</w>":968,"Febru":969,"milli":970,"child":971,"February</w>":972,"ov":973,"arly</w>":974,"ebook</w>":975,"individuals</w>":976,"sour":977,"ene":978,"second</w>":979,"due</w>":980,"To":981,"ow</w>":982,"gust</w>":983,"based</w>":984,"August</w>":985,"oper":986,"wat":987,"growth</w>":988,"ge":989,"devi":990,"previ":991,"health</w>":992,"purchas":993,"ten</w>":994,"Indi":995,"national</w>":996,"olds</w>":997,"ool</w>":998,"ments</w>":999,"Facebook</w>":1000,"50</w>":1001,"Le":1002,"Italy</w>":1003,"Percentage</w>":1004,"millions</w>":1005,"15</w>":1006,"e-":1007,"income</w>":1008,"ren</w>":1009,"stim":1010,"spending</w>":1011,"cip":1012,"products</w>":1013,"decreas":1014,"ad</w>":1015,"aths</w>":1016,"pers":1017,"ings</w>":1018,"will</w>":1019,"previous</w>":1020,"dic":1021,"car":1022,"fer":1023,"sel":1024,"low":1025,"three</w>":1026,"deaths</w>":1027,"14</w>":1028,"ement</w>":1029,"parti":1030,"children</w>":1031,"sto":1032,"shop":1033,"ban":1034,"smar":1035,"presid":1036,"ential</w>":1037,"category</w>":1038,"equ":1039,"25</w>":1040,"off":1041,"so</w>":1042,"May</w>":1043,"au":1044,"min":1045,"public</w>":1046,"led</w>":1047,"ses</w>":1048,"when</w>":1049,"ributed</w>":1050,"lands</w>":1051,"eth":1052,"sing</w>":1053,"tec":1054,"American</w>":1055,"Eng":1056,"ffi":1057,"world</w>":1058,"cases</w>":1059,"school</w>":1060,"der":1061,"ear":1062,"according</w>":1063,"vie":1064,"Dec":1065,"forecast</w>":1066,"24</w>":1067,"ounds</w>":1068,"stru":1069,"conduc":1070,"TV</w>":1071,"inf":1072,"ite</w>":1073,"sted</w>":1074,"sub":1075,"two</w>":1076,"accounted</w>":1077,"annual</w>":1078,"ality</w>":1079,"almost</w>":1080,"price</w>":1081,"strates</w>":1082,"ship</w>":1083,"December</w>":1084,"Gre":1085,"ws</w>":1086,"leading</w>":1087,"pounds</w>":1088,"Average</w>":1089,"sed</w>":1090,"rel":1091,"illu":1092,"comm":1093,"sorted</w>":1094,"can":1095,"tal":1096,"Nether":1097,"those</w>":1098,"conducted</w>":1099,"Netherlands</w>":1100,"estim":1101,"state</w>":1102,"illustrates</w>":1103,"It</w>":1104,"ned</w>":1105,"phone</w>":1106,"struc":1107,"ig":1108,"vol":1109,"att":1110,"travel</w>":1111,"brand</w>":1112,"America</w>":1113,"expected</w>":1114,"ethn":1115,"Nov":1116,"Oc":1117,"ues</w>":1118,"level</w>":1119,"fic":1120,"Chin":1121,"pac":1122,"life</w>":1123,"Americans</w>":1124,"stores</w>":1125,"can</w>":1126,"ever</w>":1127,"ning</w>":1128,"North</w>":1129,"business</w>":1130,"Wh":1131,"adi":1132,"popular</w>":1133,"Mo":1134,"frequ":1135,"gre":1136,"ace</w>":1137,"November</w>":1138,"hal":1139,"ke":1140,"29</w>":1141,"Pol":1142,"tain</w>":1143,"production</w>":1144,"elections</w>":1145,"with":1146,"care</w>":1147,"plat":1148,"broken</w>":1149,"particip":1150,"since</w>":1151,"ven</w>":1152,"ink</w>":1153,"ese</w>":1154,"week</w>":1155,"food</w>":1156,"less</w>":1157,"mil":1158,"sig":1159,"bl":1160,"using</w>":1161,"five</w>":1162,"8/":1163,"Rus":1164,"cap":1165,"gures</w>":1166,"ricul":1167,"England</w>":1168,"ze</w>":1169,"insur":1170,"outh</w>":1171,"olo":1172,"consid":1173,"contributed</w>":1174,"Af":1175,"ca":1176,"org":1177,"endit":1178,"tober</w>":1179,"months</w>":1180,"rough":1181,"reach":1182,"students</w>":1183,"October</w>":1184,"ren":1185,"high</w>":1186,"vide":1187,"hab":1188,"ept":1189,"half</w>":1190,"fur":1191,"last</w>":1192,"agricul":1193,"consumption</w>":1194,"40</w>":1195,"Swe":1196,"ain</w>":1197,"on-":1198,"spent</w>":1199,"new</w>":1200,"16</w>":1201,"cri":1202,"opini":1203,"smart":1204,"65</w>":1205,"ms</w>":1206,"active</w>":1207,"overn":1208,"app</w>":1209,"Sept":1210,"ports</w>":1211,"September</w>":1212,"Sp":1213,"work</w>":1214,"expendit":1215,"source</w>":1216,"spec":1217,"fisc":1218,"poli":1219,"fiscal</w>":1220,"inve":1221,"60</w>":1222,"9.":1223,"For</w>":1224,"lie":1225,"import":1226,"hel":1227,"la":1228,"devel":1229,"cur":1230,"els</w>":1231,"tric</w>":1232,"estimated</w>":1233,"Poland</w>":1234,"Bel":1235,"Gro":1236,"How</w>":1237,"ack</w>":1238,"visi":1239,"games</w>":1240,"households</w>":1241,"Con":1242,"fu":1243,"bran":1244,"el</w>":1245,"ach</w>":1246,"Al":1247,"hn":1248,"ping</w>":1249,"ority</w>":1250,"meas":1251,"India</w>":1252,"64</w>":1253,"Me":1254,"some</w>":1255,"your</w>":1256,"the":1257,"ere":1258,"Canadi":1259,"following</w>":1260,"presidential</w>":1261,"da":1262,"China</w>":1263,"GB":1264,"think</w>":1265,"insurance</w>":1266,"bers</w>":1267,"de</w>":1268,"lik":1269,"part":1270,"1,000</w>":1271,"unit":1272,"ages</w>":1273,"belie":1274,"sy":1275,"tons</w>":1276,"proj":1277,"likely</w>":1278,"units</w>":1279,"af":1280,"tou":1281,"2018/":1282,"expec":1283,"finan":1284,"structure</w>":1285,"ethnic":1286,"foo":1287,"past</w>":1288,"ard</w>":1289,"also</w>":1290,"gital</w>":1291,"higher</w>":1292,"man":1293,"top</w>":1294,"pay":1295,"tive</w>":1296,"provi":1297,"loc":1298,"tration</w>":1299,"amount</w>":1300,"opinion</w>":1301,"10</w>":1302,"Do</w>":1303,"Uni":1304,"educ":1305,"ative</w>":1306,"Total</w>":1307,"Ap":1308,"work":1309,"bir":1310,"way</w>":1311,"thly</w>":1312,"dex</w>":1313,"2007</w>":1314,"least</w>":1315,"play":1316,"ison</w>":1317,"ereas</w>":1318,"9/":1319,"den</w>":1320,"ob":1321,"thir":1322,"ffer":1323,"hour":1324,"access":1325,"video</w>":1326,"habit":1327,"34</w>":1328,"dr":1329,"govern":1330,"tb":1331,"ying</w>":1332,"ined</w>":1333,"inhabit":1334,"uly</w>":1335,"form</w>":1336,"Britain</w>":1337,"ethnicity</w>":1338,"35</w>":1339,"July</w>":1340,"pass":1341,"under</w>":1342,"majority</w>":1343,"Belgi":1344,"inhabitants</w>":1345,"four</w>":1346,"sts</w>":1347,"vor":1348,"ams</w>":1349,"commer":1350,"priv":1351,"times</w>":1352,"ey":1353,"enetration</w>":1354,"invest":1355,"important</w>":1356,"daily</w>":1357,"45</w>":1358,"eff":1359,"ft</w>":1360,"marke":1361,"major</w>":1362,"18":1363,"South</w>":1364,"clo":1365,"ried</w>":1366,"ell</w>":1367,"scri":1368,"regul":1369,"expenditure</w>":1370,"28</w>":1371,"cars</w>":1372,"dis":1373,"air":1374,"month</w>":1375,"ology</w>":1376,"31</w>":1377,"ancy</w>":1378,"ali":1379,"lian</w>":1380,"did</w>":1381,"sex":1382,"comparison</w>":1383,"sports</w>":1384,"Great</w>":1385,"Ar":1386,"each</w>":1387,"digital</w>":1388,"ume</w>":1389,"concer":1390,"whereas</w>":1391,"hours</w>":1392,"tball</w>":1393,"lic":1394,"ass</w>":1395,"export</w>":1396,"inclu":1397,"revenues</w>":1398,"frequency</w>":1399,"2018/19</w>":1400,"Pre":1401,"dem":1402,"fore</w>":1403,"penetration</w>":1404,"size</w>":1405,"net":1406,"Group</w>":1407,"kil":1408,"vely</w>":1409,"techn":1410,"private</w>":1411,"Bo":1412,"Rep":1413,"fam":1414,"usage</w>":1415,"leas":1416,"nearly</w>":1417,"further</w>":1418,"smartphone</w>":1419,"financial</w>":1420,"17</w>":1421,"les</w>":1422,"2019/":1423,"ague</w>":1424,"being</w>":1425,"portion</w>":1426,"oods</w>":1427,"election</w>":1428,"develop":1429,"GBP</w>":1430,"Union</w>":1431,"made</w>":1432,"of":1433,"int":1434,"ath</w>":1435,"differ":1436,"touris":1437,"11</w>":1438,"red</w>":1439,"if</w>":1440,"pati":1441,"app":1442,"ling</w>":1443,"rati":1444,"ual</w>":1445,"ories</w>":1446,"stre":1447,"2006</w>":1448,"what</w>":1449,"survey":1450,"within</w>":1451,"Co":1452,"go":1453,"tical</w>":1454,"stitu":1455,"via</w>":1456,"movi":1457,"21</w>":1458,"mor":1459,"page</w>":1460,"before</w>":1461,"such</w>":1462,"regar":1463,"23</w>":1464,"44</w>":1465,"non-":1466,"living</w>":1467,"2021</w>":1468,"metric</w>":1469,"Canadian</w>":1470,"ced</w>":1471,"get</w>":1472,"sold</w>":1473,"tic":1474,"enter":1475,"ans":1476,"ems</w>":1477,"decreased</w>":1478,"shopping</w>":1479,"third</w>":1480,"2019/20</w>":1481,"fun":1482,"represents</w>":1483,"ici":1484,"witter</w>":1485,"impac":1486,"main</w>":1487,"raz":1488,"change</w>":1489,"volume</w>":1490,"coll":1491,"ines</w>":1492,"ste":1493,"apps</w>":1494,"cost</w>":1495,"passeng":1496,"100":1497,"des</w>":1498,"goods</w>":1499,"sa":1500,"resta":1501,"stom":1502,"news</w>":1503,"nific":1504,"signific":1505,"held</w>":1506,"visit</w>":1507,"brands</w>":1508,"government</w>":1509,"Braz":1510,"Mex":1511,"Pro":1512,"fran":1513,"kdown</w>":1514,"exc":1515,"Italian</w>":1516,"just</w>":1517,"Mexic":1518,"70</w>":1519,"ures</w>":1520,"how</w>":1521,"Sweden</w>":1522,"after</w>":1523,"Par":1524,"stri":1525,"device</w>":1526,"Russia</w>":1527,"reached</w>":1528,"Den":1529,"both</w>":1530,"watch":1531,"restaur":1532,"Fi":1533,"cul":1534,"prefer":1535,"nel</w>":1536,"generation</w>":1537,"Spain</w>":1538,"Belgium</w>":1539,"27</w>":1540,"ket</w>":1541,"ups</w>":1542,"gram</w>":1543,"energy</w>":1544,"teen":1545,"roughly</w>":1546,"ger</w>":1547,"death</w>":1548,"working</w>":1549,"recent</w>":1550,"100</w>":1551,"26</w>":1552,"Whi":1553,"dro":1554,"recor":1555,"mark</w>":1556,"area</w>":1557,"agriculture</w>":1558,"lease</w>":1559,"patients</w>":1560,"An":1561,"Li":1562,"ain":1563,"cc":1564,"ple</w>":1565,"some":1566,"trans":1567,"surveyed</w>":1568,"100,000</w>":1569,"stered</w>":1570,"household</w>":1571,"education</w>":1572,"came</w>":1573,"gas</w>":1574,"hom":1575,"win":1576,"ership</w>":1577,"all":1578,"spi":1579,"contr":1580,"subscri":1581,"Afric":1582,"0s</w>":1583,"13</w>":1584,"into</w>":1585,"omin":1586,"sic</w>":1587,"import</w>":1588,"monthly</w>":1589,"Cor":1590,"On":1591,"older</w>":1592,"visit":1593,"sear":1594,"custom":1595,"franchi":1596,"22</w>":1597,"boo":1598,"rates</w>":1599,"ssi":1600,"ill":1601,"did":1602,"owever</w>":1603,"agers</w>":1604,"experi":1605,"posi":1606,"Denmark</w>":1607,"cre":1608,"anic</w>":1609,"ecti":1610,"prices</w>":1611,"read</w>":1612,"imports</w>":1613,"technology</w>":1614,"32</w>":1615,"Com":1616,"wa":1617,"youn":1618,"table</w>":1619,"where</w>":1620,"compu":1621,"rough</w>":1622,"ak":1623,"ysi":1624,"ani":1625,"verti":1626,"ruption</w>":1627,"registered</w>":1628,"reach</w>":1629,"candid":1630,"regarding</w>":1631,"Lati":1632,"tre":1633,"these</w>":1634,"aci":1635,"groups</w>":1636,"ranked</w>":1637,"platform</w>":1638,"Brazil</w>":1639,"55</w>":1640,"EU</w>":1641,"Fin":1642,"car</w>":1643,"manu":1644,"reve":1645,"sex</w>":1646,"consumer</w>":1647,"employed</w>":1648,"much</w>":1649,"dicated</w>":1650,"view":1651,"sexual</w>":1652,"IT</w>":1653,"ful":1654,"tancy</w>":1655,"rol":1656,"spend</w>":1657,"dedicated</w>":1658,"but</w>":1659,"followed</w>":1660,"ney</w>":1661,"sal":1662,"tor</w>":1663,"ently</w>":1664,"vision</w>":1665,"hospi":1666,"score</w>":1667,"channel</w>":1668,"54</w>":1669,"Dem":1670,"city</w>":1671,"low</w>":1672,"adverti":1673,"international</w>":1674,"votes</w>":1675,"transpl":1676,"partn":1677,"manufac":1678,"ards</w>":1679,"tac":1680,"should</w>":1681,"elect":1682,"expectancy</w>":1683,"franchise</w>":1684,"``</w>":1685,"os</w>":1686,"pers</w>":1687,"web":1688,"exports</w>":1689,"holi":1690,"common</w>":1691,"speci":1692,"tourism</w>":1693,"impact</w>":1694,"''</w>":1695,"med</w>":1696,"pr":1697,"institu":1698,"retail":1699,"supp":1700,"fil":1701,"air</w>":1702,"place</w>":1703,"voted</w>":1704,"overall</w>":1705,"favor":1706,"demand</w>":1707,"Mexico</w>":1708,"Hi":1709,"Latin</w>":1710,"80</w>":1711,"men":1712,"please</w>":1713,"alth":1714,"ural</w>":1715,"bud":1716,"week":1717,"music</w>":1718,"turn":1719,"operating</w>":1720,"birth</w>":1721,"regular</w>":1722,"Democ":1723,"bec":1724,"days</w>":1725,"et":1726,"sli":1727,"index</w>":1728,"store</w>":1729,"sian</w>":1730,"ical</w>":1731,"having</w>":1732,"uni":1733,"eight</w>":1734,"eived</w>":1735,"party</w>":1736,"graphi":1737,"them</w>":1738,"36</w>":1739,"ga":1740,"jo":1741,"through</w>":1742,"onally</w>":1743,"six</w>":1744,"respon":1745,"fied</w>":1746,"vehi":1747,"poin":1748,"consumed</w>":1749,"access</w>":1750,"ship":1751,"ffic</w>":1752,"advertising</w>":1753,"Age</w>":1754,"Jap":1755,"On</w>":1756,"paid</w>":1757,"ama</w>":1758,"whe":1759,"char":1760,"figures</w>":1761,"sites</w>":1762,"devices</w>":1763,"1,":1764,"47</w>":1765,"49</w>":1766,"Of</w>":1767,"bor":1768,"cen":1769,"wai":1770,"ences</w>":1771,"New</w>":1772,"organ</w>":1773,"cy":1774,"could</w>":1775,"har":1776,"ly":1777,"mac":1778,"direc":1779,"fic</w>":1780,"investment</w>":1781,"Figures</w>":1782,"39</w>":1783,"75</w>":1784,"Val":1785,"av":1786,"proportion</w>":1787,"2005</w>":1788,"Inter":1789,"adult</w>":1790,"traffic</w>":1791,"Reven":1792,"ffice</w>":1793,"attend":1794,"gran":1795,"oil</w>":1796,"2004</w>":1797,"atis":1798,"essi":1799,"physi":1800,"League</w>":1801,"/0":1802,"42</w>":1803,"51</w>":1804,"ee</w>":1805,"ili":1806,"key</w>":1807,"sol":1808,"tional</w>":1809,"ana</w>":1810,"anti":1811,"ish</w>":1812,"vote</w>":1813,"followers</w>":1814,"ngs</w>":1815,"lowest</w>":1816,"development</w>":1817,"38</w>":1818,"Fren":1819,"St":1820,"zed</w>":1821,"costs</w>":1822,"content</w>":1823,"decrease</w>":1824,"Most</w>":1825,"different</w>":1826,"37</w>":1827,"33</w>":1828,"63</w>":1829,"ones</w>":1830,"ured</w>":1831,"1,00":1832,"Bar":1833,"Twitter</w>":1834,"ll</w>":1835,"pes</w>":1836,"vic":1837,"vities</w>":1838,"bia</w>":1839,"forms</w>":1840,"support</w>":1841,"accessed</w>":1842,"colle":1843,"attendance</w>":1844,"French</w>":1845,"41</w>":1846,"National</w>":1847,"ail":1848,"ber":1849,"fans</w>":1850,"ged</w>":1851,"gree</w>":1852,"ice</w>":1853,"sk":1854,"tors</w>":1855,"asse":1856,"trade</w>":1857,"grams</w>":1858,"site</w>":1859,"equality</w>":1860,"football</w>":1861,"Revenue</w>":1862,"Col":1863,"Mal":1864,"gure</w>":1865,"satis":1866,"thing</w>":1867,"diseas":1868,"degree</w>":1869,"unic":1870,"ation":1871,"mary</w>":1872,"figure</w>":1873,"eption</w>":1874,"health":1875,"enterpri":1876,"1,000s</w>":1877,"46</w>":1878,"43</w>":1879,"Be":1880,"Global</w>":1881,"Tr":1882,"down":1883,"me</w>":1884,"no</w>":1885,"ped</w>":1886,"sm":1887,"us</w>":1888,"agement</w>":1889,"firmed</w>":1890,"activities</w>":1891,"sport</w>":1892,"search</w>":1893,"dru":1894,"ore":1895,"office</w>":1896,"them":1897,"2010":1898,"tain":1899,"alco":1900,"eline</w>":1901,"purchase</w>":1902,"believed</w>":1903,"projected</w>":1904,"Finland</w>":1905,"real</w>":1906,"aring</w>":1907,"itary</w>":1908,"dit</w>":1909,"agre":1910,"2022</w>":1911,"ides</w>":1912,"medical</w>":1913,"select</w>":1914,"personal</w>":1915,"considered</w>":1916,"cel":1917,"ital</w>":1918,"lit":1919,"many</w>":1920,"ness</w>":1921,"ys</w>":1922,"orig":1923,"gradu":1924,"though</w>":1925,"big":1926,"related</w>":1927,"platforms</w>":1928,"commerce</w>":1929,"often</w>":1930,"Asia</w>":1931,"ders</w>":1932,"game</w>":1933,"mem":1934,"2015":1935,"again":1936,"2025</w>":1937,"voters</w>":1938,"Facts</w>":1939,"markets</w>":1940,"teenagers</w>":1941,"Hisp":1942,"against</w>":1943,"10":1944,"1st</w>":1945,"53</w>":1946,"bac":1947,"rema":1948,"urity</w>":1949,"sis</w>":1950,"confirmed</w>":1951,"seven</w>":1952,"premi":1953,"oog":1954,"plan":1955,"timeline</w>":1956,"interest</w>":1957,"soci":1958,"owned</w>":1959,"political</w>":1960,"projec":1961,"preferred</w>":1962,"Goog":1963,"However</w>":1964,"fer</w>":1965,"fel":1966,"ot":1967,"up":1968,"vari":1969,"til</w>":1970,"ong":1971,"states</w>":1972,"shed</w>":1973,"actions</w>":1974,"ele":1975,"condi":1976,"cles</w>":1977,"/11</w>":1978,"earned</w>":1979,"What</w>":1980,"payment</w>":1981,"2010/11</w>":1982,"Google</w>":1983,"Wor":1984,"cle</w>":1985,"amp":1986,"deb":1987,"icide</w>":1988,"unemployment</w>":1989,"tru":1990,"grocer":1991,"part</w>":1992,"tural</w>":1993,"stream":1994,"recorded</w>":1995,"11.":1996,"NB":1997,"cle":1998,"gal</w>":1999,"good</w>":2000,"l-":2001,"mp":2002,"nels</w>":2003,"rent</w>":2004,"ury</w>":2005,"conti":2006,"channels</w>":2007,"family</w>":2008,"candidate</w>":2009,"weekly</w>":2010,"76</w>":2011,"Am":2012,"Rom":2013,"don":2014,"pow":2015,"well</w>":2016,"ering</w>":2017,"tali":2018,"list</w>":2019,"ols</w>":2020,"prof":2021,"until</w>":2022,"types</w>":2023,"sident</w>":2024,"team</w>":2025,"esses</w>":2026,"broad":2027,"/16</w>":2028,"equi":2029,"2015/16</w>":2030,"62</w>":2031,"Kore":2032,"Mon":2033,"Oly":2034,"clu":2035,"lli":2036,"mul":2037,"tow":2038,"deli":2039,"sure</w>":2040,"terms</w>":2041,"indic":2042,"gaming</w>":2043,"ownership</w>":2044,"ign</w>":2045,"participants</w>":2046,"military</w>":2047,"passenger</w>":2048,"retailers</w>":2049,"By</w>":2050,"ble":2051,"ce":2052,"fans":2053,"sions</w>":2054,"ics</w>":2055,"icides</w>":2056,"identi":2057,"white</w>":2058,"Chri":2059,"significant</w>":2060,"college</w>":2061,"assets</w>":2062,"biggest</w>":2063,"NBA</w>":2064,"llion</w>":2065,"fans/":2066,"17":2067,"dy</w>":2068,"lat":2069,"mat":2070,"vity</w>":2071,"tabl":2072,"aled</w>":2073,"spe":2074,"whol":2075,"security</w>":2076,"primary</w>":2077,"accep":2078,"result</w>":2079,"fore":2080,"cup":2081,"measured</w>":2082,"Africa</w>":2083,"computer</w>":2084,"Japan</w>":2085,"Popul":2086,"fli":2087,"ographi":2088,"ry</w>":2089,"stic":2090,"ghts</w>":2091,"electri":2092,"Norway</w>":2093,"measures</w>":2094,"Republic</w>":2095,"Which</w>":2096,"whether</w>":2097,"Value</w>":2098,"felt</w>":2099,"grocery</w>":2100,"multi":2101,"10.":2102,"71</w>":2103,"Ha":2104,"Over</w>":2105,"Since</w>":2106,"every</w>":2107,"mer</w>":2108,"males</w>":2109,"pay</w>":2110,"zation</w>":2111,"ori":2112,"attac":2113,"ility</w>":2114,"star":2115,"agree</w>":2116,"ext</w>":2117,"corruption</w>":2118,"possi":2119,"purchased</w>":2120,"commercial</w>":2121,"movie</w>":2122,"He":2123,"You":2124,"ges</w>":2125,"tt":2126,"stin":2127,"agno":2128,"spread</w>":2129,"ements</w>":2130,"prov":2131,"money</w>":2132,"females</w>":2133,"carried</w>":2134,"effici":2135,"Republi":2136,"young</w>":2137,"mental</w>":2138,"48</w>":2139,"56</w>":2140,"89</w>":2141,"De":2142,"Gam":2143,"Ire":2144,"Paci":2145,"antly</w>":2146,"ita</w>":2147,"ster":2148,"asked</w>":2149,"ump</w>":2150,"2002</w>":2151,"unit</w>":2152,"gives</w>":2153,"second":2154,"force</w>":2155,"thought</w>":2156,"travel":2157,"areas</w>":2158,"businesses</w>":2159,"selves</w>":2160,"lower</w>":2161,"concerned</w>":2162,"revealed</w>":2163,"salary</w>":2164,"enterprises</w>":2165,"themselves</w>":2166,"Ireland</w>":2167,"Pacific</w>":2168,"59</w>":2169,"74</w>":2170,"Chi":2171,"FY</w>":2172,"Ob":2173,"go</w>":2174,"nat":2175,"nine</w>":2176,"enced</w>":2177,"taken</w>":2178,"seen</w>":2179,"poration</w>":2180,"ession</w>":2181,"responding</w>":2182,"industri":2183,"capita</w>":2184,"management</w>":2185,"budget</w>":2186,"downlo":2187,"professi":2188,"foreign</w>":2189,"Por":2190,"Tu":2191,"bel":2192,"ban</w>":2193,"dating</w>":2194,"poll":2195,"wel":2196,"enrol":2197,"ligi":2198,"stron":2199,"ach":2200,"under":2201,"ability</w>":2202,"increasing</w>":2203,"activity</w>":2204,"class</w>":2205,"shoppers</w>":2206,"tals</w>":2207,"believe</w>":2208,"workers</w>":2209,"effec":2210,"including</w>":2211,"transplant</w>":2212,"disease</w>":2213,"tainment</w>":2214,"Hispanic</w>":2215,"500</w>":2216,"At</w>":2217,"Vi":2218,"cro":2219,"gs</w>":2220,"ls</w>":2221,"ools</w>":2222,"ins</w>":2223,"oral</w>":2224,"stood</w>":2225,"That</w>":2226,"neg":2227,"trillion</w>":2228,"gamers</w>":2229,"breakdown</w>":2230,"1990</w>":2231,"person</w>":2232,"grew</w>":2233,"agricultural</w>":2234,"Apple</w>":2235,"credit</w>":2236,"Between</w>":2237,"agreed</w>":2238,"Population</w>":2239,"YouTu":2240,"66</w>":2241,"69</w>":2242,"85</w>":2243,"Du":2244,"Over":2245,"aff":2246,"sity</w>":2247,"tiz":2248,"ania</w>":2249,"read":2250,"ster</w>":2251,"diagno":2252,"beer</w>":2253,"havi":2254,"worth</w>":2255,"roughout</w>":2256,"Medic":2257,"movies</w>":2258,"restaurants</w>":2259,"Malay":2260,"members</w>":2261,"efficient</w>":2262,"YouTube</w>":2263,"Ex":2264,"Ma":2265,"cli":2266,"dings</w>":2267,"mid":2268,"uation</w>":2269,"ery</w>":2270,"tings</w>":2271,"once</w>":2272,"tation</w>":2273,"ums</w>":2274,"user</w>":2275,"immi":2276,"prescri":2277,"Market</w>":2278,"raft</w>":2279,"phones</w>":2280,"occup":2281,"drin":2282,"network</w>":2283,"ectively</w>":2284,"institutions</w>":2285,"shipments</w>":2286,"waiting</w>":2287,"towards</w>":2288,"14.":2289,"2,":2290,"61</w>":2291,"78</w>":2292,"Lond":2293,"Sales</w>":2294,"eu":2295,"kn":2296,"sing":2297,"ented</w>":2298,"enni":2299,"hion</w>":2300,"stand</w>":2301,"ashion</w>":2302,"behavi":2303,"house</w>":2304,"tual</w>":2305,"account</w>":2306,"Austr":2307,"German</w>":2308,"audi":2309,"participated</w>":2310,"funds</w>":2311,"Obama</w>":2312,"90</w>":2313,"US</w>":2314,"cer</w>":2315,"cour":2316,"re</w>":2317,"repres":2318,"perform":2319,"lish</w>":2320,"respectively</w>":2321,"expen":2322,"tus</w>":2323,"weeks</w>":2324,"reaching</w>":2325,"fuel</w>":2326,"restaurant</w>":2327,"somewhat</w>":2328,"job</w>":2329,"electricity</w>":2330,"58</w>":2331,"77</w>":2332,"Gu":2333,"Lu":2334,"Vo":2335,"aim":2336,"fru":2337,"hand</w>":2338,"next</w>":2339,"ent":2340,"take</w>":2341,"stat":2342,"stagram</w>":2343,"st-":2344,"aging</w>":2345,"sist":2346,"year":2347,"bean</w>":2348,"served</w>":2349,"economy</w>":2350,"minu":2351,"turnover</w>":2352,"streaming</w>":2353,"London</w>":2354,"15.":2355,"7/":2356,"Po":2357,"Pri":2358,"Wales</w>":2359,"ee":2360,"fashion</w>":2361,"kers</w>":2362,"won</w>":2363,"ini</w>":2364,"sting</w>":2365,"deals</w>":2366,"sever":2367,"ends</w>":2368,"mari":2369,"coefficient</w>":2370,"abo":2371,"new":2372,"Instagram</w>":2373,"schools</w>":2374,"arib":2375,"Leading</w>":2376,"current</w>":2377,"ratic</w>":2378,"Annual</w>":2379,"supply</w>":2380,"avail":2381,"Korea</w>":2382,"possible</w>":2383,"17.":2384,"52</w>":2385,"72</w>":2386,"88</w>":2387,"Carib":2388,"FL</w>":2389,"Gener":2390,"NFL</w>":2391,"cing</w>":2392,"cha":2393,"hand":2394,"nec":2395,"num":2396,"tele":2397,"wine</w>":2398,"til":2399,"alia</w>":2400,"died</w>":2401,"coff":2402,"ail</w>":2403,"Net":2404,"situation</w>":2405,"risk</w>":2406,"e-commerce</w>":2407,"banks</w>":2408,"famili":2409,"going</w>":2410,"customers</w>":2411,"full-":2412,"Caribbean</w>":2413,"12.":2414,"Wal":2415,"az":2416,"craft</w>":2417,"ev":2418,"hy":2419,"inequality</w>":2420,"road</w>":2421,"2017/":2422,"proper":2423,"deal</w>":2424,"mod":2425,"buying</w>":2426,"lea":2427,"qui":2428,"ronic</w>":2429,"produced</w>":2430,"merchan":2431,"sof":2432,"ream</w>":2433,"general</w>":2434,"categories</w>":2435,"Corporation</w>":2436,"experienced</w>":2437,"grants</w>":2438,"delivery</w>":2439,"natural</w>":2440,"negative</w>":2441,"Overall</w>":2442,"67</w>":2443,"aw":2444,"rit":2445,"squ":2446,"stm":2447,"dist":2448,"sive</w>":2449,"cians</w>":2450,"citiz":2451,"received</w>":2452,"hol</w>":2453,"tel</w>":2454,"faction</w>":2455,"purchases</w>":2456,"banking</w>":2457,"views</w>":2458,"President</w>":2459,"applic":2460,"saw</w>":2461,"significantly</w>":2462,"contrac":2463,"customer</w>":2464,"year-":2465,"coffee</w>":2466,"square</w>":2467,"57</w>":2468,"81</w>":2469,"83</w>":2470,"Ad":2471,"Ban":2472,"SM":2473,"cru":2474,"dle</w>":2475,"estate</w>":2476,"kid":2477,"lin":2478,"nap":2479,"ton</w>":2480,"vac":2481,"zer":2482,"shoo":2483,"icro":2484,"prefer</w>":2485,"ext":2486,"ghtly</w>":2487,"valu":2488,"Index</w>":2489,"quarter":2490,"case</w>":2491,"student</w>":2492,"sources</w>":2493,"communic":2494,"workforce</w>":2495,"births</w>":2496,"transactions</w>":2497,"positive</w>":2498,"Barack</w>":2499,"small</w>":2500,"premiums</w>":2501,"debt</w>":2502,"above</w>":2503,"television</w>":2504,"18.":2505,"82</w>":2506,"East</w>":2507,"Net</w>":2508,"cal":2509,"cession</w>":2510,"f-":2511,"pu":2512,"xury</w>":2513,"yp":2514,"ens</w>":2515,"arri":2516,"lier</w>":2517,"perception</w>":2518,"status</w>":2519,"2024</w>":2520,"loo":2521,"works</w>":2522,"marri":2523,"cir":2524,"either</w>":2525,"pea":2526,"make</w>":2527,"socc":2528,"child</w>":2529,"phar":2530,"contribution</w>":2531,"accounting</w>":2532,"feder":2533,"Indian</w>":2534,"stem</w>":2535,"passengers</w>":2536,"watching</w>":2537,"holiday</w>":2538,"Democratic</w>":2539,"slightly</w>":2540,"vehicles</w>":2541,"points</w>":2542,"cyber</w>":2543,"alcohol</w>":2544,"stern</w>":2545,"soccer</w>":2546,"16.":2547,"3,":2548,"Frequ":2549,"Gini</w>":2550,"Jo":2551,"Mill":2552,"fl":2553,"gen":2554,"publi":2555,"anish</w>":2556,"resid":2557,"There</w>":2558,"2003</w>":2559,"chat</w>":2560,"cities</w>":2561,"regions</w>":2562,"making</w>":2563,"luxury</w>":2564,"entin":2565,"basis</w>":2566,"claim":2567,"geographi":2568,"bank</w>":2569,"infec":2570,"influ":2571,"organi":2572,"rently</w>":2573,"players</w>":2574,"contrast</w>":2575,"website</w>":2576,"Trump</w>":2577,"power</w>":2578,"Christm":2579,"Republican</w>":2580,"minutes</w>":2581,"tility</w>":2582,"Christmas</w>":2583,"5/0":2584,"Ama":2585,"En":2586,"From</w>":2587,"Pl":2588,"id</w>":2589,"ight</w>":2590,"ss":2591,"val</w>":2592,"thers</w>":2593,"throughout</w>":2594,"onal":2595,"itted</w>":2596,"live</w>":2597,"urban</w>":2598,"stan</w>":2599,"2023</w>":2600,"uses</w>":2601,"2005/0":2602,"ended</w>":2603,"grow</w>":2604,"lead":2605,"level":2606,"term</w>":2607,"Inc":2608,"now</w>":2609,"great":2610,"Russian</w>":2611,"capital</w>":2612,"ful</w>":2613,"networks</w>":2614,"partner</w>":2615,"partners</w>":2616,"practi":2617,"mpic</w>":2618,"Among</w>":2619,"Olympic</w>":2620,"tablet</w>":2621,"mariju":2622,"quisi":2623,"merchandi":2624,"Frequency</w>":2625,"Amaz":2626,"2005/06</w>":2627,"-based</w>":2628,"79</w>":2629,"Sco":2630,"fre":2631,"ir</w>":2632,"nings</w>":2633,"om</w>":2634,"son</w>":2635,"smo":2636,"ten":2637,"tar":2638,"items</w>":2639,"sharing</w>":2640,"ests</w>":2641,"succ":2642,"issu":2643,"voting</w>":2644,"2.5</w>":2645,"get":2646,"self-":2647,"consider</w>":2648,"exclu":2649,"electoral</w>":2650,"prin":2651,"various</w>":2652,"World</w>":2653,"acceptable</w>":2654,"diagnosed</w>":2655,"single</w>":2656,"numbers</w>":2657,"23.":2658,"Bl":2659,"dri":2660,"nation":2661,"reco":2662,"religi":2663,"acquisi":2664,"virus</w>":2665,"dep":2666,"ads</w>":2667,"porting</w>":2668,"given</w>":2669,"meters</w>":2670,"summer</w>":2671,"19.":2672,"scen":2673,"median</w>":2674,"tware</w>":2675,"cancer</w>":2676,"syst":2677,"system</w>":2678,"App</w>":2679,"maceu":2680,"healthcare</w>":2681,"origin</w>":2682,"Malaysia</w>":2683,"/average</w>":2684,"13.":2685,"87</w>":2686,"Bas":2687,"nomin":2688,"titu":2689,"envi":2690,"like</w>":2691,"uro</w>":2692,"still</w>":2693,"spon":2694,"conf":2695,"che":2696,"exported</w>":2697,"comple":2698,"ranking</w>":2699,"parents</w>":2700,"bility</w>":2701,"ario</w>":2702,"tal/average</w>":2703,"partment</w>":2704,"drop":2705,"hospitals</w>":2706,"direct</w>":2707,"victim":2708,"remained</w>":2709,"clear</w>":2710,"secondary</w>":2711,"enrolled</w>":2712,"known</w>":2713,"marijuana</w>":2714,"environ":2715,"09</w>":2716,"68</w>":2717,"84</w>":2718,"Snap":2719,"Un":2720,"cou":2721,"gly</w>":2722,"les":2723,"rd</w>":2724,"run":2725,"allow":2726,"showed</w>":2727,"tral</w>":2728,"metho":2729,"sug":2730,"hot":2731,"side</w>":2732,"night</w>":2733,"consider":2734,"crisis</w>":2735,"Party</w>":2736,"response</w>":2737,"Health</w>":2738,"strongly</w>":2739,"affected</w>":2740,"Lux":2741,"Snapchat</w>":2742,"-year</w>":2743,"2n":2744,"21.":2745,"Fo":2746,"Im":2747,"far</w>":2748,"mess":2749,"ns</w>":2750,"nam":2751,"tom":2752,"tic</w>":2753,"20.":2754,"ited</w>":2755,"ste</w>":2756,"dish</w>":2757,"acy</w>":2758,"ick</w>":2759,"local</w>":2760,"predic":2761,"plan</w>":2762,"posed</w>":2763,"luc":2764,"decline</w>":2765,"changed</w>":2766,"tality</w>":2767,"caused</w>":2768,"Swedish</w>":2769,"police</w>":2770,"currently</w>":2771,"payments</w>":2772,"clothing</w>":2773,"ratio</w>":2774,"viewers</w>":2775,"satisfaction</w>":2776,"flix</w>":2777,"attacks</w>":2778,"Games</w>":2779,"Netflix</w>":2780,"software</w>":2781,"shootings</w>":2782,"Amazon</w>":2783,"victims</w>":2784,"lesbi":2785,"methods</w>":2786,"2nd</w>":2787,"3rd</w>":2788,"73</w>":2789,"So":2790,"Tur":2791,"den":2792,"my</w>":2793,"mass</w>":2794,"ptions</w>":2795,"tro":2796,"zations</w>":2797,"eri":2798,"ining</w>":2799,"ances</w>":2800,"protec":2801,"loans</w>":2802,"atively</w>":2803,"too</w>":2804,"gration</w>":2805,"soft</w>":2806,"hotel</w>":2807,"head":2808,"earnings</w>":2809,"view</w>":2810,"Consum":2811,"Medi":2812,"provided</w>":2813,"Only</w>":2814,"drug</w>":2815,"stics</w>":2816,"ennials</w>":2817,"onald</w>":2818,"Scot":2819,"Is":2820,"Sing":2821,"book</w>":2822,"fell</w>":2823,"gin":2824,"pol":2825,"sam":2826,"vend":2827,"2030</w>":2828,"order</w>":2829,"sho":2830,"space</w>":2831,"programs</w>":2832,"department</w>":2833,"2001</w>":2834,"commod":2835,"trend</w>":2836,"wear</w>":2837,"cho":2838,"super":2839,"valence</w>":2840,"iss":2841,"face</w>":2842,"/10</w>":2843,"ethnic</w>":2844,"When</w>":2845,"without</w>":2846,"Colom":2847,"back":2848,"conditions</w>":2849,"Australia</w>":2850,"available</w>":2851,"Inc.</w>":2852,"dropped</w>":2853,"-related</w>":2854,"92</w>":2855,"91</w>":2856,"9/10</w>":2857,"ety</w>":2858,"here</w>":2859,"obe":2860,"twitter</w>":2861,"lived</w>":2862,"sta</w>":2863,"stoc":2864,"show</w>":2865,"emer":2866,"prospec":2867,"conven":2868,"2009/10</w>":2869,"vered</w>":2870,"buy</w>":2871,"coal</w>":2872,"imported</w>":2873,"quality</w>":2874,"series</w>":2875,"amounting</w>":2876,"novel</w>":2877,"woman</w>":2878,"Chan":2879,"findings</w>":2880,"owners</w>":2881,"lockdown</w>":2882,"kilo":2883,"stress</w>":2884,"watched</w>":2885,"vehicle</w>":2886,"born</w>":2887,"Portu":2888,"audience</w>":2889,"course</w>":2890,"fruit</w>":2891,"several</w>":2892,"full-time</w>":2893,"pharmaceu":2894,"systems</w>":2895,"Colombia</w>":2896,"Ba":2897,"Donald</w>":2898,"Phi":2899,"bs</w>":2900,"bed</w>":2901,"bal":2902,"four":2903,"reality</w>":2904,"arity</w>":2905,"aries</w>":2906,"ditional</w>":2907,"nity</w>":2908,"ica</w>":2909,"adm":2910,"gir":2911,"giving</w>":2912,"prior</w>":2913,"twear</w>":2914,"body</w>":2915,"finance</w>":2916,"smartphones</w>":2917,"footwear</w>":2918,"investments</w>":2919,"morally</w>":2920,"Compar":2921,"Dut":2922,"excluding</w>":2923,"hotels</w>":2924,"Singap":2925,"Portugal</w>":2926,"Ca":2927,"Ni":2928,"ause</w>":2929,"band</w>":2930,"gay</w>":2931,"lines</w>":2932,"ner</w>":2933,"ta</w>":2934,"took</w>":2935,"report</w>":2936,"ought</w>":2937,"although</w>":2938,"action</w>":2939,"desig":2940,"see</w>":2941,"mart</w>":2942,"ists</w>":2943,"issions</w>":2944,"medium</w>":2945,"boys</w>":2946,"Peru</w>":2947,"arel</w>":2948,"transport</w>":2949,"offered</w>":2950,"infected</w>":2951,"ketball</w>":2952,"Comp":2953,"websites</w>":2954,"favorite</w>":2955,"because</w>":2956,"univer":2957,"Internet</w>":2958,"kidney</w>":2959,"lesbian</w>":2960,"Singapore</w>":2961,"28.":2962,"96</w>":2963,"95</w>":2964,"Car":2965,"Dis":2966,"We":2967,"asted</w>":2968,"esia</w>":2969,"fri":2970,"ga</w>":2971,"gan</w>":2972,"kes</w>":2973,"land":2974,"son":2975,"tor":2976,"turing</w>":2977,"thre":2978,"in-":2979,"inem":2980,"art</w>":2981,"alty</w>":2982,"stream</w>":2983,"accommod":2984,"wealth</w>":2985,"serv":2986,"plac":2987,"Indon":2988,"nia</w>":2989,"deci":2990,"large</w>":2991,"ships</w>":2992,"water</w>":2993,"purchasing</w>":2994,"equal</w>":2995,"frequently</w>":2996,"provides</w>":2997,"educational</w>":2998,"accessing</w>":2999,"marketing</w>":3000,"apparel</w>":3001,"Coronavirus</w>":3002,"Proportion</w>":3003,"subscribers</w>":3004,"African</w>":3005,"waste</w>":3006,"point</w>":3007,"physicians</w>":3008,"satisfied</w>":3009,"Monthly</w>":3010,"Have</w>":3011,"travelers</w>":3012,"professional</w>":3013,"statement</w>":3014,"federal</w>":3015,"Black</w>":3016,"prospects</w>":3017,"Indonesia</w>":3018,"97</w>":3019,"Ge":3020,"bar":3021,"isure</w>":3022,"pho":3023,"race</w>":3024,"set</w>":3025,"sme":3026,"ute</w>":3027,"tives</w>":3028,"ands</w>":3029,"tained</w>":3030,"rist</w>":3031,"acity</w>":3032,"simil":3033,"profi":3034,"verty</w>":3035,"idents</w>":3036,"chem":3037,"cosme":3038,"to-":3039,"leg":3040,"leisure</w>":3041,"corpor":3042,"electric</w>":3043,"poverty</w>":3044,"main":3045,"recei":3046,"declar":3047,"nuclear</w>":3048,"casi":3049,"box</w>":3050,"feel</w>":3051,"purpo":3052,"persons</w>":3053,"observed</w>":3054,"regularly</w>":3055,"tics</w>":3056,"excee":3057,"books</w>":3058,"favorable</w>":3059,"etary</w>":3060,"responsi":3061,"contin":3062,"equip":3063,"wholes":3064,"industries</w>":3065,"polls</w>":3066,"Medicaid</w>":3067,"levels</w>":3068,"pharmaceutical</w>":3069,"Dutch</w>":3070,"26.":3071,"fr":3072,"gl":3073,"gar":3074,"hol":3075,"lst</w>":3076,"inal</w>":3077,"remo":3078,"ect</w>":3079,"stric":3080,"shing</w>":3081,"vir":3082,"proc":3083,"worried</w>":3084,"added</w>":3085,"gies</w>":3086,"terro":3087,"doc":3088,"range</w>":3089,"strations</w>":3090,"valent</w>":3091,"hour</w>":3092,"owning</w>":3093,"Regi":3094,"capacity</w>":3095,"located</w>":3096,"played</w>":3097,"stead":3098,"While</w>":3099,"homicides</w>":3100,"charac":3101,"province</w>":3102,"immigrants</w>":3103,"behavior</w>":3104,"extent</w>":3105,"merchandise</w>":3106,"acquisition</w>":3107,"sugar</w>":3108,"predicted</w>":3109,"Scotland</w>":3110,"86</w>":3111,"As":3112,"BC</w>":3113,"Hou":3114,"Pr":3115,"Su":3116,"Slo":3117,"ath":3118,"ares</w>":3119,"bought</w>":3120,"cop":3121,"fall</w>":3122,"tter</w>":3123,"ution</w>":3124,"ward</w>":3125,"taking</w>":3126,"life":3127,"listed</w>":3128,"ries</w>":3129,"division</w>":3130,"acad":3131,"emissions</w>":3132,"proble":3133,"wear":3134,"ground</w>":3135,"merger</w>":3136,"plans</w>":3137,"outside</w>":3138,"fertility</w>":3139,"offici":3140,"Arg":3141,"Are</w>":3142,"visitors</w>":3143,"manufacturing</w>":3144,"films</w>":3145,"continu":3146,"fans/Twitter</w>":3147,"fans/twitter</w>":3148,"claimed</w>":3149,"issues</w>":3150,"declared</w>":3151,"equipment</w>":3152,"problem</w>":3153,"15":3154,"24.":3155,"4,":3156,"99</w>":3157,"ES":3158,"La":3159,"Mid":3160,"Rate</w>":3161,"To</w>":3162,"War":3163,"dou":3164,"free</w>":3165,"hood</w>":3166,"however</w>":3167,"ks":3168,"kings</w>":3169,"pen":3170,"wage</w>":3171,"annu":3172,"rement</w>":3173,"reading</w>":3174,"refer":3175,"research</w>":3176,"list":3177,"attitu":3178,"stor":3179,"shor":3180,"ago</w>":3181,"eling</w>":3182,"construc":3183,"ades</w>":3184,"ador</w>":3185,"adju":3186,"weight</w>":3187,"ches</w>":3188,"com</w>":3189,"abor":3190,"pot":3191,"Americas</w>":3192,"1.3</w>":3193,"occasi":3194,"earlier</w>":3195,"organic</w>":3196,"tourists</w>":3197,"entertainment</w>":3198,"cular</w>":3199,"homicide</w>":3200,"experience</w>":3201,"physical</w>":3202,"Romney</w>":3203,"Chile</w>":3204,"ready</w>":3205,"drinks</w>":3206,"property</w>":3207,"Forec":3208,"Nike</w>":3209,"academic</w>":3210,"30.":3211,"Ab":3212,"EU":3213,"Gross</w>":3214,"Icel":3215,"Min":3216,"Sy":3217,"ck</w>":3218,"cks</w>":3219,"cinem":3220,"even</w>":3221,"fluc":3222,"jected</w>":3223,"mail</w>":3224,"ts":3225,"another</w>":3226,"onia</w>":3227,"perceived</w>":3228,"ece</w>":3229,"stant</w>":3230,"defin":3231,"destin":3232,"surg":3233,"duction</w>":3234,"league</w>":3235,"legal</w>":3236,"cies</w>":3237,"suff":3238,"reasons</w>":3239,"never</w>":3240,"epid":3241,"housing</w>":3242,"twel":3243,"asses</w>":3244,"watch</w>":3245,"Level</w>":3246,"card</w>":3247,"selling</w>":3248,"bank":3249,"crime</w>":3250,"Canadians</w>":3251,"expect</w>":3252,"player</w>":3253,"goals</w>":3254,"someone</w>":3255,"wind</w>":3256,"visits</w>":3257,"candidates</w>":3258,"treat":3259,"International</w>":3260,"equivalent</w>":3261,"clubs</w>":3262,"2017/18</w>":3263,"citizens</w>":3264,"vacation</w>":3265,"emerg":3266,"girls</w>":3267,"profit</w>":3268,"Argentin":3269,"fluctu":3270,"98</w>":3271,"Cen":3272,"Em":3273,"Public</w>":3274,"Vene":3275,"Win":3276,"War</w>":3277,"affi":3278,"back</w>":3279,"cast</w>":3280,"eS":3281,"euro</w>":3282,"gage</w>":3283,"her":3284,"mas":3285,"mine</w>":3286,"rural</w>":3287,"sen":3288,"telec":3289,"iness</w>":3290,"tax</w>":3291,"atch</w>":3292,"stal":3293,"stan":3294,"disc":3295,"divor":3296,"asts</w>":3297,"consist":3298,"best</w>":3299,"rup":3300,"extre":3301,"serves</w>":3302,"ples</w>":3303,"play</w>":3304,"1970</w>":3305,"1.2</w>":3306,"1.4</w>":3307,"ubic</w>":3308,"ength</w>":3309,"suppl":3310,"1995</w>":3311,"personally</w>":3312,"tech</w>":3313,"English</w>":3314,"Appro":3315,"manufactur":3316,"gap</w>":3317,"trust</w>":3318,"club</w>":3319,"indicated</w>":3320,"whole</w>":3321,"Walmart</w>":3322,"valued</w>":3323,"religious</w>":3324,"depend":3325,"virtual</w>":3326,"twelve</w>":3327,"Argentina</w>":3328,"affili":3329,"22.":3330,"25.":3331,"93</w>":3332,"If</w>":3333,"Qu":3334,"Swi":3335,"Vol":3336,"bul":3337,"co</w>":3338,"ep</w>":3339,"fy</w>":3340,"ished</w>":3341,"micro":3342,"o-":3343,"sely</w>":3344,"er-":3345,"ous":3346,"ola</w>":3347,"verages</w>":3348,"tern":3349,"entation</w>":3350,"factor</w>":3351,"Austri":3352,"occur":3353,"thern</w>":3354,"operat":3355,"cards</w>":3356,"self</w>":3357,"president</w>":3358,"Mobile</w>":3359,"Spanish</w>":3360,"mortality</w>":3361,"culation</w>":3362,"viewed</w>":3363,"latest</w>":3364,"below</w>":3365,"geographical</w>":3366,"scenario</w>":3367,"sponsor":3368,"accommodation</w>":3369,"epidemic</w>":3370,"Swiss</w>":3371,"27.":3372,"37.":3373,"Asian</w>":3374,"Ea":3375,"Hoc":3376,"Ken":3377,"Or":3378,"Os</w>":3379,"OS</w>":3380,"Tra":3381,"West</w>":3382,"Yor":3383,"ash":3384,"camp":3385,"eing</w>":3386,"eating</w>":3387,"lon":3388,"man</w>":3389,"tionally</w>":3390,"ening</w>":3391,"invol":3392,"anal":3393,"aning</w>":3394,"table":3395,"ith</w>":3396,"ats":3397,"distin":3398,"vil</w>":3399,"niture</w>":3400,"program</w>":3401,"U.S</w>":3402,"coming</w>":3403,"beau":3404,"idence</w>":3405,"prevalence</w>":3406,"married</w>":3407,"ables</w>":3408,"mean</w>":3409,"doing</w>":3410,"door</w>":3411,"aying</w>":3412,"strat":3413,"registrations</w>":3414,"changes</w>":3415,"segments</w>":3416,"growing</w>":3417,"forecasted</w>":3418,"fake</w>":3419,"operated</w>":3420,"Whats":3421,"location</w>":3422,"close</w>":3423,"kilome":3424,"mort":3425,"record</w>":3426,"winning</w>":3427,"Corruption</w>":3428,"visited</w>":3429,"younger</w>":3430,"planned</w>":3431,"projections</w>":3432,"talities</w>":3433,"represented</w>":3434,"chains</w>":3435,"applications</w>":3436,"put</w>":3437,"circulation</w>":3438,"Millennials</w>":3439,"residents</w>":3440,"issue</w>":3441,"stock</w>":3442,"fourth</w>":3443,"adjusted</w>":3444,"Approximately</w>":3445,"Hockey</w>":3446,"tablets</w>":3447,"'t</w>":3448,"Bre":3449,"Mit":3450,"Pay":3451,"Ro":3452,"Sam":3453,"avo":3454,"bur":3455,"ese":3456,"ion":3457,"ise</w>":3458,"lying</w>":3459,"mal":3460,"ne</w>":3461,"n't</w>":3462,"pi":3463,"raci":3464,"vers</w>":3465,"ways</w>":3466,"youth</w>":3467,"room</w>":3468,"reti":3469,"reserves</w>":3470,"tatt":3471,"already</w>":3472,"lit</w>":3473,"stand":3474,"ditionally</w>":3475,"assi":3476,"olf</w>":3477,"eld</w>":3478,"split</w>":3479,"proce":3480,"degre":3481,"contac":3482,"concession</w>":3483,"lost</w>":3484,"aper</w>":3485,"wegi":3486,"suicide</w>":3487,"suicides</w>":3488,"aig":3489,"intercourse</w>":3490,"recently</w>":3491,"1950</w>":3492,"typic":3493,"bio":3494,"accounts</w>":3495,"Norwegi":3496,"langu":3497,"fatalities</w>":3498,"smart</w>":3499,"Chinese</w>":3500,"future</w>":3501,"Although</w>":3502,"providers</w>":3503,"aircraft</w>":3504,"off</w>":3505,"booking</w>":3506,"reveals</w>":3507,"communication</w>":3508,"marriages</w>":3509,"organizations</w>":3510,"responsible</w>":3511,"Middle</w>":3512,"construction</w>":3513,"beauty</w>":3514,"Mitt</w>":3515,"tattoo":3516,"Bay</w>":3517,"City</w>":3518,"Eb":3519,"Estim":3520,"Fur":3521,"IC":3522,"Mic":3523,"NA":3524,"Son":3525,"Uk":3526,"bene":3527,"cubic</w>":3528,"kin":3529,"lment</w>":3530,"pet</w>":3531,"rating</w>":3532,"sale</w>":3533,"tests</w>":3534,"wards</w>":3535,"xit</w>":3536,"then</w>":3537,"inju":3538,"tax":3539,"al-":3540,"option</w>":3541,"def":3542,"desk":3543,"conn":3544,"loy":3545,"adv":3546,"weap":3547,"estion</w>":3548,"imum</w>":3549,"counter":3550,"question</w>":3551,"cise</w>":3552,"med":3553,"ronics</w>":3554,"regional</w>":3555,"radi":3556,"base</w>":3557,"4.5</w>":3558,"willing</w>":3559,"gets</w>":3560,"offic":3561,"attle</w>":3562,"pack":3563,"participating</w>":3564,"milk</w>":3565,"After</w>":3566,"cause</w>":3567,"causes</w>":3568,"habits</w>":3569,"expenditures</w>":3570,"inten":3571,"Projected</w>":3572,"Online</w>":3573,"position</w>":3574,"ilities</w>":3575,"drugs</w>":3576,"liters</w>":3577,"graduates</w>":3578,"Viet":3579,"performance</w>":3580,"General</w>":3581,"families</w>":3582,"Bank</w>":3583,"quartered</w>":3584,"success</w>":3585,"consideration</w>":3586,"Turkey</w>":3587,"poll</w>":3588,"Western</w>":3589,"chemical</w>":3590,"athle":3591,"Iceland</w>":3592,"Central</w>":3593,"standing</w>":3594,"ously</w>":3595,"York</w>":3596,"campaig":3597,"WhatsApp</w>":3598,"Brexit</w>":3599,"Estimated</w>":3600,"Ukra":3601,"injuries</w>":3602,".com</w>":3603,"29.":3604,"4th</w>":3605,"9,":3606,"Air":3607,"Br":3608,"Cl":3609,"El":3610,"FC</w>":3611,"Govern":3612,"Hun":3613,"Lin":3614,"Ser":3615,"Some</w>":3616,"cents</w>":3617,"fol":3618,"fund</w>":3619,"gin</w>":3620,"je":3621,"nam</w>":3622,"ring</w>":3623,"ine":3624,"inj":3625,"instal":3626,"rose</w>":3627,"2012":3628,"ared</w>":3629,"arms</w>":3630,"hist":3631,"stain":3632,"agues</w>":3633,"spite</w>":3634,"ican</w>":3635,"beverages</w>":3636,"worked</w>":3637,"motor</w>":3638,"preven":3639,"cig":3640,"parties</w>":3641,"1980</w>":3642,"eball</w>":3643,"generally</w>":3644,"resh</w>":3645,"decl":3646,"2.3</w>":3647,"3.5</w>":3648,"basketball</w>":3649,"study</w>":3650,"fav":3651,"enew":3652,"e-sex</w>":3653,"autom":3654,"Greece</w>":3655,"rels</w>":3656,"kets</w>":3657,"Afgh":3658,"furniture</w>":3659,"managers</w>":3660,"concern</w>":3661,"licen":3662,"Premi":3663,"broadband</w>":3664,"crow":3665,"clients</w>":3666,"expenses</w>":3667,"getting</w>":3668,"same-sex</w>":3669,"Change</w>":3670,"design":3671,"Geor":3672,"barrels</w>":3673,"corporate</w>":3674,"wholesale</w>":3675,"process":3676,"Region</w>":3677,"tattoos</w>":3678,"desktop</w>":3679,"07</w>":3680,"40.":3681,"8,":3682,"Bran":3683,"Domin":3684,"Fri":3685,"Herm":3686,"Ir":3687,"More</w>":3688,"PR":3689,"Pe":3690,"Sa":3691,"blo":3692,"bacc":3693,"bad</w>":3694,"d-":3695,"domin":3696,"ested</w>":3697,"job":3698,"ming</w>":3699,"munic":3700,"pp":3701,"sem":3702,"wer</w>":3703,"writ":3704,"zz":3705,"20/":3706,"2020/":3707,"enh":3708,"endu":3709,"liam":3710,"lihood</w>":3711,"sters</w>":3712,"diam":3713,"emb":3714,"proved</w>":3715,"hair</w>":3716,"ung</w>":3717,"rupe":3718,"exer":3719,"does</w>":3720,"veter":3721,"whilst</w>":3722,"1.5</w>":3723,"rats</w>":3724,"rather</w>":3725,"indicat":3726,"gambl":3727,"few</w>":3728,"presidents</w>":3729,"mining</w>":3730,"fication</w>":3731,"blems</w>":3732,"theat":3733,"playing</w>":3734,"Boom":3735,"developed</w>":3736,"tica</w>":3737,"ticket</w>":3738,"wave</w>":3739,"institution</w>":3740,"graphic</w>":3741,"identified</w>":3742,"later</w>":3743,"materi":3744,"industrial</w>":3745,"look</w>":3746,"peaked</w>":3747,"leader</w>":3748,"headquartered</w>":3749,"vendor</w>":3750,"similar</w>":3751,"steadily</w>":3752,"consistently</w>":3753,"sponsorship</w>":3754,"Norwegian</w>":3755,"Ukraine</w>":3756,"follow</w>":3757,"enewable</w>":3758,"Brands</w>":3759,"Dominican</w>":3760,"endum</w>":3761,"0,000</w>":3762,"35.":3763,"94</w>":3764,"B2":3765,"Bu":3766,"Cro":3767,"For":3768,"Jam":3769,"LGB":3770,"PC</w>":3771,"Pinterest</w>":3772,"Si":3773,"Sen":3774,"Sain":3775,"Ti":3776,"VR</w>":3777,"Vir":3778,"bab":3779,"fresh</w>":3780,"ger":3781,"hin":3782,"lab":3783,"long</w>":3784,"say</w>":3785,"scor":3786,"saying</w>":3787,"t-":3788,"wood</w>":3789,"yed</w>":3790,"200</w>":3791,"2050</w>":3792,"anta":3793,"anese</w>":3794,"onals</w>":3795,"tan</w>":3796,"alone</w>":3797,"alists</w>":3798,"lied</w>":3799,"light</w>":3800,"rights</w>":3801,"oms</w>":3802,"stable</w>":3803,"among":3804,"profil":3805,"ult</w>":3806,"connec":3807,"2008/":3808,"commu":3809,"better</w>":3810,"sea":3811,"aded</w>":3812,"ids</w>":3813,"chec":3814,"correc":3815,"nee":3816,"interested</w>":3817,"1.6</w>":3818,"teen</w>":3819,"teach":3820,"accidents</w>":3821,"feat":3822,"feeling</w>":3823,"aret":3824,"/13</w>":3825,"arian</w>":3826,"operations</w>":3827,"minimum</w>":3828,"relatively</w>":3829,"concerning</w>":3830,"includes</w>":3831,"non-life</w>":3832,"funding</w>":3833,"watches</w>":3834,"Life</w>":3835,"hospitali":3836,"manufactu":3837,"electronic</w>":3838,"slight</w>":3839,"chart</w>":3840,"healthy</w>":3841,"broadca":3842,"professionals</w>":3843,"well":3844,"effects</w>":3845,"newsp":3846,"distributed</w>":3847,"cruise</w>":3848,"allowed</w>":3849,"Company</w>":3850,"threat</w>":3851,"referendum</w>":3852,"storage</w>":3853,"Forecast</w>":3854,"manufacturers</w>":3855,"Austria</w>":3856,"occurred</w>":3857,"kilometers</w>":3858,"esel</w>":3859,"Ebola</w>":3860,"connected</w>":3861,"Vietnam</w>":3862,"2012/13</w>":3863,"cigaret":3864,"rupees</w>":3865,"LGBT</w>":3866,"amongst</w>":3867,"25":3868,"33.":3869,"At":3870,"Bul":3871,"Cap":3872,"Fe":3873,"Fl":3874,"IS":3875,"S.":3876,"With</w>":3877,"bing</w>":3878,"bri":3879,"ction</w>":3880,"dra":3881,"early</w>":3882,"gold</w>":3883,"member</w>":3884,"phi":3885,"renewable</w>":3886,"tem":3887,"tex":3888,"ually</w>":3889,"2040</w>":3890,"anim":3891,"rer</w>":3892,"alties</w>":3893,"lim":3894,"rill</w>":3895,"oming</w>":3896,"ects</w>":3897,"diesel</w>":3898,"ace":3899,"problems</w>":3900,"State</w>":3901,"unemployed</w>":3902,"sequ":3903,"porno":3904,"today</w>":3905,"ayed</w>":3906,"notes</w>":3907,"1.1</w>":3908,"thousands</w>":3909,"heard</w>":3910,"heart</w>":3911,"decade</w>":3912,"2.1</w>":3913,"factors</w>":3914,"kelihood</w>":3915,"participation</w>":3916,"importance</w>":3917,"law</w>":3918,"drink</w>":3919,"killed</w>":3920,"safe</w>":3921,"drop</w>":3922,"bookings</w>":3923,"full</w>":3924,"film</w>":3925,"Democrats</w>":3926,"centers</w>":3927,"condition</w>":3928,"orities</w>":3929,"Maj":3930,"prescriptions</w>":3931,"Polish</w>":3932,"events</w>":3933,"crude</w>":3934,"greatest</w>":3935,"nominee</w>":3936,"completed</w>":3937,"couples</w>":3938,"protection</w>":3939,"obese</w>":3940,"Disney</w>":3941,"places</w>":3942,"exceeded</w>":3943,"annually</w>":3944,"About</w>":3945,"fluctuated</w>":3946,"Travel</w>":3947,"distingu":3948,"degrees</w>":3949,"language</w>":3950,"radio</w>":3951,"history</w>":3952,"automo":3953,"Premier</w>":3954,"designated</w>":3955,"Iran</w>":3956,"jobs</w>":3957,"06</w>":3958,"16":3959,"38.":3960,"Bur":3961,"Cali":3962,"Fa":3963,"MI</w>":3964,"Mil":3965,"Se":3966,"Sur":3967,"aking</w>":3968,"ck":3969,"cs</w>":3970,"date</w>":3971,"esta":3972,"fast</w>":3973,"ience</w>":3974,"mes</w>":3975,"rated</w>":3976,"uel":3977,"utions</w>":3978,"ware</w>":3979,"y-":3980,"ya</w>":3981,"zuel":3982,"tile</w>":3983,"ints</w>":3984,"rest</w>":3985,"reporting</w>":3986,"arning</w>":3987,"perf":3988,"ech":3989,"ective</w>":3990,"stay</w>":3991,"sty":3992,"divi":3993,"dietary</w>":3994,"dures</w>":3995,"duty</w>":3996,"ounce</w>":3997,"options</w>":3998,"icy":3999,"icon":4000,"loan</w>":4001,"expres":4002,"fif":4003,"total/average</w>":4004,"leagues</w>":4005,"learning</w>":4006,"ington</w>":4007,"compo":4008,"quali":4009,"dog</w>":4010,"popularity</w>":4011,"trips</w>":4012,"vals</w>":4013,"ximum</w>":4014,"houses</w>":4015,"1.8</w>":4016,"ourg</w>":4017,"2.2</w>":4018,"2.8</w>":4019,"teams</w>":4020,"outdoor</w>":4021,"cash</w>":4022,"thermore</w>":4023,"forecasts</w>":4024,"1998</w>":4025,"Total/average</w>":4026,"geted</w>":4027,"cardi":4028,"opinions</w>":4029,"accessories</w>":4030,"closely</w>":4031,"airports</w>":4032,"include</w>":4033,"networking</w>":4034,"difference</w>":4035,"moral</w>":4036,"answ":4037,"subscription</w>":4038,"hospital</w>":4039,"electronics</w>":4040,"holidays</w>":4041,"turnout</w>":4042,"premium</w>":4043,"projection</w>":4044,"ampion":4045,"multi-":4046,"prescription</w>":4047,"expensive</w>":4048,"application</w>":4049,"influen":4050,"Luxemb":4051,"kilograms</w>":4052,"Phili":4053,"Compared</w>":4054,"decision</w>":4055,"Venezuel":4056,"eSports</w>":4057,"supplements</w>":4058,"procedures</w>":4059,"Furthermore</w>":4060,"Elec":4061,"Government</w>":4062,"declined</w>":4063,"exercise</w>":4064,"gambling</w>":4065,"2008/09</w>":4066,"Major</w>":4067,"Califor":4068,"estab":4069,"Luxembourg</w>":4070,"36.":4071,"4/1":4072,"50.":4073,"Cz":4074,"Cub":4075,"Cyp":4076,"Har":4077,"Hol":4078,"Op":4079,"Sk":4080,"Sec":4081,"US":4082,"Wash":4083,"bined</w>":4084,"da</w>":4085,"ef":4086,"io</w>":4087,"kron":4088,"lam":4089,"mur":4090,"mpic":4091,"nor":4092,"sses</w>":4093,"top":4094,"ene</w>":4095,"restric":4096,"2014/1":4097,"tail</w>":4098,"alle":4099,"ilding</w>":4100,"ech</w>":4101,"associ":4102,"descri":4103,"logi":4104,"beverage</w>":4105,"trac":4106,"choo":4107,"fix":4108,"compla":4109,"meth":4110,"vege":4111,"sus</w>":4112,"scale</w>":4113,"head</w>":4114,"format</w>":4115,"firms</w>":4116,"casu":4117,"twice</w>":4118,"feet</w>":4119,"transpor":4120,"engine</w>":4121,"1996</w>":4122,"1999</w>":4123,"opers</w>":4124,"watt</w>":4125,"shops</w>":4126,"earning</w>":4127,"ologies</w>":4128,"developers</w>":4129,"Concession</w>":4130,"inton</w>":4131,"Mexican</w>":4132,"computers</w>":4133,"anistan</w>":4134,"retailer</w>":4135,"Japanese</w>":4136,"Store</w>":4137,"ottica</w>":4138,"Romania</w>":4139,"Olympic":4140,"middle</w>":4141,"entary</w>":4142,"leave</w>":4143,"Additionally</w>":4144,"SME</w>":4145,"quarterly</w>":4146,"marriage</w>":4147,"Luxottica</w>":4148,"messaging</w>":4149,"background</w>":4150,"convenience</w>":4151,"Baby</w>":4152,"treatment</w>":4153,"telecom":4154,"affiliation</w>":4155,"Sony</w>":4156,"weapons</w>":4157,"campaign</w>":4158,"Clinton</w>":4159,"Afghanistan</w>":4160,"George</w>":4161,"profile</w>":4162,"cigarettes</w>":4163,"distinguished</w>":4164,"Venezuela</w>":4165,"establi":4166,"Cyprus</w>":4167,"Washington</w>":4168,"2014/15</w>":4169,"Olympics</w>":4170,"BBC</w>":4171,"Day</w>":4172,"Domestic</w>":4173,"FI":4174,"Micro":4175,"Sun":4176,"Wi":4177,"a-":4178,"bound</w>":4179,"bicy":4180,"dre":4181,"dIn</w>":4182,"edom</w>":4183,"fit":4184,"fle":4185,"flow</w>":4186,"ging</w>":4187,"jour":4188,"length</w>":4189,"ma</w>":4190,"pan":4191,"went</w>":4192,"yers</w>":4193,"thu":4194,"2013":4195,"lies</w>":4196,"liver</w>":4197,"right</w>":4198,"ill</w>":4199,"dic</w>":4200,"disp":4201,"disor":4202,"agents</w>":4203,"viol":4204,"stating</w>":4205,"umul":4206,"sities</w>":4207,"showing</w>":4208,"trends</w>":4209,"respective</w>":4210,"covered</w>":4211,"absol":4212,"lead</w>":4213,"ingness</w>":4214,"quick</w>":4215,"ve-":4216,"sustain":4217,"pod":4218,"grade</w>":4219,"grades</w>":4220,"recre":4221,"1964</w>":4222,"approve</w>":4223,"quaranti":4224,"2.6</w>":4225,"traditional</w>":4226,"facilities</w>":4227,"initi":4228,"fatal</w>":4229,"brac":4230,"e-mail</w>":4231,"cipi":4232,"offering</w>":4233,"committed</w>":4234,"kedIn</w>":4235,"videos</w>":4236,"laun":4237,"Belgian</w>":4238,"included</w>":4239,"Boss</w>":4240,"ratings</w>":4241,"preference</w>":4242,"transaction</w>":4243,"transplants</w>":4244,"holic</w>":4245,"Star":4246,"alcoholic</w>":4247,"planning</w>":4248,"effective</w>":4249,"newly</w>":4250,"Generation</w>":4251,"handled</w>":4252,"necess":4253,"event</w>":4254,"2017/2018</w>":4255,"leather</w>":4256,"zero</w>":4257,"infections</w>":4258,"influence</w>":4259,"Play":4260,"Consumer</w>":4261,"photo</w>":4262,"frame</w>":4263,"cinemas</w>":4264,"defined</w>":4265,"destination</w>":4266,"suffered</w>":4267,"rupt":4268,"contact</w>":4269,"LinkedIn</w>":4270,"veterans</w>":4271,"manufacturer</w>":4272,"California</w>":4273,"complaints</w>":4274,"casualties</w>":4275,"AR":4276,"A.</w>":4277,"BMI</w>":4278,"Ci":4279,"Coun":4280,"Es</w>":4281,"Foo":4282,"Grill</w>":4283,"Hu":4284,"IC</w>":4285,"Kering</w>":4286,"PA":4287,"PE":4288,"Pur":4289,"ba":4290,"ef</w>":4291,"eti":4292,"ff</w>":4293,"gn":4294,"gers</w>":4295,"ior</w>":4296,"lation</w>":4297,"lending</w>":4298,"non":4299,"s/":4300,"sent</w>":4301,"ton":4302,"vak":4303,"ann":4304,"ron</w>":4305,"retur":4306,"2011":4307,"altern":4308,"liance</w>":4309,"stly</w>":4310,"stment</w>":4311,"dition</w>":4312,"diver":4313,"asking</w>":4314,"assist":4315,"sidi":4316,"Thail":4317,"deal":4318,"consi":4319,"common":4320,"bel</w>":4321,"worst</w>":4322,"mother</w>":4323,"moder":4324,"mothers</w>":4325,"port":4326,"ched</w>":4327,"chronic</w>":4328,"dollar</w>":4329,"meat</w>":4330,"veget":4331,"corresponding</w>":4332,"maximum</w>":4333,"ept</w>":4334,"3.2</w>":4335,"bott":4336,"facing</w>":4337,"Northern</w>":4338,"supported</w>":4339,"1997</w>":4340,"1992</w>":4341,"1991</w>":4342,"certain</w>":4343,"person":4344,"subsidi":4345,"crimes</w>":4346,"helor</w>":4347,"label</w>":4348,"concerns</w>":4349,"Costa</w>":4350,"teens</w>":4351,"illary</w>":4352,"shipment</w>":4353,"wait</w>":4354,"directly</w>":4355,"celeb":4356,"ong-":4357,"indicates</w>":4358,"Christi":4359,"tables</w>":4360,"speaking</w>":4361,"attack</w>":4362,"welry</w>":4363,"Medicare</w>":4364,"drinking</w>":4365,"VoD</w>":4366,"hyper":4367,"properties</w>":4368,"SMEs</w>":4369,"universities</w>":4370,"cosmetic</w>":4371,"purpose</w>":4372,"Slovak":4373,"copper</w>":4374,"ESPR":4375,"potential</w>":4376,"bankrupt":4377,"emergency</w>":4378,"mortgage</w>":4379,"standard</w>":4380,"officers</w>":4381,"Friday</w>":4382,"ppines</w>":4383,"written</w>":4384,"Croati":4385,"scored</w>":4386,"temper":4387,"pornographic</w>":4388,"Philippines</w>":4389,"method</w>":4390,"vegetables</w>":4391,"transportation</w>":4392,"Hugo</w>":4393,"Purchas":4394,"Thailand</w>":4395,"commonly</w>":4396,"Slovakia</w>":4397,"ESPRIT</w>":4398,"-year-":4399,"01</w>":4400,"48.":4401,"54.":4402,"6,":4403,"66.":4404,"Air</w>":4405,"Bi":4406,"Brea":4407,"CE":4408,"Danish</w>":4409,"Eg":4410,"Est":4411,"FT":4412,"Her":4413,"Mc":4414,"Ou":4415,"Ric":4416,"Rica</w>":4417,"Sal":4418,"cans</w>":4419,"eas":4420,"fers</w>":4421,"he</w>":4422,"hun":4423,"lers</w>":4424,"long-":4425,"ox":4426,"ose</w>":4427,"pa":4428,"tely</w>":4429,"wid":4430,"thered</w>":4431,"independ":4432,"refin":4433,"refl":4434,"attainment</w>":4435,"ston</w>":4436,"ascular</w>":4437,"emy</w>":4438,"opi":4439,"opposed</w>":4440,"shown</w>":4441,"desh</w>":4442,"begin":4443,"appe":4444,"additional</w>":4445,"prece":4446,"coverage</w>":4447,"seri":4448,"CO2</w>":4449,"quarters</w>":4450,"firm</w>":4451,"employers</w>":4452,"Char":4453,"3.8</w>":4454,"fewer</w>":4455,"clou":4456,"5.5</w>":4457,"enger</w>":4458,"individual</w>":4459,"carb":4460,"auth":4461,"volun":4462,"disagree</w>":4463,"technologies</w>":4464,"droid</w>":4465,"Android</w>":4466,"One</w>":4467,"ssil</w>":4468,"harass":4469,"mach":4470,"diseases</w>":4471,"Worldwide</w>":4472,"downloads</w>":4473,"clim":4474,"mid-":4475,"statements</w>":4476,"geographic</w>":4477,"infection</w>":4478,"success":4479,"print</w>":4480,"running</w>":4481,"tropoli":4482,"shop</w>":4483,"balance</w>":4484,"admitted</w>":4485,"garia</w>":4486,"terrorist</w>":4487,"wearable</w>":4488,"attitudes</w>":4489,"extrem":4490,"operators</w>":4491,"avoid":4492,"retirement</w>":4493,"jewelry</w>":4494,"favor</w>":4495,"bacco</w>":4496,"munications</w>":4497,"Boomers</w>":4498,"Saint</w>":4499,"community</w>":4500,"Bulgaria</w>":4501,"Feder":4502,"iconduc":4503,"expressed</w>":4504,"logistics</w>":4505,"fleet</w>":4506,"umulative</w>":4507,"absolute</w>":4508,"vegetarian</w>":4509,"Breakdown</w>":4510,"beginning</w>":4511,"Ang":4512,"BR":4513,"Bun":4514,"CD</w>":4515,"Cam":4516,"DA</w>":4517,"Deb":4518,"Fre":4519,"Gen</w>":4520,"Hond":4521,"Lat":4522,"Lim":4523,"Mu":4524,"Man":4525,"Main</w>":4526,"San</w>":4527,"Swit":4528,"Spo":4529,"Uru":4530,"We</w>":4531,"Wom":4532,"Willi":4533,"cally</w>":4534,"clic":4535,"das</w>":4536,"done</w>":4537,"dair":4538,"dfunding</w>":4539,"jou":4540,"ker</w>":4541,"know</w>":4542,"lap":4543,"lingness</w>":4544,"mini":4545,"nes":4546,"sco":4547,"uti":4548,"vacc":4549,"wth</w>":4550,"yen</w>":4551,"tit":4552,"tiv":4553,"tim</w>":4554,"tify</w>":4555,"anwhile</w>":4556,"releas":4557,"remain</w>":4558,"recipi":4559,"oning</w>":4560,"ord":4561,"perman":4562,"always</w>":4563,"hit</w>":4564,"lians</w>":4565,"rise</w>":4566,"achi":4567,"ows</w>":4568,"ell":4569,"elem":4570,"dest</w>":4571,"motor":4572,"pregn":4573,"exec":4574,"field</w>":4575,"abroad</w>":4576,"tobacco</w>":4577,"compares</w>":4578,"que":4579,"cit</w>":4580,"eigh":4581,"dose</w>":4582,"vestment</w>":4583,"reason</w>":4584,"rank</w>":4585,"forts</w>":4586,"presence</w>":4587,"presented</w>":4588,"increases</w>":4589,"ission</w>":4590,"1.7</w>":4591,"gun</w>":4592,"guay</w>":4593,"anda</w>":4594,"medic":4595,"ourself</w>":4596,"outstanding</w>":4597,"3.3</w>":4598,"find</w>":4599,"twatch</w>":4600,"larger</w>":4601,"4.7</w>":4602,"classi":4603,"willingness</w>":4604,"1994</w>":4605,"rising</w>":4606,"gether</w>":4607,"deri":4608,"estimates</w>":4609,"pact</w>":4610,"adidas</w>":4611,"black</w>":4612,"Growth</w>":4613,"Meanwhile</w>":4614,"theft</w>":4615,"tourist</w>":4616,"provider</w>":4617,"intro":4618,"preferences</w>":4619,"transfer</w>":4620,"winner</w>":4621,"budgets</w>":4622,"become</w>":4623,"harve":4624,"victim</w>":4625,"gradually</w>":4626,"society</w>":4627,"projects</w>":4628,"downloaded</w>":4629,"belong":4630,"Vide":4631,"cross":4632,"chain</w>":4633,"zerland</w>":4634,"ypt</w>":4635,"genre</w>":4636,"smoking</w>":4637,"target</w>":4638,"Impact</w>":4639,"Median</w>":4640,"kilogram</w>":4641,"friends</w>":4642,"in-store</w>":4643,"legally</w>":4644,"continent</w>":4645,"character":4646,"surgical</w>":4647,"Winter</w>":4648,"involved</w>":4649,"analy":4650,"Hung":4651,"indicator</w>":4652,"Jama":4653,"seats</w>":4654,"Cuba</w>":4655,"efforts</w>":4656,"kroner</w>":4657,"norm":4658,"Croatia</w>":4659,"Purchasing</w>":4660,"Egypt</w>":4661,"long-term</w>":4662,"oxide</w>":4663,"tropolitan</w>":4664,"iconductor</w>":4665,"Switzerland</w>":4666,"Spotify</w>":4667,"Uruguay</w>":4668,"Women</w>":4669,"dairy</w>":4670,"02</w>":4671,"250</w>":4672,"34.":4673,"49.":4674,"5,":4675,"60.":4676,"Cel":4677,"Coo":4678,"Da":4679,"Ecu":4680,"Fir":4681,"Ho":4682,"Hillary</w>":4683,"Mad":4684,"Nu":4685,"Nep":4686,"PM":4687,"Ran":4688,"Ver":4689,"Wee":4690,"ap</w>":4691,"astic</w>":4692,"ault</w>":4693,"cat</w>":4694,"cement</w>":4695,"dge</w>":4696,"eat</w>":4697,"fts</w>":4698,"fra":4699,"iso":4700,"mag":4701,"ner":4702,"nab":4703,"osexual</w>":4704,"pul":4705,"rai":4706,"s-":4707,"s.</w>":4708,"things</w>":4709,"eracy</w>":4710,"2060</w>":4711,"real":4712,"arti":4713,"aren":4714,"ite":4715,"liqu":4716,"atri":4717,"ria</w>":4718,"ectly</w>":4719,"stop":4720,"shares</w>":4721,"acute</w>":4722,"ower</w>":4723,"eless</w>":4724,"emp":4725,"duce</w>":4726,"usually</w>":4727,"consequ":4728,"lot":4729,"beds</w>":4730,"worse</w>":4731,"separ":4732,"mostly</w>":4733,"chall":4734,"marital</w>":4735,"fight</w>":4736,"fish</w>":4737,"giga":4738,"ably</w>":4739,"duced</w>":4740,"meter</w>":4741,"interviewed</w>":4742,"values</w>":4743,"Investment</w>":4744,"soli":4745,"episo":4746,"appropri":4747,"scre":4748,"monit":4749,"heat</w>":4750,"displayed</w>":4751,"2.9</w>":4752,"3.7</w>":4753,"3.6</w>":4754,"final</w>":4755,"6.7</w>":4756,"/14</w>":4757,"migrants</w>":4758,"Retail</w>":4759,"ovascular</w>":4760,"deviation</w>":4761,"stop</w>":4762,"equity</w>":4763,"offline</w>":4764,"relation":4765,"attribu":4766,"great</w>":4767,"mill":4768,"visiting</w>":4769,"2018/2019</w>":4770,"locations</w>":4771,"airport</w>":4772,"alized</w>":4773,"Arab":4774,"Presid":4775,"Prefer":4776,"ansas</w>":4777,"impacted</w>":4778,"transplan":4779,"specialty</w>":4780,"supplier</w>":4781,"wheat</w>":4782,"hard":4783,"directors</w>":4784,"Valentin":4785,"St.</w>":4786,"enterprise</w>":4787,"liter</w>":4788,"identity</w>":4789,"1789</w>":4790,"speed</w>":4791,"started</w>":4792,"effect</w>":4793,"Australi":4794,"calcul":4795,"residential</w>":4796,"leadership</w>":4797,"Media</w>":4798,"Phil":4799,"purposes</w>":4800,"glasses</w>":4801,"listen</w>":4802,"abortion</w>":4803,"occasions</w>":4804,"benef":4805,"defen":4806,"injury</w>":4807,"crowdfunding</w>":4808,"enhams</w>":4809,"liament</w>":4810,"materials</w>":4811,"teachers</w>":4812,"wellness</w>":4813,"perfectly</w>":4814,"style</w>":4815,"Opini":4816,"2013/14</w>":4817,"temperat":4818,"preceding</w>":4819,"Debenhams</w>":4820,"joules</w>":4821,"Jamaica</w>":4822,"Ecuador</w>":4823,"Valentine</w>":4824,"03</w>":4825,"47.":4826,"68.":4827,"69.":4828,"7,":4829,"Brun":4830,"Battle</w>":4831,"Cu":4832,"Cal":4833,"EA</w>":4834,"Fer":4835,"Hong</w>":4836,"Hot":4837,"Mer":4838,"Pay</w>":4839,"Pak":4840,"Res":4841,"Uber</w>":4842,"cers</w>":4843,"cket</w>":4844,"e/":4845,"eting</w>":4846,"fal":4847,"foun":4848,"fair":4849,"fair</w>":4850,"gni":4851,"golf</w>":4852,"hor":4853,"ied</w>":4854,"ide":4855,"ilian</w>":4856,"kly</w>":4857,"lement</w>":4858,"others</w>":4859,"rap":4860,"sul":4861,"sons</w>":4862,"sle":4863,"tory</w>":4864,"vement</w>":4865,"wing</w>":4866,"yment</w>":4867,"yourself</w>":4868,"thi":4869,"ina</w>":4870,"an-":4871,"anced</w>":4872,"tar</w>":4873,"tations</w>":4874,"station</w>":4875,"stance</w>":4876,"shore</w>":4877,"olden</w>":4878,"elder":4879,"stations</w>":4880,"promo":4881,"despite</w>":4882,"consol":4883,"constant</w>":4884,"lot</w>":4885,"comes</w>":4886,"combined</w>":4887,"Stati":4888,"hael</w>":4889,"chest</w>":4890,"exam":4891,"fire":4892,"impl":4893,"together</w>":4894,"territ":4895,"corn</w>":4896,"pota":4897,"grated</w>":4898,"parent</w>":4899,"intern":4900,"1960</w>":4901,"Income</w>":4902,"eptions</w>":4903,"ism</w>":4904,"high-":4905,"1.9</w>":4906,"lobally</w>":4907,"nights</w>":4908,"resulting</w>":4909,"casts</w>":4910,"egal</w>":4911,"3.1</w>":4912,"bodi":4913,"fact</w>":4914,"fees</w>":4915,"5.6</w>":4916,"/12</w>":4917,"7.1</w>":4918,"decreasing</w>":4919,"smartwatch</w>":4920,"insured</w>":4921,"airline</w>":4922,"Boston</w>":4923,"of-":4924,"patient</w>":4925,"surveys</w>":4926,"Brazilian</w>":4927,"Lithu":4928,"homes</w>":4929,"subscriptions</w>":4930,"searches</w>":4931,"akers</w>":4932,"salaries</w>":4933,"Democr":4934,"became</w>":4935,"becoming</w>":4936,"center</w>":4937,"solar</w>":4938,"anti-":4939,"antity</w>":4940,"berry</w>":4941,"origin":4942,"bachelor</w>":4943,"remaining</w>":4944,"upcoming</w>":4945,"Republicans</w>":4946,"underlying</w>":4947,"midterm</w>":4948,"behaviors</w>":4949,"Price</w>":4950,"aware</w>":4951,"arrivals</w>":4952,"publishing</w>":4953,"organization</w>":4954,"Play</w>":4955,"targeted</w>":4956,"recogni":4957,"Baseball</w>":4958,"environmental</w>":4959,"ginia</w>":4960,"choice</w>":4961,"obesity</w>":4962,"Catal":4963,"university</w>":4964,"cosmetics</w>":4965,"remote</w>":4966,"Prada</w>":4967,"lifetime</w>":4968,"wearables</w>":4969,"Syria</w>":4970,"divorce</w>":4971,"Kenya</w>":4972,"typically</w>":4973,"ICT</w>":4974,"Michael</w>":4975,"semiconductor</w>":4976,"2020/21</w>":4977,"diamond</w>":4978,"Virginia</w>":4979,"hospitalized</w>":4980,"broadcasting</w>":4981,"divided</w>":4982,"cardiovascular</w>":4983,"ampionship</w>":4984,"Microsoft</w>":4985,"fitness</w>":4986,"journ":4987,"sustainable</w>":4988,"2011/12</w>":4989,"cloud</w>":4990,"BRIC</w>":4991,"permanent</w>":4992,"belonging</w>":4993,"Paki":4994,"elderly</w>":4995,"Lithuania</w>":4996,"-time</w>":4997,"-of-":4998,"/or</w>":4999,"08</w>":5000,"05</w>":5001,"300</w>":5002,"45.":5003,"59.":5004,"AR</w>":5005,"AT</w>":5006,"AG</w>":5007,"Blo":5008,"Cs</w>":5009,"EB":5010,"Food</w>":5011,"Golden</w>":5012,"Hor":5013,"Kong</w>":5014,"Kors</w>":5015,"Lab":5016,"My":5017,"Mag":5018,"Men</w>":5019,"Mini":5020,"NH":5021,"Ra":5022,"Sum":5023,"Tim":5024,"Tai":5025,"Zim":5026,"ahead</w>":5027,"billi":5028,"bai":5029,"dur":5030,"dam":5031,"ever":5032,"fall":5033,"globally</w>":5034,"home":5035,"late</w>":5036,"mar</w>":5037,"nation</w>":5038,"name</w>":5039,"rac":5040,"sw":5041,"sent":5042,"tario</w>":5043,"ttoo</w>":5044,"ud</w>":5045,"ua</w>":5046,"wages</w>":5047,"zing</w>":5048,"â€":5049,"enses</w>":5050,"anmar</w>":5051,"rom":5052,"rol</w>":5053,"resident</w>":5054,"arus</w>":5055,"tattoo</w>":5056,"liked</w>":5057,"lives</w>":5058,"liances</w>":5059,"percenti":5060,"ils</w>":5061,"stays</w>":5062,"stories</w>":5063,"dioxide</w>":5064,"agen</w>":5065,"embe":5066,"umin":5067,"illicit</w>":5068,"protests</w>":5069,"desli":5070,"losses</w>":5071,"seeing</w>":5072,"advi":5073,"ademy</w>":5074,"ident</w>":5075,"chen</w>":5076,"building</w>":5077,"buyers</w>":5078,"esa</w>":5079,"exhi":5080,"exit</w>":5081,"margin</w>":5082,"improv":5083,"competi":5084,"veness</w>":5085,"venia</w>":5086,"prison":5087,"prisons</w>":5088,"trip</w>":5089,"ployment</w>":5090,"approved</w>":5091,"and/or</w>":5092,"Digital</w>":5093,"Academy</w>":5094,"2.7</w>":5095,"2.4</w>":5096,"outlook</w>":5097,"overnight</w>":5098,"overdose</w>":5099,"egy</w>":5100,"eges</w>":5101,"4.2</w>":5102,"0.5</w>":5103,"ired</w>":5104,"6.6</w>":5105,"cling</w>":5106,"migration</w>":5107,"engines</w>":5108,"carri":5109,"sellers</w>":5110,"particul":5111,"mines</w>":5112,"inflation</w>":5113,"cannab":5114,"keep</w>":5115,"on-year</w>":5116,"Belarus</w>":5117,"All</w>":5118,"Almost</w>":5119,"Univer":5120,"workplace</w>":5121,"marketers</w>":5122,"discoun":5123,"licon</w>":5124,"intenti":5125,"non-Hispanic</w>":5126,"Ontario</w>":5127,"ection":5128,"specific</w>":5129,"border</w>":5130,"Colum":5131,"sociation</w>":5132,"ota</w>":5133,"upper</w>":5134,"cleaning</w>":5135,"broadcast</w>":5136,"orientation</w>":5137,"immigration</w>":5138,"occupation</w>":5139,"ennial</w>":5140,"citizen":5141,"contract</w>":5142,"peak</w>":5143,"John":5144,"published</w>":5145,"Ener":5146,"environment</w>":5147,"Consumption</w>":5148,"sonite</w>":5149,"decisions</w>":5150,"photo":5151,"terroris":5152,"characters</w>":5153,"Association</w>":5154,"House</w>":5155,"Househ":5156,"Slovenia</w>":5157,"double</w>":5158,"attitude</w>":5159,"Minnes":5160,"masks</w>":5161,"strategy</w>":5162,"Samsonite</w>":5163,"racist</w>":5164,"B2B</w>":5165,"connections</w>":5166,"textile</w>":5167,"fifth</w>":5168,"answered</w>":5169,"Czech</w>":5170,"Holdings</w>":5171,"choose</w>":5172,"disorders</w>":5173,"violence</w>":5174,"quarantine</w>":5175,"initial</w>":5176,"Civil</w>":5177,"alternative</w>":5178,"bankruptcies</w>":5179,"Salv":5180,"opio":5181,"Bundesli":5182,"Hondur":5183,"Latvia</w>":5184,"recipients</w>":5185,"elementary</w>":5186,"execu":5187,"harvested</w>":5188,"Hungary</w>":5189,"normal</w>":5190,"First</w>":5191,"Ranking</w>":5192,"Weekly</w>":5193,"areness</w>":5194,"appropriate</w>":5195,"relationship</w>":5196,"transplantation</w>":5197,"Australian</w>":5198,"benefits</w>":5199,"Myanmar</w>":5200,"Taiw":5201,"every":5202,"fallen</w>":5203,"embezz":5204,"Minnesota</w>":5205,"Bundesliga</w>":5206,"-to-":5207,"..</w>":5208,"04</w>":5209,"Ali":5210,"Around</w>":5211,"Bro":5212,"Due</w>":5213,"El</w>":5214,"Ess":5215,"Euro</w>":5216,"Floy":5217,"Home</w>":5218,"IP":5219,"Il":5220,"Ira":5221,"Mi":5222,"PP":5223,"Pac":5224,"Pal</w>":5225,"RA":5226,"RI</w>":5227,"Rob":5228,"Som":5229,"Sha":5230,"SVoD</w>":5231,"Tre":5232,"Tes":5233,"apers</w>":5234,"ajoules</w>":5235,"bloc":5236,"cable</w>":5237,"ed":5238,"ets</w>":5239,"flow":5240,"fanta":5241,"gres":5242,"gla":5243,"hu":5244,"her</w>":5245,"hum":5246,"hard</w>":5247,"happ":5248,"ition</w>":5249,"itali":5250,"ka</w>":5251,"mun":5252,"ners</w>":5253,"oin</w>":5254,"ois</w>":5255,"ssing</w>":5256,"tour":5257,"vs.</w>":5258,"we</w>":5259,"war</w>":5260,"wagen</w>":5261,"yi":5262,"y+</w>":5263,"ental</w>":5264,"enfor":5265,"enjo":5266,"inder</w>":5267,"role</w>":5268,"reover</w>":5269,"release</w>":5270,"reviews</w>":5271,"ard":5272,"arts</w>":5273,"arter":5274,"ona</w>":5275,"oned</w>":5276,"itchen</w>":5277,"ile</w>":5278,"stu":5279,"oles":5280,"elphi":5281,"sively</w>":5282,"sized</w>":5283,"procu":5284,"del</w>":5285,"depres":5286,"ick":5287,"conc":5288,"concen":5289,"loss</w>":5290,"behin":5291,"true</w>":5292,"adelphi":5293,"atic</w>":5294,"atives</w>":5295,"mode</w>":5296,"motiv":5297,"why</w>":5298,"bucks</w>":5299,"preci":5300,"enders</w>":5301,"extr":5302,"exajoules</w>":5303,"ondents</w>":5304,"gifts</w>":5305,"improved</w>":5306,"abb":5307,"ingly</w>":5308,"compound</w>":5309,"civil</w>":5310,"ronto</w>":5311,"vegan</w>":5312,"ney+</w>":5313,"aires</w>":5314,"plastic</w>":5315,"post-":5316,"pocket</w>":5317,"pressure</w>":5318,"1982</w>":5319,"consume</w>":5320,"approval</w>":5321,"generations</w>":5322,"resol":5323,"tually</w>":5324,"entire</w>":5325,"Act</w>":5326,"rastructure</w>":5327,"Nev":5328,"Nearly</w>":5329,"outlines</w>":5330,"out-of-":5331,"Italians</w>":5332,"Nordic</w>":5333,"festi":5334,"4.4</w>":5335,"6.5</w>":5336,"sporting</w>":5337,"engaged</w>":5338,"Perception</w>":5339,"asset</w>":5340,"arios</w>":5341,"Toronto</w>":5342,"operation</w>":5343,"operates</w>":5344,"infrastructure</w>":5345,"tally</w>":5346,"estimate</w>":5347,"White</w>":5348,"Moreover</w>":5349,"kel</w>":5350,"withdra":5351,"policy</w>":5352,"branch</w>":5353,"symp":5354,"dred</w>":5355,"governments</w>":5356,"alization</w>":5357,"demographi":5358,"Box</w>":5359,"intended</w>":5360,"appliances</w>":5361,"colleges</w>":5362,"Liber":5363,"alls</w>":5364,"positions</w>":5365,"viewing</w>":5366,"turns</w>":5367,"union</w>":5368,"gave</w>":5369,"granted</w>":5370,"solutions</w>":5371,"ski":5372,"Hispan":5373,"10,000</w>":5374,"multinational</w>":5375,"pollution</w>":5376,"performing</w>":5377,"Voter</w>":5378,"familiar</w>":5379,"Bangla":5380,"genres</w>":5381,"greater</w>":5382,"practices</w>":5383,"freel":5384,"smoke</w>":5385,"nationwide</w>":5386,"nationality</w>":5387,"scenarios</w>":5388,"spons":5389,"confection":5390,"named</w>":5391,"Soci":5392,"Disney+</w>":5393,"landers</w>":5394,"officials</w>":5395,"continued</w>":5396,"kswagen</w>":5397,"discus":5398,"Volkswagen</w>":5399,"Eastern</w>":5400,"strate":5401,"PayPal</w>":5402,"blood</w>":5403,"theaters</w>":5404,"correctly</w>":5405,"newspaper</w>":5406,"Burberry</w>":5407,"Favor":5408,"USD</w>":5409,"telecommunications</w>":5410,"Starbucks</w>":5411,"Football</w>":5412,"Christians</w>":5413,"Estonia</w>":5414,"hundred</w>":5415,"serious</w>":5416,"successful</w>":5417,"extremely</w>":5418,"Limited</w>":5419,"achie":5420,"magaz":5421,"Philadelphi":5422,"implem":5423,"Summer</w>":5424,"Johnson</w>":5425,"Honduras</w>":5426,"Essil":5427,"Floyd</w>":5428,"Iraq</w>":5429,"procurement</w>":5430,"Philadelphia</w>":5431,"29":5432,"2,000</w>":5433,"400</w>":5434,"58.":5435,"An</w>":5436,"Azer":5437,"Awards</w>":5438,"Ber":5439,"Bid":5440,"CP":5441,"Care</w>":5442,"EM":5443,"Golf</w>":5444,"Ju":5445,"Kaz":5446,"LT":5447,"Lou":5448,"Nig":5449,"Other</w>":5450,"Pu":5451,"Power</w>":5452,"Rw":5453,"Tinder</w>":5454,"VF</w>":5455,"bes</w>":5456,"col":5457,"coo":5458,"cell</w>":5459,"cology</w>":5460,"gen</w>":5461,"hate</w>":5462,"hstan</w>":5463,"ial</w>":5464,"igh":5465,"jan</w>":5466,"k-":5467,"kick":5468,"lul":5469,"lung</w>":5470,"may</w>":5471,"mand":5472,"nes</w>":5473,"nic":5474,"nis</w>":5475,"os":5476,"p.":5477,"pha":5478,"sy</w>":5479,"skil":5480,"sung</w>":5481,"tting</w>":5482,"vast</w>":5483,"za</w>":5484,"zone</w>":5485,"therm":5486,"ert</w>":5487,"till</w>":5488,"ens":5489,"ened</w>":5490,"re-":5491,"rep":5492,"one":5493,"one-":5494,"taled</w>":5495,"iti</w>":5496,"peration</w>":5497,"aland</w>":5498,"lia</w>":5499,"likelihood</w>":5500,"percom":5501,"illegally</w>":5502,"asp":5503,"actual</w>":5504,"again</w>":5505,"umes</w>":5506,"umps</w>":5507,"sians</w>":5508,"sick</w>":5509,"2029</w>":5510,"open</w>":5511,"des":5512,"usual</w>":5513,"lobe</w>":5514,"bet</w>":5515,"ham</w>":5516,"tro</w>":5517,"ados</w>":5518,"surance</w>":5519,"impres":5520,"duct</w>":5521,"totaled</w>":5522,"meaning</w>":5523,"pets</w>":5524,"rong</w>":5525,"supercom":5526,"ranks</w>":5527,"incidence</w>":5528,"stration</w>":5529,"parts</w>":5530,"ty-":5531,"voter</w>":5532,"big</w>":5533,"formed</w>":5534,"decades</w>":5535,"News</w>":5536,"active-":5537,"graph":5538,"Fact</w>":5539,"4.1</w>":5540,"6.1</w>":5541,"6.9</w>":5542,"there":5543,"5.7</w>":5544,"grown</w>":5545,"mix</w>":5546,"engagement</w>":5547,"supporting</w>":5548,"1993</w>":5549,"infecti":5550,"subj":5551,"relation</w>":5552,"attemp":5553,"green":5554,"miles</w>":5555,"invested</w>":5556,"Alger":5557,"Alpha":5558,"obtained</w>":5559,"disagreed</w>":5560,"Both</w>":5561,"icip":5562,"Parity</w>":5563,"teenage</w>":5564,"Anti":5565,"akhstan</w>":5566,"ysis</w>":5567,"fully</w>":5568,"specially</w>":5569,"supplies</w>":5570,"central</w>":5571,"avy</w>":5572,"bery</w>":5573,"skin</w>":5574,"small":5575,"smalle":5576,"literacy</w>":5577,"original</w>":5578,"graduate</w>":5579,"backs</w>":5580,"trucks</w>":5581,"match</w>":5582,"flights</w>":5583,"multiple</w>":5584,"Haiti</w>":5585,"start</w>":5586,"download</w>":5587,"Exp":5588,"Exit</w>":5589,"performed</w>":5590,"Guard</w>":5591,"fruits</w>":5592,"Primary</w>":5593,"Prime</w>":5594,"contracts</w>":5595,"puters</w>":5596,"Joe</w>":5597,"Enter":5598,"practice</w>":5599,"merchandising</w>":5600,"tension</w>":5601,"tennis</w>":5602,"Based</w>":5603,"confidence</w>":5604,"Unemployment</w>":5605,"protect</w>":5606,"servation</w>":5607,"receive</w>":5608,"receiving</w>":5609,"continue</w>":5610,"holding</w>":5611,"EU-":5612,"tswear</w>":5613,"banknotes</w>":5614,"Easter</w>":5615,"longest</w>":5616,"Samsung</w>":5617,"typical</w>":5618,"medal</w>":5619,"athletes</w>":5620,"installment</w>":5621,"processing</w>":5622,"needed</w>":5623,"features</w>":5624,"bribery</w>":5625,"restrictions</w>":5626,"fixed</w>":5627,"launch</w>":5628,"assistance</w>":5629,"hypertension</w>":5630,"Rico</w>":5631,"machines</w>":5632,"climate</w>":5633,"Federal</w>":5634,"laptop</w>":5635,"vaccine</w>":5636,"titles</w>":5637,"released</w>":5638,"pregnancy</w>":5639,"Video</w>":5640,"characteri":5641,"Daily</w>":5642,"Nepal</w>":5643,"realms</w>":5644,"attributable</w>":5645,"millennials</w>":5646,"fairly</w>":5647,"anti-corruption</w>":5648,"Pakistan</w>":5649,"Bloom":5650,"baijan</w>":5651,"â€™":5652,"percentile</w>":5653,"improvement</w>":5654,"prisoners</w>":5655,"particularly</w>":5656,"cannabis</w>":5657,"Columbia</w>":5658,"Energy</w>":5659,"Salvador</w>":5660,"embezzlement</w>":5661,"Tesco</w>":5662,"municip":5663,"Nevada</w>":5664,"Hispanics</w>":5665,"Azerbaijan</w>":5666,"Biden</w>":5667,"Kazakhstan</w>":5668,"kickbacks</w>":5669,"thermal</w>":5670,"supercomputers</w>":5671,"active-duty</w>":5672,"infectious</w>":5673,"Algeria</w>":5674,"Alphabet</w>":5675,"smallest</w>":5676,"-commerce</w>":5677,"-border</w>":5678,"14":5679,"5,000</w>":5680,"53.":5681,"70.":5682,"900</w>":5683,"Bow":5684,"Clevel":5685,"Del":5686,"Doll":5687,"FA</w>":5688,"Gh":5689,"Gul":5690,"HP</w>":5691,"Holl":5692,"IT":5693,"ML":5694,"Mat":5695,"Mis":5696,"Ps</w>":5697,"Pen":5698,"Pan":5699,"Rio</w>":5700,"Tw":5701,"Ty":5702,"VA</w>":5703,"Ze":5704,"bing":5705,"bit</w>":5706,"brou":5707,"ckey</w>":5708,"ean</w>":5709,"eye":5710,"eBay</w>":5711,"especially</w>":5712,"fei":5713,"farms</w>":5714,"gy":5715,"hn</w>":5716,"hold</w>":5717,"jump</w>":5718,"p.</w>":5719,"rho":5720,"rency</w>":5721,"rabb":5722,"s.":5723,"sun":5724,"tan":5725,"tle</w>":5726,"tended</w>":5727,"uplo":5728,"vey</w>":5729,"vere</w>":5730,"wn</w>":5731,"wal":5732,"wrong</w>":5733,"xi":5734,"zen</w>":5735,"zard":5736,"thin</w>":5737,"erto</w>":5738,"instant</w>":5739,"ro-":5740,"roun":5741,"ongoing</w>":5742,"onaires</w>":5743,"oncology</w>":5744,"tability</w>":5745,"alp":5746,"ala</w>":5747,"lis</w>":5748,"att</w>":5749,"rid</w>":5750,"richest</w>":5751,"urent</w>":5752,"shes</w>":5753,"ash</w>":5754,"act</w>":5755,"owatt</w>":5756,"ops</w>":5757,"oppor":5758,"oppo":5759,"They</w>":5760,"Thus</w>":5761,"Throughout</w>":5762,"ussel":5763,"load</w>":5764,"2004":5765,"Star</w>":5766,"versus</w>":5767,"hazard":5768,"unacceptable</w>":5769,"severe</w>":5770,"wees</w>":5771,"west</w>":5772,"movement</w>":5773,"bus</w>":5774,"pre-":5775,"endor":5776,"ender</w>":5777,"exi":5778,"exper":5779,"giene</w>":5780,"groun":5781,"legi":5782,"compon":5783,"section</w>":5784,"mega":5785,"metals</w>":5786,"metropolitan</w>":5787,"venture</w>":5788,"prize</w>":5789,"susp":5790,"suffer":5791,"need</w>":5792,"plc</w>":5793,"post":5794,"post</w>":5795,"ford":5796,"intervie":5797,"consuming</w>":5798,"eping</w>":5799,"hoo</w>":5800,"hockey</w>":5801,"comparing</w>":5802,"tunity</w>":5803,"employer</w>":5804,"output</w>":5805,"overweight</w>":5806,"bothered</w>":5807,"finding</w>":5808,"control":5809,"control</w>":5810,"seasonally</w>":5811,"owns</w>":5812,"therap":5813,"5.1</w>":5814,"5.4</w>":5815,"suppor":5816,"Top</w>":5817,"particular</w>":5818,"offers</w>":5819,"minal</w>":5820,"atten":5821,"attributed</w>":5822,"frequent</w>":5823,"bles</w>":5824,"capitali":5825,"renov":5826,"9.5</w>":5827,"currency</w>":5828,"Cont":5829,"measure</w>":5830,"expectations</w>":5831,"observation</w>":5832,"thirds</w>":5833,"1864</w>":5834,"sexu":5835,"Army</w>":5836,"Prevalence</w>":5837,"kilowatt</w>":5838,"tickets</w>":5839,"collected</w>":5840,"stead</w>":5841,"Production</w>":5842,"except</w>":5843,"subscribed</w>":5844,"Corp.</w>":5845,"visitor</w>":5846,"computing</w>":5847,"cycle</w>":5848,"little</w>":5849,"power":5850,"Korean</w>":5851,"identify</w>":5852,"traveling</w>":5853,"downloading</w>":5854,"enrollment</w>":5855,"strong</w>":5856,"undergraduate</w>":5857,"prescribed</w>":5858,"occupancy</w>":5859,"occupied</w>":5860,"audiences</w>":5861,"availability</w>":5862,"familiarity</w>":5863,"hygiene</w>":5864,"linois</w>":5865,"cirrho":5866,"John</w>":5867,"Basketball</w>":5868,"conflic":5869,"messages</w>":5870,"Isra":5871,"vendors</w>":5872,"supermarkets</w>":5873,"servative</w>":5874,"holders</w>":5875,"lifestyle</w>":5876,"Laurent</w>":5877,"Warcraft</w>":5878,"shorta":5879,"occasionally</w>":5880,"cinema</w>":5881,"destinations</w>":5882,"Employment</w>":5883,"heroin</w>":5884,"Quarter":5885,"Volume</w>":5886,"bullying</w>":5887,"operator</w>":5888,"analysis</w>":5889,"biotech</w>":5890,"kind</w>":5891,"taxes</w>":5892,"medals</w>":5893,"Brussel":5894,"Serbia</w>":5895,"Senate</w>":5896,"Flem":5897,"automotive</w>":5898,"echers</w>":5899,"Skechers</w>":5900,"established</w>":5901,"podcasts</w>":5902,"bracket</w>":5903,"necessary</w>":5904,"baby</w>":5905,"bottled</w>":5906,"CEOs</w>":5907,"independent</w>":5908,"carbon</w>":5909,"harassment</w>":5910,"Music</w>":5911,"questi":5912,"fraud</w>":5913,"episode</w>":5914,"Arabia</w>":5915,"hardware</w>":5916,"calculated</w>":5917,"Custom":5918,"Fertility</w>":5919,"falling</w>":5920,"example</w>":5921,"Democrat</w>":5922,"journalists</w>":5923,"citizenship</w>":5924,"Taiwan</w>":5925,"Illinois</w>":5926,"Somalia</w>":5927,"behind</w>":5928,"demographic</w>":5929,"Bangladesh</w>":5930,"confectionery</w>":5931,"LTE</w>":5932,"Puerto</w>":5933,"Bowl</w>":5934,"Cleveland</w>":5935,"Ghana</w>":5936,"Gulf</w>":5937,"Zealand</w>":5938,"brought</w>":5939,"feit</w>":5940,"opportunity</w>":5941,"hazardous</w>":5942,"interviewees</w>":5943,"cirrhosis</w>":5944,"Quarterly</w>":5945,"-be":5946,"-day</w>":5947,"0,":5948,"120</w>":5949,"12,":5950,"3D</w>":5951,"57.":5952,"AC":5953,"Award</w>":5954,"Cre":5955,"Clu":5956,"DI</w>":5957,"Data</w>":5958,"Flin":5959,"GVA</w>":5960,"Gender</w>":5961,"HS":5962,"Jer":5963,"Kansas</w>":5964,"Los</w>":5965,"MC":5966,"Nation":5967,"Ok":5968,"Ph":5969,"PU</w>":5970,"RO</w>":5971,"Ren":5972,"Rap":5973,"Ste":5974,"Sud":5975,"Stre":5976,"SRI</w>":5977,"TI":5978,"Tuni":5979,"Us":5980,"Up</w>":5981,"Wall":5982,"cam":5983,"care":5984,"cream</w>":5985,"day":5986,"ddit</w>":5987,"dining</w>":5988,"ear</w>":5989,"eds</w>":5990,"gas":5991,"greg":5992,"gall":5993,"less":5994,"mol":5995,"mis":5996,"op</w>":5997,"pass</w>":5998,"paper</w>":5999,"rying</w>":6000,"sa</w>":6001,"swe":6002,"want</w>":6003,"you":6004,"ywood</w>":6005,"ero":6006,"eral</w>":6007,"eries</w>":6008,"tiles</w>":6009,"eni":6010,"enou":6011,"encing</w>":6012,"inte":6013,"anes</w>":6014,"anks":6015,"roles</w>":6016,"relie":6017,"reduction</w>":6018,"reduce</w>":6019,"oring</w>":6020,"attr":6021,"atory</w>":6022,"illegal</w>":6023,"stayed</w>":6024,"stco</w>":6025,"diff":6026,"asi":6027,"ase</w>":6028,"aga</w>":6029,"oldest</w>":6030,"eles</w>":6031,"spring</w>":6032,"spondents</w>":6033,"sight</w>":6034,"silicon</w>":6035,"2028</w>":6036,"optim":6037,"These</w>":6038,"Thanks":6039,"deed</w>":6040,"icals</w>":6041,"ically</w>":6042,"U.S.":6043,"ush</w>":6044,"2006":6045,"comfor":6046,"began</w>":6047,"beef</w>":6048,"sea</w>":6049,"seas</w>":6050,"adoption</w>":6051,"wearing</w>":6052,"model</w>":6053,"survi":6054,"whose</w>":6055,"che</w>":6056,"chur":6057,"championship</w>":6058,"exchange</w>":6059,"onds</w>":6060,"abled</w>":6061,"ghting</w>":6062,"quite</w>":6063,"means</w>":6064,"prison</w>":6065,"producer</w>":6066,"rans":6067,"incidents</w>":6068,"avid</w>":6069,"trition</w>":6070,"gram":6071,"genders</w>":6072,"present</w>":6073,"recy":6074,"recession</w>":6075,"1910</w>":6076,"1989</w>":6077,"eph":6078,"house":6079,"hob":6080,"not":6081,"highly</w>":6082,"heter":6083,"hedge</w>":6084,"andor":6085,"tures</w>":6086,"entially</w>":6087,"decile</w>":6088,"casin":6089,"fossil</w>":6090,"overseas</w>":6091,"boss</w>":6092,"board</w>":6093,"baseball</w>":6094,"4.8</w>":6095,"udi</w>":6096,"ire</w>":6097,"6.2</w>":6098,"brow":6099,"employee</w>":6100,"5.2</w>":6101,"Real</w>":6102,"Reddit</w>":6103,"Respondents</w>":6104,"8.4</w>":6105,"justi":6106,"tury</w>":6107,"child-be":6108,"geo":6109,"Indiana</w>":6110,"Lee</w>":6111,"cipated</w>":6112,"offs</w>":6113,"reless</w>":6114,"relative</w>":6115,"cancel":6116,"volution</w>":6117,"fici":6118,"fically</w>":6119,"Russians</w>":6120,"rental</w>":6121,"Swedes</w>":6122,"9.3</w>":6123,"help</w>":6124,"develop</w>":6125,"Confeder":6126,"branded</w>":6127,"financing</w>":6128,"foot</w>":6129,"foods</w>":6130,"provide</w>":6131,"passed</w>":6132,"effecti":6133,"closed</w>":6134,"alizing</w>":6135,"differences</w>":6136,"Cost</w>":6137,"Costco</w>":6138,"function</w>":6139,"Product</w>":6140,"Likelihood</w>":6141,"something</w>":6142,"experiences</w>":6143,"waves</w>":6144,"youngest</w>":6145,"institutional</w>":6146,"favored</w>":6147,"weekend</w>":6148,"responses</w>":6149,"charged</w>":6150,"century</w>":6151,"/05</w>":6152,"Stories</w>":6153,"Mont":6154,"speakers</w>":6155,"flight</w>":6156,"10.6</w>":6157,"Malaysian</w>":6158,"occupations</w>":6159,"17.8</w>":6160,"awareness</w>":6161,"communications</w>":6162,"called</w>":6163,"arrived</w>":6164,"Millennial</w>":6165,"greatly</w>":6166,"issued</w>":6167,"printing</w>":6168,"driving</w>":6169,"recovery</w>":6170,"religion</w>":6171,"acquisitions</w>":6172,"toms</w>":6173,"erie</w>":6174,"conventional</w>":6175,"admini":6176,"mainly</w>":6177,"official</w>":6178,"emerging</w>":6179,"senior</w>":6180,"longer</w>":6181,"male/":6182,"racial</w>":6183,"NAFT":6184,"taxis</w>":6185,"counterfeit</w>":6186,"Airport</w>":6187,"Saudi</w>":6188,"dominated</w>":6189,"Size</w>":6190,"labor</w>":6191,"newspapers</w>":6192,"Atlan":6193,"Attitu":6194,"S.A.</w>":6195,"Survey</w>":6196,"composite</w>":6197,"murder</w>":6198,"describes</w>":6199,"Sunday</w>":6200,"bicycles</w>":6201,"recreation</w>":6202,"ARPU</w>":6203,"tonnes</w>":6204,"return</w>":6205,"-year-olds</w>":6206,"Angeles</w>":6207,"Cambodi":6208,"Freedom</w>":6209,"cross-border</w>":6210,"defense</w>":6211,"Statista</w>":6212,"intentional</w>":6213,"executives</w>":6214,"fantasy</w>":6215,"enforcement</w>":6216,"symptoms</w>":6217,"strategies</w>":6218,"Rwanda</w>":6219,"Bloomin</w>":6220,"2004/05</w>":6221,"experts</w>":6222,"fordable</w>":6223,"Israel</w>":6224,"Flint</w>":6225,"HSBC</w>":6226,"Nationwide</w>":6227,"Sudan</w>":6228,"Tunisia</w>":6229,"enough</w>":6230,"optimi":6231,"Thanksgiving</w>":6232,"child-bearing</w>":6233,"effectiveness</w>":6234,"male/female</w>":6235,"NAFTA</w>":6236,"Cambodia</w>":6237,"24":6238,"27":6239,"32.":6240,"48":6241,"42.":6242,"Ag":6243,"Asi":6244,"Ara":6245,"Ben":6246,"Bone":6247,"Cy":6248,"Cur":6249,"Cumulative</w>":6250,"Ed":6251,"Ethi":6252,"Fem":6253,"FDI</w>":6254,"Is</w>":6255,"Jord":6256,"Lo":6257,"Leb":6258,"Lig":6259,"MS":6260,"Mor":6261,"MFI":6262,"Nam":6263,"OT":6264,"Pw":6265,"Pandor":6266,"SE</w>":6267,"San":6268,"Smar":6269,"Sci":6270,"Saga</w>":6271,"Serie</w>":6272,"Tec":6273,"Tex":6274,"Would</w>":6275,"abe":6276,"bon":6277,"breas":6278,"bled</w>":6279,"bados</w>":6280,"cited</w>":6281,"del":6282,"ek</w>":6283,"eth</w>":6284,"even":6285,"mates</w>":6286,"neigh":6287,"panic</w>":6288,"pumps</w>":6289,"que</w>":6290,"ro</w>":6291,"ri</w>":6292,"test</w>":6293,"tants</w>":6294,"tend</w>":6295,"win</w>":6296,"wks</w>":6297,"zers</w>":6298,"ès</w>":6299,"tiary</w>":6300,"ticians</w>":6301,"enting</w>":6302,"ind":6303,"inv":6304,"int</w>":6305,"inc</w>":6306,"instr":6307,"inbound</w>":6308,"anon</w>":6309,"anxi":6310,"rely</w>":6311,"recomm":6312,"returns</w>":6313,"2016":6314,"arding</w>":6315,"arily</w>":6316,"takes</w>":6317,"orts</w>":6318,"orders</w>":6319,"alers</w>":6320,"allocated</w>":6321,"alumin":6322,"ator</w>":6323,"atem":6324,"ators</w>":6325,"rice</w>":6326,"ilway</w>":6327,"star</w>":6328,"stage</w>":6329,"sh-":6330,"shared</w>":6331,"diet</w>":6332,"diabe":6333,"acres</w>":6334,"agine</w>":6335,"emo":6336,"sius</w>":6337,"ounced</w>":6338,"prote":6339,"oping</w>":6340,"opia</w>":6341,"opening</w>":6342,"ults</w>":6343,"use":6344,"const":6345,"constitu":6346,"convic":6347,"appreci":6348,"unmarried</w>":6349,"aders</w>":6350,"addic":6351,"adiness</w>":6352,"addition</w>":6353,"adoles":6354,"web</w>":6355,"rub":6356,"chant</w>":6357,"prepar":6358,"endment</w>":6359,"expl":6360,"marily</w>":6361,"coca":6362,"cobal":6363,"imp":6364,"impe":6365,"abama</w>":6366,"responded</w>":6367,"count</w>":6368,"counted</w>":6369,"tera":6370,"tertiary</w>":6371,"quantity</w>":6372,"cil</w>":6373,"dogs</w>":6374,"peer</w>":6375,"primarily</w>":6376,"producers</w>":6377,"corporation</w>":6378,"merchant</w>":6379,"triple</w>":6380,"pos":6381,"posts</w>":6382,"former":6383,"198":6384,"1975</w>":6385,"1972</w>":6386,"1988</w>":6387,"entatives</w>":6388,"sos</w>":6389,"soap</w>":6390,"noted</w>":6391,"generational</w>":6392,"generating</w>":6393,"voice</w>":6394,"tuition</w>":6395,"bike</w>":6396,"entific</w>":6397,"picture</w>":6398,"former</w>":6399,"railway</w>":6400,"ources</w>":6401,"New":6402,"tested</w>":6403,"testing</w>":6404,"essential</w>":6405,"over-":6406,"4.6</w>":6407,"irates</w>":6408,"6.4</w>":6409,"classes</w>":6410,"transi":6411,"5.3</w>":6412,"sportswear</w>":6413,"Readiness</w>":6414,"musi":6415,"7.7</w>":6416,"risen</w>":6417,"e-book</w>":6418,"e-books</w>":6419,"subsector</w>":6420,"commit":6421,"Who</w>":6422,"Whereas</w>":6423,"furni":6424,"laws</w>":6425,"laway</w>":6426,"fuels</w>":6427,"Alabama</w>":6428,"measuring</w>":6429,"Med":6430,"thetic</w>":6431,"sym":6432,"managed</w>":6433,"worker</w>":6434,"demon":6435,"differenti":6436,"francs</w>":6437,"exception</w>":6438,"Part</w>":6439,"Paris</w>":6440,"Whilst</w>":6441,"experiencing</w>":6442,"created</w>":6443,"reveal</w>":6444,"special</w>":6445,"specifically</w>":6446,"High":6447,"etro":6448,"1,0":6449,"1,3":6450,"/07</w>":6451,"anticipated</w>":6452,"Barbados</w>":6453,"agreeing</w>":6454,"graduation</w>":6455,"remains</w>":6456,"varied</w>":6457,"eleven</w>":6458,"debit</w>":6459,"streamed</w>":6460,"11.3</w>":6461,"delivered</w>":6462,"indicate</w>":6463,"accepted</w>":6464,"stically</w>":6465,"Despite</w>":6466,"second-":6467,"ligible</w>":6468,"14.5</w>":6469,"know":6470,"Guatem":6471,"models</w>":6472,"distance</w>":6473,"year-on-year</w>":6474,"valuable</w>":6475,"looking</w>":6476,"freight</w>":6477,"freedom</w>":6478,"smokers</w>":6479,"drive</w>":6480,"recovered</w>":6481,"chewing</w>":6482,"considerably</w>":6483,"Social</w>":6484,"dental</w>":6485,"trol</w>":6486,"sample</w>":6487,"chose</w>":6488,"Carrabb":6489,"similarly</w>":6490,"maintained</w>":6491,"wholesalers</w>":6492,"doctor</w>":6493,"steady</w>":6494,"Asse":6495,"Super</w>":6496,"pension</w>":6497,"listening</w>":6498,"treatments</w>":6499,"divorces</w>":6500,"rupt</w>":6501,"Org":6502,"mortg":6503,"Payment</w>":6504,"Servi":6505,"prevention</w>":6506,"licensing</w>":6507,"Herman</w>":6508,"Hermès</w>":6509,"blogs</w>":6510,"2020/2021</w>":6511,"diamonds</w>":6512,"Fort":6513,"needs</w>":6514,"animal</w>":6515,"automobile</w>":6516,"qualified</w>":6517,"associated</w>":6518,"establish":6519,"bicycle</w>":6520,"dispos":6521,"recreational</w>":6522,"Council</w>":6523,"personnel</w>":6524,"refined</w>":6525,"volunte":6526,"Celsius</w>":6527,"Cooperation</w>":6528,"consequences</w>":6529,"gigawatt</w>":6530,"Opinion</w>":6531,"temperature</w>":6532,"Brunsw":6533,"Callaway</w>":6534,"Hotels</w>":6535,"founded</w>":6536,"consoles</w>":6537,"Catalonia</w>":6538,"EBIT":6539,"billions</w>":6540,"exhibi":6541,"terrorism</w>":6542,"Treat":6543,"motivation</w>":6544,"sponsors</w>":6545,"magazines</w>":6546,"subject</w>":6547,"greenhouse</w>":6548,"Entertainment</w>":6549,"EU-28</w>":6550,"â€™s</w>":6551,"Hollywood</w>":6552,"Panama</w>":6553,"endors":6554,"suffering</w>":6555,"therapy</w>":6556,"attention</w>":6557,"sexuality</w>":6558,"Club</w>":6559,"Renault</w>":6560,"Usage</w>":6561,"sweet</w>":6562,"U.S.-based</w>":6563,"2006/07</w>":6564,"Arab</w>":6565,"Bonefish</w>":6566,"Ethiopia</w>":6567,"Jordan</w>":6568,"Lebanon</w>":6569,"Liga</w>":6570,"MFIs</w>":6571,"PwC</w>":6572,"Texas</w>":6573,"breast</w>":6574,"instrum":6575,"aluminum</w>":6576,"prepared</w>":6577,"cocaine</w>":6578,"Guatemala</w>":6579,"Carrabba</w>":6580,"Brunswick</w>":6581,"EBITDA</w>":6582,"-F":6583,"130</w>":6584,"2P</w>":6585,"31.":6586,"39.":6587,"4,000</w>":6588,"43.":6589,"61.":6590,"67.":6591,"80.":6592,"AG":6593,"Bal":6594,"Bol":6595,"Bus":6596,"Best</w>":6597,"Bir":6598,"CB":6599,"CV":6600,"C.</w>":6601,"Cup</w>":6602,"Danes</w>":6603,"Ets":6604,"GB</w>":6605,"Gren":6606,"Gaz":6607,"Hy":6608,"Io":6609,"Ip":6610,"Lau":6611,"Mace":6612,"NG":6613,"Nat":6614,"Nic":6615,"Office</w>":6616,"PV":6617,"Pa":6618,"Pho":6619,"Pra":6620,"P2P</w>":6621,"Red</w>":6622,"Sou":6623,"Te":6624,"Tan":6625,"Ug":6626,"Vic":6627,"Vinc":6628,"Veg":6629,"Watch</w>":6630,"Will</w>":6631,"by":6632,"bre":6633,"bag":6634,"bies</w>":6635,"bil</w>":6636,"bak":6637,"battle</w>":6638,"cation</w>":6639,"cep":6640,"cau":6641,"cumulative</w>":6642,"cows</w>":6643,"di</w>":6644,"dated</w>":6645,"dding</w>":6646,"dless</w>":6647,"dried</w>":6648,"doping</w>":6649,"ees</w>":6650,"een</w>":6651,"evolution</w>":6652,"eligible</w>":6653,"fat</w>":6654,"fla":6655,"fying</w>":6656,"gation</w>":6657,"ggage</w>":6658,"hub":6659,"ibia</w>":6660,"iOS</w>":6661,"kal":6662,"kTo":6663,"kish</w>":6664,"kitchen</w>":6665,"lor":6666,"lac":6667,"ley</w>":6668,"lay":6669,"lack</w>":6670,"lene</w>":6671,"lenses</w>":6672,"mon</w>":6673,"nout</w>":6674,"navi":6675,"pat":6676,"prom</w>":6677,"pool</w>":6678,"pain</w>":6679,"psy":6680,"pup":6681,"ram":6682,"sm</w>":6683,"ser</w>":6684,"sey</w>":6685,"sse</w>":6686,"snia</w>":6687,"tary</w>":6688,"tte":6689,"tfall</w>":6690,"va</w>":6691,"vin":6692,"wan":6693,"xon":6694,"ylene</w>":6695,"zer</w>":6696,"zeg":6697,"zania</w>":6698,"zinc</w>":6699,"thes</w>":6700,"erc":6701,"time":6702,"2035</w>":6703,"enty</w>":6704,"encies</w>":6705,"inking</w>":6706,"instead</w>":6707,"ancing</w>":6708,"rosse</w>":6709,"resi":6710,"refers</w>":6711,"arm":6712,"arm</w>":6713,"arag":6714,"onary</w>":6715,"alkal":6716,"lio</w>":6717,"liers</w>":6718,"perceptions</w>":6719,"il-":6720,"ection</w>":6721,"stro":6722,"stres":6723,"assum":6724,"ack":6725,"actually</w>":6726,"eled</w>":6727,"spreading</w>":6728,"umb":6729,"uma</w>":6730,"program":6731,"desc":6732,"consec":6733,"contained</w>":6734,"logy</w>":6735,"version</w>":6736,"beet</w>":6737,"uninsured</w>":6738,"track</w>":6739,"ado</w>":6740,"adop":6741,"wedding</w>":6742,"ided</w>":6743,"surface</w>":6744,"ch-":6745,"co-":6746,"grossing</w>":6747,"image</w>":6748,"imagine</w>":6749,"le-":6750,"meeting</w>":6751,"vens</w>":6752,"populations</w>":6753,"prime</w>":6754,"priorities</w>":6755,"supre":6756,"super</w>":6757,"corrupt</w>":6758,"aising</w>":6759,"aviation</w>":6760,"plu":6761,"poor</w>":6762,"forces</w>":6763,"gro</w>":6764,"makes</w>":6765,"recall</w>":6766,"190</w>":6767,"Marvel</w>":6768,"luggage</w>":6769,"amounts</w>":6770,"ximate</w>":6771,"monary</w>":6772,"heavy</w>":6773,"generate</w>":6774,"bisexual</w>":6775,"ram</w>":6776,"outcome</w>":6777,"outbound</w>":6778,"Chem":6779,"eggs</w>":6780,"3.4</w>":6781,"bot":6782,"basic</w>":6783,"finished</w>":6784,"facial</w>":6785,"fear</w>":6786,"fety</w>":6787,"4.3</w>":6788,"6.8</w>":6789,"clin":6790,"5.8</w>":6791,"mid</w>":6792,"required</w>":6793,"enges</w>":6794,"risks</w>":6795,"juice</w>":6796,"father</w>":6797,"cut</w>":6798,"cuis":6799,"custo":6800,"wireless</w>":6801,"ovina</w>":6802,"water":6803,"watts</w>":6804,"selfi":6805,"shopped</w>":6806,"offer</w>":6807,"mination</w>":6808,"minorities</w>":6809,"mineral</w>":6810,"subst":6811,"Green":6812,"relations</w>":6813,"ign":6814,"attending</w>":6815,"attend</w>":6816,"Occup":6817,"Mobil</w>":6818,"blame</w>":6819,"olog":6820,"Affordable</w>":6821,"criminal</w>":6822,"species</w>":6823,"9.9</w>":6824,"Metro</w>":6825,"paying</w>":6826,"dram":6827,"draising</w>":6828,"market":6829,"1820</w>":6830,"1896</w>":6831,"clothes</w>":6832,"disinfec":6833,"Bosnia</w>":6834,"developing</w>":6835,"Co.</w>":6836,"regards</w>":6837,"Parliament</w>":6838,"dropower</w>":6839,"records</w>":6840,"winery</w>":6841,"contrary</w>":6842,"searched</w>":6843,"booked</w>":6844,"Finn":6845,"manufacture</w>":6846,"shipped</w>":6847,"physically</w>":6848,"Mali</w>":6849,"drug":6850,"taining</w>":6851,"upward</w>":6852,"conditi":6853,"donation</w>":6854,"start-":6855,"possibility</w>":6856,"Death</w>":6857,"GameS":6858,"seconds</w>":6859,"readiness</w>":6860,"Exxon":6861,"client</w>":6862,"Guine":6863,"st-paid</w>":6864,"Poli":6865,"handling</w>":6866,"Walt</w>":6867,"contracting</w>":6868,"Adv":6869,"lining</w>":6870,"18.9</w>":6871,"peaking</w>":6872,"Miller</w>":6873,"claims</w>":6874,"free":6875,"self-reported</w>":6876,"nominees</w>":6877,"completely</w>":6878,"environments</w>":6879,"messenger</w>":6880,"Turkish</w>":6881,"Islands</w>":6882,"Islam":6883,"supermarket</w>":6884,"Bah":6885,"chemicals</w>":6886,"to-peer</w>":6887,"legalization</w>":6888,"glass</w>":6889,"penalty</w>":6890,"abortions</w>":6891,"surgery</w>":6892,"mask</w>":6893,"extreme</w>":6894,"o-economic</w>":6895,"er-to-peer</w>":6896,"burg</w>":6897,"biotechnology</w>":6898,"al-mining</w>":6899,"advance</w>":6900,"advanced</w>":6901,"packaged</w>":6902,"packaging</w>":6903,"intentions</w>":6904,"processor</w>":6905,"People</w>":6906,"B2C</w>":6907,"TikTo":6908,"check</w>":6909,"Capital</w>":6910,"S.p.":6911,"limited</w>":6912,"influenza</w>":6913,"Elect":6914,"Second</w>":6915,"brackets</w>":6916,"Countries</w>":6917,"announced</w>":6918,"diversity</w>":6919,"modern</w>":6920,"Bible</w>":6921,"Herzeg":6922,"widely</w>":6923,"reflects</w>":6924,"avoiding</w>":6925,"scores</w>":6926,"motorcycle</w>":6927,"derived</w>":6928,"introduction</w>":6929,"raised</w>":6930,"atrio":6931,"monitoring</w>":6932,"recognized</w>":6933,"Ministry</w>":6934,"NHL</w>":6935,"carriers</w>":6936,"Household</w>":6937,"everyday</w>":6938,"PPP</w>":6939,"human</w>":6940,"tournam":6941,"yield</w>":6942,"studi":6943,"withdrawn</w>":6944,"freelance</w>":6945,"Favorite</w>":6946,"achieved</w>":6947,"Louis</w>":6948,"aspects</w>":6949,"graphy</w>":6950,"Dollar</w>":6951,"oppose</w>":6952,"grounds</w>":6953,"legis":6954,"capitalization</w>":6955,"shortages</w>":6956,"Brussels</w>":6957,"Flemish</w>":6958,"questions</w>":6959,"Customer</w>":6960,"hobbies</w>":6961,"heterosexual</w>":6962,"Confederate</w>":6963,"Atlanta</w>":6964,"Namibia</w>":6965,"Pandora</w>":6966,"Scientific</w>":6967,"Techn":6968,"anxiety</w>":6969,"diabetes</w>":6970,"constantly</w>":6971,"impeach":6972,"terawatt</w>":6973,"transit</w>":6974,"differentiated</w>":6975,"Organi":6976,"mortgages</w>":6977,"Fortune</w>":6978,"exhibition</w>":6979,"-Fi</w>":6980,"Etsy</w>":6981,"Gazprom</w>":6982,"Ipsos</w>":6983,"Macedon":6984,"Natural</w>":6985,"Nicarag":6986,"PVH</w>":6987,"Tanzania</w>":6988,"bakery</w>":6989,"lacrosse</w>":6990,"wanted</w>":6991,"timeframe</w>":6992,"custody</w>":6993,"GameStop</w>":6994,"ExxonMobil</w>":6995,"Guinea</w>":6996,"Islamic</w>":6997,"TikTok</w>":6998,"S.p.A.</w>":6999,"Herzegovina</w>":7000,"Nicaragua</w>":7001,"-Z":7002,"-2</w>":7003,"-Bo":7004,".C.</w>":7005,"13":7006,"110</w>":7007,"28":7008,"30,000</w>":7009,"50,000</w>":7010,"6,000</w>":7011,"64.":7012,"600</w>":7013,"AP":7014,"Abor":7015,"Blu":7016,"Bud":7017,"Bla":7018,"C-":7019,"CI":7020,"Cine":7021,"Do":7022,"DS</w>":7023,"Dall":7024,"DRA":7025,"Econ":7026,"Flanders</w>":7027,"Gran":7028,"God</w>":7029,"Goods</w>":7030,"Hen":7031,"Hul":7032,"IW":7033,"Jim":7034,"Ku":7035,"King</w>":7036,"Ly":7037,"LG</w>":7038,"Las</w>":7039,"LCD</w>":7040,"Many</w>":7041,"Macy</w>":7042,"Oper":7043,"Oman</w>":7044,"OPE":7045,"PN</w>":7046,"Plan":7047,"Phar":7048,"Pot":7049,"Patrio":7050,"Roo":7051,"S-":7052,"Sm":7053,"Sub":7054,"SAR":7055,"Trans":7056,"VAT</w>":7057,"Wil":7058,"Year</w>":7059,"aver":7060,"atar</w>":7061,"bat":7062,"bru":7063,"bric":7064,"cr":7065,"cken</w>":7066,"d/":7067,"dom":7068,"denti":7069,"ei</w>":7070,"eties</w>":7071,"fro":7072,"gab":7073,"gmen":7074,"hre":7075,"hem":7076,"i.":7077,"ities</w>":7078,"ki":7079,"knew</w>":7080,"m-commerce</w>":7081,"nur":7082,"nership</w>":7083,"osc":7084,"pts</w>":7085,"pel":7086,"pes":7087,"pound</w>":7088,"pir":7089,"rul":7090,"san":7091,"sil":7092,"sen</w>":7093,"ssed</w>":7094,"sani":7095,"snow</w>":7096,"tol":7097,"tel":7098,"tch":7099,"tome":7100,"ttings</w>":7101,"ut</w>":7102,"vi</w>":7103,"von</w>":7104,"vag":7105,"vate</w>":7106,"vory</w>":7107,"ware":7108,"y/":7109,"yl</w>":7110,"zhe":7111,"Ã©":7112,"the-":7113,"thus</w>":7114,"inmates</w>":7115,"row</w>":7116,"rock</w>":7117,"redi":7118,"reports</w>":7119,"aria</w>":7120,"orLuxottica</w>":7121,"orado</w>":7122,"perm":7123,"lic</w>":7124,"limi":7125,"libr":7126,"ater</w>":7127,"riz":7128,"rich</w>":7129,"rities</w>":7130,"ille</w>":7131,"ecting</w>":7132,"staying</w>":7133,"stere":7134,"shers</w>":7135,"actors</w>":7136,"aggreg":7137,"elings</w>":7138,"spou":7139,"statistics</w>":7140,"emi":7141,"amas</w>":7142,"sition</w>":7143,"oph":7144,"ope</w>":7145,"opram</w>":7146,"optome":7147,"Those</w>":7148,"de-":7149,"deter":7150,"depo":7151,"destri":7152,"conce":7153,"versely</w>":7154,"betting</w>":7155,"appo":7156,"apparent</w>":7157,"uns</w>":7158,"unchanged</w>":7159,"unfavorable</w>":7160,"unhealthy</w>":7161,"trading</w>":7162,"trying</w>":7163,"settings</w>":7164,"ad-":7165,"weigh":7166,"modi":7167,"chance</w>":7168,"prev":7169,"esare":7170,"extern":7171,"ooks</w>":7172,"give</w>":7173,"compens":7174,"tery</w>":7175,"secure</w>":7176,"meal</w>":7177,"metal</w>":7178,"petrol</w>":7179,"pedestri":7180,"ve-year</w>":7181,"producing</w>":7182,"sum</w>":7183,"sures</w>":7184,"cork</w>":7185,"marking</w>":7186,"incumb":7187,"trists</w>":7188,"pois":7189,"forced</w>":7190,"parks</w>":7191,"parliam":7192,"parliament</w>":7193,"mathem":7194,"rect</w>":7195,"1976</w>":7196,"ffany</w>":7197,"increasingly</w>":7198,"yoga</w>":7199,"Indeed</w>":7200,"soon</w>":7201,"hot</w>":7202,"monetary</w>":7203,"isol":7204,"1.14</w>":7205,"gum</w>":7206,"hearing</w>":7207,"reats</w>":7208,"meditation</w>":7209,"entiment</w>":7210,"nival</w>":7211,"eurozone</w>":7212,"decor":7213,"declining</w>":7214,"economies</w>":7215,"display</w>":7216,"accur":7217,"accessi":7218,"casual</w>":7219,"foc":7220,"folio</w>":7221,"over-year</w>":7222,"ego</w>":7223,"bol</w>":7224,"two-":7225,"faced</w>":7226,"feelings</w>":7227,"4.9</w>":7228,"0.1</w>":7229,"regard</w>":7230,"brokers</w>":7231,"sche</w>":7232,"cled</w>":7233,"clays</w>":7234,"requi":7235,"7.3</w>":7236,"8.6</w>":7237,"fast-":7238,"arians</w>":7239,"gees</w>":7240,"previously</w>":7241,"Levi</w>":7242,"cargo</w>":7243,"offshore</w>":7244,"offenders</w>":7245,"minor</w>":7246,"minus</w>":7247,"subm":7248,"Green</w>":7249,"cane</w>":7250,"talopram</w>":7251,"Moro":7252,"Mosco":7253,"signs</w>":7254,"considering</w>":7255,"cats</w>":7256,"enditure</w>":7257,"on-based</w>":7258,"9.4</w>":7259,"visions</w>":7260,"Constitu":7261,"fugees</w>":7262,"Alliance</w>":7263,"Mean</w>":7264,"part-time</w>":7265,"believing</w>":7266,"syn":7267,"ethnicities</w>":7268,"providing</w>":7269,"closure</w>":7270,"disruption</w>":7271,"discovered</w>":7272,"disapprove</w>":7273,"sexi":7274,"Botte":7275,"2019/2020</w>":7276,"intend</w>":7277,"Coast</w>":7278,"regardless</w>":7279,"fundraising</w>":7280,"safety</w>":7281,"excell":7282,"cultural</w>":7283,"transgender</w>":7284,"subscriber</w>":7285,"subscribing</w>":7286,"positi":7287,"favorability</w>":7288,"joining</w>":7289,"1,5":7290,"1,9":7291,"waii</w>":7292,"macro-":7293,"Intern":7294,"Barclays</w>":7295,"colleague</w>":7296,"ski</w>":7297,"Colorado</w>":7298,"Trade</w>":7299,"memb":7300,"10,":7301,"107</w>":7302,"planted</w>":7303,"socio-economic</w>":7304,"debate</w>":7305,"Amendment</w>":7306,"Roma</w>":7307,"powder</w>":7308,"identifying</w>":7309,"matter</w>":7310,"10.9</w>":7311,"Hawaii</w>":7312,"orie</w>":7313,"well-":7314,"aches</w>":7315,"crop</w>":7316,"affect</w>":7317,"diagnosis</w>":7318,"courses</w>":7319,"representing</w>":7320,"severity</w>":7321,"17.6</w>":7322,"hydropower</w>":7323,"leaving</w>":7324,"distancing</w>":7325,"contracep":7326,"kids</w>":7327,"calorie</w>":7328,"flu</w>":7329,"publishers</w>":7330,"driver</w>":7331,"nationals</w>":7332,"cheese</w>":7333,"chester</w>":7334,"Under</w>":7335,"Fossil</w>":7336,"names</w>":7337,"Medical</w>":7338,"shot</w>":7339,"back-to-":7340,"four-year</w>":7341,"Comparatively</w>":7342,"Carol":7343,"Carnival</w>":7344,"in-app</w>":7345,"remotely</w>":7346,"strict</w>":7347,"process</w>":7348,"docum":7349,"doctors</w>":7350,"officially</w>":7351,"continuously</w>":7352,"La-Z":7353,"doubled</w>":7354,"short</w>":7355,"potentially</w>":7356,"Veneta</w>":7357,"affiliated</w>":7358,"microfinance</w>":7359,"microprocessor</w>":7360,"burnout</w>":7361,"malaria</w>":7362,"assisted</w>":7363,"benefici":7364,"kinson</w>":7365,"loyalty</w>":7366,"advanta":7367,"intention</w>":7368,"installed</w>":7369,"license</w>":7370,"dominant</w>":7371,"material</w>":7372,"Tiffany</w>":7373,"Virgin</w>":7374,"baba</w>":7375,"babwe</w>":7376,"connection</w>":7377,"teacher</w>":7378,"feature</w>":7379,"anime</w>":7380,"Military</w>":7381,"composition</w>":7382,"qualification</w>":7383,"multi-channel</w>":7384,"Harry</w>":7385,"Within</w>":7386,"Wi-Fi</w>":7387,"a-Pacific</w>":7388,"panel</w>":7389,"consists</w>":7390,"moderate</w>":7391,"-year-old</w>":7392,"Out</w>":7393,"appeared</w>":7394,"Charlot":7395,"Manchester</w>":7396,"William</w>":7397,"utili":7398,"medication</w>":7399,"analysts</w>":7400,"Madrid</w>":7401,"item</w>":7402,"atric</w>":7403,"challenges</w>":7404,"Presidential</w>":7405,"Preferred</w>":7406,"sleep</w>":7407,"originated</w>":7408,"Labour</w>":7409,"Maghre":7410,"Timber":7411,"Zimbabwe</w>":7412,"opioid</w>":7413,"concentration</w>":7414,"out-of-pocket</w>":7415,"Society</w>":7416,"discussed</w>":7417,"implementation</w>":7418,"EssilorLuxottica</w>":7419,"EMEA</w>":7420,"cooking</w>":7421,"skills</w>":7422,"impressions</w>":7423,"therefore</w>":7424,"smaller</w>":7425,"Expenditure</w>":7426,"MLB</w>":7427,"eyewear</w>":7428,"upload</w>":7429,"Contribution</w>":7430,"powerful</w>":7431,"Jersey</w>":7432,"Raptors</w>":7433,"enix</w>":7434,"comfortable</w>":7435,"notebook</w>":7436,"Asia-Pacific</w>":7437,"Female</w>":7438,"Smart":7439,"bonuses</w>":7440,"neighbor":7441,"recommend":7442,"convicted</w>":7443,"formerly</w>":7444,"symbol</w>":7445,"CVS</w>":7446,"Phoenix</w>":7447,"Vegas</w>":7448,"bags</w>":7449,"navigation</w>":7450,"vinyl</w>":7451,"programming</w>":7452,"clinical</w>":7453,"disinfectants</w>":7454,"Finnish</w>":7455,"Bahamas</w>":7456,"Organization</w>":7457,"Macedonia</w>":7458,"-Boy</w>":7459,"Cineworld</w>":7460,"Dallas</w>":7461,"DRAM</w>":7462,"Grant</w>":7463,"Hulu</w>":7464,"IWG</w>":7465,"Jimmy</w>":7466,"Operating</w>":7467,"OPEC</w>":7468,"Patriots</w>":7469,"SARS-":7470,"frozen</w>":7471,"gmented</w>":7472,"oscill":7473,"pesos</w>":7474,"sanitiz":7475,"toll</w>":7476,"vaginal</w>":7477,"zheim":7478,"stereo":7479,"optometrists</w>":7480,"conceded</w>":7481,"esarean</w>":7482,"external</w>":7483,"compensation</w>":7484,"incumbent</w>":7485,"poisoning</w>":7486,"mathemati":7487,"Moscow</w>":7488,"Bottega</w>":7489,"excellent</w>":7490,"back-to-school</w>":7491,"La-Z-Boy</w>":7492,"Charlotte</w>":7493,"Maghreb</w>":7494,"'The</w>":7495,"-in</w>":7496,"-five</w>":7497,"-Sa":7498,"-sized</w>":7499,"12":7500,"49":7501,"4G</w>":7502,"5G</w>":7503,"51.":7504,"56.":7505,"63.":7506,"76":7507,"700</w>":7508,"800</w>":7509,"Adu":7510,"Ariz":7511,"BO</w>":7512,"BT</w>":7513,"Bor":7514,"CM":7515,"CT</w>":7516,"Cru":7517,"DV":7518,"E.</w>":7519,"ECD</w>":7520,"EFA</w>":7521,"FY":7522,"Four</w>":7523,"Game</w>":7524,"Globe</w>":7525,"Hom":7526,"Hallow":7527,"IK":7528,"Iri":7529,"Kon":7530,"LE":7531,"LV":7532,"Legal</w>":7533,"MH</w>":7534,"Mess":7535,"NO":7536,"No":7537,"No</w>":7538,"OECD</w>":7539,"PD</w>":7540,"Pic":7541,"Pounds</w>":7542,"Penetration</w>":7543,"Puma</w>":7544,"Qatar</w>":7545,"Ri":7546,"Rates</w>":7547,"Rak":7548,"SE":7549,"Sim":7550,"Shou":7551,"Stu":7552,"Stra":7553,"TU":7554,"TO</w>":7555,"Ter":7556,"Van":7557,"V-2</w>":7558,"WH":7559,"Yo":7560,"Yan":7561,"Year":7562,"aids</w>":7563,"bn":7564,"bit":7565,"bly</w>":7566,"bden":7567,"cel</w>":7568,"dwell":7569,"dows</w>":7570,"drank</w>":7571,"dite":7572,"ester</w>":7573,"etings</w>":7574,"est-paid</w>":7575,"fth":7576,"gur":7577,"gone</w>":7578,"guns</w>":7579,"g-in</w>":7580,"ion</w>":7581,"lv":7582,"lin</w>":7583,"laid</w>":7584,"mech":7585,"malls</w>":7586,"ny</w>":7587,"now":7588,"next":7589,"od":7590,"ods</w>":7591,"osexuality</w>":7592,"ring":7593,"race":7594,"sat":7595,"sci":7596,"ssion</w>":7597,"sentiment</w>":7598,"uten</w>":7599,"var":7600,"war":7601,"xed</w>":7602,"ym":7603,"yland</w>":7604,"ynam":7605,"ybden":7606,"th-":7607,"theless</w>":7608,"threats</w>":7609,"eria</w>":7610,"eresa</w>":7611,"enabled</w>":7612,"ination</w>":7613,"anical</w>":7614,"rooms</w>":7615,"repor":7616,"repe":7617,"review</w>":7618,"replac":7619,"reduced</w>":7620,"refugees</w>":7621,"armed</w>":7622,"or-":7623,"itely</w>":7624,"itself</w>":7625,"aling</w>":7626,"along</w>":7627,"alism</w>":7628,"him</w>":7629,"hia</w>":7630,"live":7631,"riding</w>":7632,"echia</w>":7633,"stal</w>":7634,"stacle</w>":7635,"she</w>":7636,"share":7637,"shels</w>":7638,"dish":7639,"ditions</w>":7640,"distru":7641,"asons</w>":7642,"asma</w>":7643,"ager</w>":7644,"viet</w>":7645,"visu":7646,"spo":7647,"spir":7648,"emed</w>":7649,"emon</w>":7650,"um-sized</w>":7651,"United":7652,"probab":7653,"ulemon</w>":7654,"The":7655,"Through</w>":7656,"Thinking</w>":7657,"Theresa</w>":7658,"defic":7659,"deep</w>":7660,"uss</w>":7661,"user-":7662,"log":7663,"lose</w>":7664,"2000":7665,"vertheless</w>":7666,"bedro":7667,"ape</w>":7668,"apest</w>":7669,"unsafe</w>":7670,"tra</w>":7671,"trum</w>":7672,"sevel":7673,"session</w>":7674,"adines</w>":7675,"addre":7676,"atically</w>":7677,"motion</w>":7678,"rubles</w>":7679,"portr":7680,"portable</w>":7681,"surpri":7682,"surroun":7683,"ching</w>":7684,"buil":7685,"butter</w>":7686,"bushels</w>":7687,"fiel":7688,"covers</w>":7689,"coaches</w>":7690,"immedi":7691,"imaging</w>":7692,"imposed</w>":7693,"abilities</w>":7694,"counter</w>":7695,"tom</w>":7696,"toes</w>":7697,"toor</w>":7698,"quad":7699,"quide</w>":7700,"citalopram</w>":7701,"mean":7702,"meetings</w>":7703,"peer-to-peer</w>":7704,"populated</w>":7705,"ranged</w>":7706,"ranges</w>":7707,"ranging</w>":7708,"near</w>":7709,"elected</w>":7710,"inces</w>":7711,"tried</w>":7712,"serve</w>":7713,"plant</w>":7714,"plasma</w>":7715,"pop</w>":7716,"grating</w>":7717,"COPD</w>":7718,"makers</w>":7719,"interactions</w>":7720,"interests</w>":7721,"recru":7722,"00,000</w>":7723,"1940</w>":7724,"Maryland</w>":7725,"lubric":7726,"yota</w>":7727,"Insight</w>":7728,"Indite":7729,"periods</w>":7730,"approximate</w>":7731,"sco</w>":7732,"ebo":7733,"island</w>":7734,"highli":7735,"resources</w>":7736,"bills</w>":7737,"medium-sized</w>":7738,"voc":7739,"tups</w>":7740,"bikes</w>":7741,"pick":7742,"chicken</w>":7743,"first-":7744,"train</w>":7745,"actively</w>":7746,"overtime</w>":7747,"selection</w>":7748,"sits</w>":7749,"sitting</w>":7750,"ock</w>":7751,"fee</w>":7752,"break":7753,"0.7</w>":7754,"0.2</w>":7755,"6.3</w>":7756,"company-":7757,"5.9</w>":7758,"/17</w>":7759,"requests</w>":7760,"Reasons</w>":7761,"mutual</w>":7762,"Perceived</w>":7763,"7.5</w>":7764,"7.4</w>":7765,"7.9</w>":7766,"8.2</w>":7767,"8.5</w>":7768,"8.3</w>":7769,"fail":7770,"cus</w>":7771,"turn</w>":7772,"tured</w>":7773,"brush</w>":7774,"ariff</w>":7775,"sourced</w>":7776,"Toyota</w>":7777,"Indians</w>":7778,"e-to-":7779,"cipal</w>":7780,"low-":7781,"aut":7782,"augmented</w>":7783,"Greek</w>":7784,"fications</w>":7785,"gress</w>":7786,"keeping</w>":7787,"Poles</w>":7788,"captured</w>":7789,"9.7</w>":7790,"Alber":7791,"All-":7792,"Alzheim":7793,"sylv":7794,"managing</w>":7795,"payer</w>":7796,"obstacle</w>":7797,"hourly</w>":7798,"dry</w>":7799,"drama</w>":7800,"passing</w>":7801,"Belgians</w>":7802,"18,":7803,"1860</w>":7804,"disability</w>":7805,"alist</w>":7806,"alities</w>":7807,"sexually</w>":7808,"democ":7809,"Body</w>":7810,"CoV-2</w>":7811,"non-food</w>":7812,"ticals</w>":7813,"ansa</w>":7814,"funded</w>":7815,"steel</w>":7816,"sail":7817,"Park</w>":7818,"Five</w>":7819,"Liquide</w>":7820,"cco</w>":7821,"cci</w>":7822,"sometimes</w>":7823,"homosexual</w>":7824,"homosexuality</w>":7825,"winners</w>":7826,"omination</w>":7827,"washing</w>":7828,"salon</w>":7829,"hospitality</w>":7830,"specialists</w>":7831,"specialized</w>":7832,"althy</w>":7833,"unities</w>":7834,"gained</w>":7835,"cycling</w>":7836,"haran</w>":7837,"grand":7838,"physici":7839,"/01</w>":7840,"Barcel":7841,"11.2</w>":7842,"profits</w>":7843,"electric":7844,"multiplayer</w>":7845,"10.5</w>":7846,"startups</w>":7847,"provinces</w>":7848,"Porn":7849,"Porsche</w>":7850,"achal</w>":7851,"understand</w>":7852,"reader</w>":7853,"readers</w>":7854,"Maine</w>":7855,"2,2":7856,"2,5":7857,"expense</w>":7858,"Gucci</w>":7859,"Lufth":7860,"minute</w>":7861,"Private</w>":7862,"maritime</w>":7863,"hand-":7864,"linked</w>":7865,"vacancy</w>":7866,"communicate</w>":7867,"3,6":7868,"Eni</w>":7869,"ssment</w>":7870,"practicing</w>":7871,"self-service</w>":7872,"principal</w>":7873,"23.6</w>":7874,"Black":7875,"drivers</w>":7876,"depending</w>":7877,"confident</w>":7878,"complete</w>":7879,"coup":7880,"considerable</w>":7881,"Soviet</w>":7882,"Consumers</w>":7883,"chosen</w>":7884,"backgrounds</w>":7885,"Card":7886,"friger":7887,"receipts</w>":7888,"exceeds</w>":7889,"responsibility</w>":7890,"Warsaw</w>":7891,"Emirates</w>":7892,"supplement</w>":7893,"manufactured</w>":7894,"bulk</w>":7895,"bullied</w>":7896,"NATO</w>":7897,"define</w>":7898,"athletics</w>":7899,"Airbn":7900,"preventing</w>":7901,"favour":7902,"licensed</w>":7903,"munication</w>":7904,"indicators</w>":7905,"Boomer</w>":7906,"Building</w>":7907,"labels</w>":7908,"seafood</w>":7909,"hospitalizations</w>":7910,"25th</w>":7911,"ISI":7912,"ampionships</w>":7913,"influencers</w>":7914,"Czechia</w>":7915,"topic</w>":7916,"choosing</w>":7917,"Suns</w>":7918,"pancre":7919,"podcast</w>":7920,"necessarily</w>":7921,"nonprofit</w>":7922,"portfolio</w>":7923,"bottle</w>":7924,"celebrating</w>":7925,"voluntary</w>":7926,"harassed</w>":7927,"avoided</w>":7928,"ordered</w>":7929,"medicine</w>":7930,"introduced</w>":7931,"pulmonary</w>":7932,"liquid":7933,"stoppers</w>":7934,"solid</w>":7935,"solidated</w>":7936,"Opinions</w>":7937,"temperatures</w>":7938,"Resorts</w>":7939,"rape</w>":7940,"territories</w>":7941,"potatoes</w>":7942,"recognition</w>":7943,"Horde</w>":7944,"duration</w>":7945,"homeowners</w>":7946,"sentences</w>":7947,"University</w>":7948,"opioids</w>":7949,"Alibaba</w>":7950,"Migration</w>":7951,"Robert</w>":7952,"blocking</w>":7953,"happy</w>":7954,"enjoy</w>":7955,"extraction</w>":7956,"color</w>":7957,"lululemon</w>":7958,"nickel</w>":7959,"re-election</w>":7960,"municipal</w>":7961,"sunglasses</w>":7962,"walking</w>":7963,"component</w>":7964,"postsecondary</w>":7965,"renovations</w>":7966,"conflict</w>":7967,"gallons</w>":7968,"molybden":7969,"relief</w>":7970,"church</w>":7971,"housework</w>":7972,"optimistic</w>":7973,"Cyber</w>":7974,"2016/17</w>":7975,"protesters</w>":7976,"constituted</w>":7977,"addicted</w>":7978,"adolescents</w>":7979,"cobalt</w>":7980,"establishments</w>":7981,"disposable</w>":7982,"volunteering</w>":7983,"Grenadines</w>":7984,"IoT</w>":7985,"Pradesh</w>":7986,"Uganda</w>":7987,"Vincent</w>":7988,"ercings</w>":7989,"stroke</w>":7990,"plug-in</w>":7991,"Chemical</w>":7992,"Econom":7993,"Henkel</w>":7994,"Roosevel":7995,"dentist</w>":7996,"silver</w>":7997,"teleph":7998,"deposits</w>":7999,"appoint":8000,"weighted</w>":8001,"prevent</w>":8002,"Morocco</w>":8003,"positively</w>":8004,"Carolina</w>":8005,"SARS-CoV-2</w>":8006,"-Saharan</w>":8007,"Adul":8008,"Arizona</w>":8009,"Halloween</w>":8010,"Irish</w>":8011,"Kontoor</w>":8012,"LVMH</w>":8013,"Rakuten</w>":8014,"Should</w>":8015,"Strauss</w>":8016,"TUI</w>":8017,"Vancou":8018,"Year-":8019,"dwellings</w>":8020,"mechanical</w>":8021,"varying</w>":8022,"ynamics</w>":8023,"visual</w>":8024,"UnitedHealth</w>":8025,"probably</w>":8026,"deficit</w>":8027,"address</w>":8028,"lubricant</w>":8029,"Inditex</w>":8030,"Alzheimer</w>":8031,"sylvania</w>":8032,"Barcelona</w>":8033,"Lufthansa</w>":8034,"Airbnb</w>":8035,"molybdenum</w>":8036,"Roosevelt</w>":8037,"-to</w>":8038,"...</w>":8039,"017</w>":8040,"150</w>":8041,"140</w>":8042,"145</w>":8043,"35":8044,"3,000</w>":8045,"34.5</w>":8046,"30,":8047,"4-year</w>":8048,"55.":8049,"50s</w>":8050,"501</w>":8051,"65":8052,"78.":8053,"AT":8054,"AB</w>":8055,"BL":8056,"Bill":8057,"Brit":8058,"Bhu":8059,"BHP</w>":8060,"CH":8061,"CR":8062,"Cri":8063,"Cinc":8064,"Coc":8065,"Choo</w>":8066,"DI":8067,"DC</w>":8068,"Dar":8069,"Dell</w>":8070,"Dick</w>":8071,"DVR</w>":8072,"Detro":8073,"Eag":8074,"Eredi":8075,"Foun":8076,"Follow":8077,"Fore":8078,"FMC":8079,"Gi":8080,"GO</w>":8081,"Gab":8082,"Gram":8083,"HI":8084,"Ivory</w>":8085,"Jan":8086,"Ki":8087,"KPM":8088,"Lan":8089,"Length</w>":8090,"MA</w>":8091,"MV</w>":8092,"Mac":8093,"Mol":8094,"Mass":8095,"MRO</w>":8096,"NC</w>":8097,"Niss":8098,"Per</w>":8099,"Pap":8100,"Peu":8101,"PIS":8102,"PCs</w>":8103,"Q1</w>":8104,"Rs</w>":8105,"SD</w>":8106,"SA</w>":8107,"Sol":8108,"Sel":8109,"Sch":8110,"Sates</w>":8111,"Sonom":8112,"Soc":8113,"Sam</w>":8114,"Sey":8115,"Swa":8116,"See</w>":8117,"Sporting</w>":8118,"SOS</w>":8119,"Sri</w>":8120,"TV":8121,"Thi":8122,"Tri":8123,"Tom":8124,"Ur":8125,"UM</w>":8126,"UEFA</w>":8127,"VR":8128,"Wars</w>":8129,"Wine</w>":8130,"Ya":8131,"YE</w>":8132,"Zam":8133,"ai</w>":8134,"ats</w>":8135,"away</w>":8136,"aero":8137,"bali":8138,"breach</w>":8139,"bability</w>":8140,"bbed</w>":8141,"c-":8142,"cent</w>":8143,"cum":8144,"core</w>":8145,"call</w>":8146,"centi":8147,"cold</w>":8148,"dly</w>":8149,"dure</w>":8150,"dome":8151,"dam</w>":8152,"dying</w>":8153,"ea":8154,"edi":8155,"ege</w>":8156,"edition</w>":8157,"g/":8158,"gain</w>":8159,"gative</w>":8160,"globe</w>":8161,"ho</w>":8162,"hi</w>":8163,"hands</w>":8164,"ia":8165,"ivo":8166,"ideal</w>":8167,"iPh":8168,"kit</w>":8169,"kno":8170,"kansas</w>":8171,"ler</w>":8172,"lly</w>":8173,"lens</w>":8174,"moun":8175,"menta":8176,"menti":8177,"maci":8178,"moms</w>":8179,"na":8180,"nsylvania</w>":8181,"ol</w>":8182,"oit":8183,"olis</w>":8184,"ovens</w>":8185,"pop":8186,"pun":8187,"pping</w>":8188,"pain":8189,"pessi":8190,"ra</w>":8191,"rag":8192,"rare</w>":8193,"raid</w>":8194,"rite</w>":8195,"sn":8196,"sou":8197,"sending</w>":8198,"sburg</w>":8199,"t/":8200,"tun":8201,"t.com</w>":8202,"tesa</w>":8203,"uph":8204,"ulist</w>":8205,"vs</w>":8206,"van</w>":8207,"vending</w>":8208,"vings</w>":8209,"varies</w>":8210,"yes</w>":8211,"yer</w>":8212,"ywide</w>":8213,"yana</w>":8214,"zil":8215,"â€</w>":8216,"ern</w>":8217,"tin":8218,"enge</w>":8219,"enter</w>":8220,"incial</w>":8221,"indoor</w>":8222,"insul":8223,"ano</w>":8224,"anies</w>":8225,"antar":8226,"reli":8227,"reate</w>":8228,"recording</w>":8229,"reals</w>":8230,"reuni":8231,"real-":8232,"researched</w>":8233,"refriger":8234,"aro</w>":8235,"arded</w>":8236,"army</w>":8237,"ont</w>":8238,"onshore</w>":8239,"tage</w>":8240,"tamin":8241,"tably</w>":8242,"oration</w>":8243,"orid":8244,"per-":8245,"alau":8246,"alert</w>":8247,"hip":8248,"higan</w>":8249,"lig":8250,"lip":8251,"lik</w>":8252,"liest</w>":8253,"liber":8254,"rillion</w>":8255,"ilty</w>":8256,"omas</w>":8257,"urban":8258,"statu":8259,"staff</w>":8260,"discri":8261,"ascar</w>":8262,"acqu":8263,"acking</w>":8264,"acre</w>":8265,"agri":8266,"age-":8267,"agencies</w>":8268,"agascar</w>":8269,"vis</w>":8270,"vised</w>":8271,"vid-":8272,"elles</w>":8273,"spinal</w>":8274,"nitro":8275,"email</w>":8276,"duties</w>":8277,"dubbed</w>":8278,"ambi":8279,"amond</w>":8280,"ams-":8281,"sissi":8282,"ounces</w>":8283,"prop":8284,"prostate</w>":8285,"probability</w>":8286,"opport":8287,"Thomas</w>":8288,"dead":8289,"deposi":8290,"uset":8291,"cond":8292,"consent</w>":8293,"conservative</w>":8294,"contested</w>":8295,"consolidated</w>":8296,"loved</w>":8297,"comb":8298,"veries</w>":8299,"bec</w>":8300,"beach</w>":8301,"aps</w>":8302,"apolis</w>":8303,"witch</w>":8304,"sest</w>":8305,"seems</w>":8306,"sewhere</w>":8307,"mobil":8308,"moved</w>":8309,"most-":8310,"porn</w>":8311,"surpassed</w>":8312,"chools</w>":8313,"chelles</w>":8314,"end-":8315,"endar</w>":8316,"expor":8317,"respir":8318,"respect</w>":8319,"margin":8320,"fighting</w>":8321,"five-year</w>":8322,"coron":8323,"cohor":8324,"coal-mining</w>":8325,"gia</w>":8326,"impro":8327,"toys</w>":8328,"totally</w>":8329,"leans</w>":8330,"ingful</w>":8331,"quin":8332,"secured</w>":8333,"civi":8334,"dova</w>":8335,"venues</w>":8336,"priority</w>":8337,"marked</w>":8338,"neys</w>":8339,"aight</w>":8340,"straight</w>":8341,"plays</w>":8342,"pox</w>":8343,"pods</w>":8344,"postal</w>":8345,"regivers</w>":8346,"preschools</w>":8347,"mail-":8348,"interactive</w>":8349,"interval</w>":8350,"1965</w>":8351,"1928</w>":8352,"1969</w>":8353,"1977</w>":8354,"1984</w>":8355,"yogur":8356,"Inc</w>":8357,"Independ":8358,"expir":8359,"scams</w>":8360,"mont</w>":8361,"ises</w>":8362,"1.16</w>":8363,"1.49</w>":8364,"1.74</w>":8365,"gus</w>":8366,"quartile</w>":8367,"and-":8368,"ander</w>":8369,"bill</w>":8370,"Diego</w>":8371,"Diamond</w>":8372,"formal</w>":8373,"deceas":8374,"decided</w>":8375,"raw</w>":8376,"chief</w>":8377,"Nevertheless</w>":8378,"Negative</w>":8379,"Briti":8380,"teeth</w>":8381,"resulted</w>":8382,"nutri":8383,"indirect</w>":8384,"3.9</w>":8385,"bots</w>":8386,"boarding</w>":8387,"ermat":8388,"twenty</w>":8389,"larg":8390,"ocean</w>":8391,"feed</w>":8392,"owner</w>":8393,"catering</w>":8394,"0.8</w>":8395,"0.3</w>":8396,"broad</w>":8397,"mistic</w>":8398,"Religi":8399,"Regus</w>":8400,"Perceptions</w>":8401,"business":8402,"7.6</w>":8403,"7.50</w>":8404,"souri</w>":8405,"sourcing</w>":8406,"enegro</w>":8407,"Tom</w>":8408,"ge-":8409,"deviantar":8410,"sells</w>":8411,"bania</w>":8412,"offer":8413,"offences</w>":8414,"offenses</w>":8415,"minority</w>":8416,"ethical</w>":8417,"derall</w>":8418,"earth</w>":8419,"substitu":8420,"subsequ":8421,"Greater</w>":8422,"cancel</w>":8423,"structive</w>":8424,"iginal</w>":8425,"volta":8426,"paced</w>":8427,"greeting</w>":8428,"sign</w>":8429,"caregivers</w>":8430,"Spani":8431,"spectrum</w>":8432,"politicians</w>":8433,"9.8</w>":8434,"lahom":8435,"curling</w>":8436,"visie</w>":8437,"Congo</w>":8438,"Conservative</w>":8439,"Conversely</w>":8440,"branches</w>":8441,"Albania</w>":8442,"Metropolitan</w>":8443,"afraid</w>":8444,"expecting</w>":8445,"financi":8446,"footfall</w>":8447,"investors</w>":8448,"180</w>":8449,"1863</w>":8450,"closest</w>":8451,"disa":8452,"Arce":8453,"Arkansas</w>":8454,"killing</w>":8455,"technical</w>":8456,"intel":8457,"applied</w>":8458,"street</w>":8459,"got":8460,"got</w>":8461,"golia</w>":8462,"non-EU</w>":8463,"non-viewers</w>":8464,"non-hazardous</w>":8465,"save</w>":8466,"savings</w>":8467,"strikes</w>":8468,"culture</w>":8469,"teenth</w>":8470,"Lib":8471,"Liver</w>":8472,"transfers</w>":8473,"all-time</w>":8474,"franchised</w>":8475,"illness</w>":8476,"creation</w>":8477,"Combined</w>":8478,"viewership</w>":8479,"roll</w>":8480,"specializing</w>":8481,"supplied</w>":8482,"suppliers</w>":8483,"1,1":8484,"1,4":8485,"1,7":8486,"1,500</w>":8487,"machin":8488,"Revenues</w>":8489,"grant</w>":8490,"granting</w>":8491,"solved</w>":8492,"antial</w>":8493,"ska</w>":8494,"Cola</w>":8495,"Malaw":8496,"downs</w>":8497,"alcohol":8498,"agreement</w>":8499,"cellul":8500,"big-":8501,"variety</w>":8502,"varieties</w>":8503,"trusted</w>":8504,"truck</w>":8505,"groceries</w>":8506,"11.6</w>":8507,"11.4</w>":8508,"Mongolia</w>":8509,"indicating</w>":8510,"maturity</w>":8511,"accept</w>":8512,"10.8</w>":8513,"10.4</w>":8514,"tten":8515,"provincial</w>":8516,"Def":8517,"Chick":8518,"Port":8519,"achuset":8520,"underground</w>":8521,"negatively</w>":8522,"Export</w>":8523,"drinkers</w>":8524,"14.6</w>":8525,"representation</w>":8526,"Guyana</w>":8527,"Voting</w>":8528,"ent-":8529,"15.6</w>":8530,"Pok":8531,"Post</w>":8532,"severely</w>":8533,"nectar</w>":8534,"Network</w>":8535,"12.3</w>":8536,"azion":8537,"award</w>":8538,"distric":8539,"contraception</w>":8540,"year-over-year</w>":8541,"Adderall</w>":8542,"vacations</w>":8543,"shooter</w>":8544,"calendar</w>":8545,"arriors</w>":8546,"looked</w>":8547,"circum":8548,"16.7</w>":8549,"16.9</w>":8550,"claiming</w>":8551,"smoked</w>":8552,"system":8553,"13.6</w>":8554,"cheapest</w>":8555,"environmenta":8556,"allows</w>":8557,"Import</w>":8558,"Import":8559,"density</w>":8560,"Scottish</w>":8561,"Islanders</w>":8562,"poly":8563,"shoe</w>":8564,"shoes</w>":8565,"emerged</w>":8566,"convention</w>":8567,"Changes</w>":8568,"Comparison</w>":8569,"Catho":8570,"friend</w>":8571,"sonaro</w>":8572,"torture</w>":8573,"toria</w>":8574,"threat":8575,"accommodations</w>":8576,"corporations</w>":8577,"mainstream</w>":8578,"exceeding</w>":8579,"Asda</w>":8580,"Super":8581,"15,000</w>":8582,"4,1":8583,"Laos</w>":8584,"Warner":8585,"Forecasted</w>":8586,"EU5</w>":8587,"definitely</w>":8588,"surgeries</w>":8589,"suffici":8590,"Wind</w>":8591,"divorced</w>":8592,"consistent</w>":8593,"22.8</w>":8594,"Quantity</w>":8595,"27.4</w>":8596,"involving</w>":8597,"piercings</w>":8598,"procedure</w>":8599,"Michigan</w>":8600,"Sonic</w>":8601,"weapon</w>":8602,"counterparts</w>":8603,"intensive</w>":8604,"injured</w>":8605,"Friends</w>":8606,"baccalau":8607,"ppi</w>":8608,"semester</w>":8609,"theater</w>":8610,"Ford</w>":8611,"James</w>":8612,"Senegal</w>":8613,"check-":8614,"broadcasters</w>":8615,"Florid":8616,"limit</w>":8617,"cky</w>":8618,"tops</w>":8619,"disorder</w>":8620,"launched</w>":8621,"Playstation</w>":8622,"PAC</w>":8623,"PACs</w>":8624,"PAYE</w>":8625,"returned</w>":8626,"diverse</w>":8627,"assistants</w>":8628,"dealing</w>":8629,"subsidies</w>":8630,"Christian</w>":8631,"Big</w>":8632,"FTSE</w>":8633,"Herbali":8634,"McDonald</w>":8635,"Out":8636,"pasta</w>":8637,"independence</w>":8638,"authorities</w>":8639,"machine</w>":8640,"mid-2020</w>":8641,"Angola</w>":8642,"Williams-":8643,"minister</w>":8644,"classifi":8645,"Hospi":8646,"Madagascar</w>":8647,"Nutrition</w>":8648,"Versail":8649,"articles</w>":8650,"liquor</w>":8651,"stopped</w>":8652,"challenge</w>":8653,"gigawatts</w>":8654,"Brunei</w>":8655,"Results</w>":8656,"idea</w>":8657,"thium</w>":8658,"promotion</w>":8659,"console</w>":8660,"firearm":8661,"internship</w>":8662,"Minister</w>":8663,"Rai</w>":8664,"damage</w>":8665,"racism</w>":8666,"advised</w>":8667,"competition</w>":8668,"carrier</w>":8669,"discounts</w>":8670,"photovolta":8671,"Households</w>":8672,"IPSOS</w>":8673,"Packers</w>":8674,"RAF</w>":8675,"flowers</w>":8676,"hub</w>":8677,"depressive</w>":8678,"concentr":8679,"post-baccalau":8680,"resolution</w>":8681,"Liberal</w>":8682,"Liberia</w>":8683,"skiing</w>":8684,"implemented</w>":8685,"Essilor</w>":8686,"Juven":8687,"mandate</w>":8688,"characteristics</w>":8689,"Deloit":8690,"Mississi":8691,"Missouri</w>":8692,"Pennsylvania</w>":8693,"Two</w>":8694,"binge</w>":8695,"gym</w>":8696,"alpine</w>":8697,"suspended</w>":8698,"controlled</w>":8699,"supporters</w>":8700,"Oklahom":8701,"Wallonia</w>":8702,"camping</w>":8703,"career</w>":8704,"youths</w>":8705,"diffic":8706,"recycled</w>":8707,"casinos</w>":8708,"geot</w>":8709,"cancelled</w>":8710,"Montenegro</w>":8711,"administration</w>":8712,"Attitudes</w>":8713,"Currently</w>":8714,"posse":8715,"1980s</w>":8716,"over-the-":8717,"commitment</w>":8718,"demonstrates</w>":8719,"Highest</w>":8720,"Assessment</w>":8721,"Treaty</w>":8722,"endorsements</w>":8723,"instrument</w>":8724,"Bolsonaro</w>":8725,"Lauder</w>":8726,"Victoria</w>":8727,"breed</w>":8728,"hub.com</w>":8729,"supremaci":8730,"cuisine</w>":8731,"selfie</w>":8732,"substantial</w>":8733,"drug-related</w>":8734,"tournament</w>":8735,"Technology</w>":8736,"impeachment</w>":8737,"Aboriginal</w>":8738,"Kuwait</w>":8739,"Lyft</w>":8740,"Sub-Saharan</w>":8741,"averaged</w>":8742,"brushes</w>":8743,"i.e</w>":8744,"nurses</w>":8745,"permits</w>":8746,"limiting</w>":8747,"Constitution</w>":8748,"macro-region</w>":8749,"Internazion":8750,"membership</w>":8751,"beneficiaries</w>":8752,"recommendations</w>":8753,"oscillated</w>":8754,"stereotypes</w>":8755,"CMS</w>":8756,"Homicide</w>":8757,"IKEA</w>":8758,"next-day</w>":8759,"replacement</w>":8760,"2000/01</w>":8761,"surrounding</w>":8762,"built</w>":8763,"quadrillion</w>":8764,"meaningful</w>":8765,"failure</w>":8766,"hand-held</w>":8767,"ISIS</w>":8768,"liquidity</w>":8769,"Economic</w>":8770,"Vancouver</w>":8771,"Britons</w>":8772,"Bhutan</w>":8773,"CHF</w>":8774,"Cincin":8775,"DIY</w>":8776,"Detroit</w>":8777,"Eredivisie</w>":8778,"FMCG</w>":8779,"Gabon</w>":8780,"KPMG</w>":8781,"Lanka</w>":8782,"Moldova</w>":8783,"Massachuset":8784,"Nissan</w>":8785,"Papua</w>":8786,"Peugeot</w>":8787,"PISA</w>":8788,"Sonoma</w>":8789,"Soccer</w>":8790,"Seychelles</w>":8791,"Swazil":8792,"Trilogy</w>":8793,"Urban</w>":8794,"Yahoo</w>":8795,"Zambia</w>":8796,"centimeters</w>":8797,"punc":8798,"pessimistic</w>":8799,"southern</w>":8800,"discrimination</w>":8801,"vid-19</w>":8802,"opportunities</w>":8803,"deposit</w>":8804,"mail-order</w>":8805,"deviantart.com</w>":8806,"Arcelik</w>":8807,"machinery</w>":8808,"Malawi</w>":8809,"cellular</w>":8810,"Importance</w>":8811,"WarnerMedia</w>":8812,"Florida</w>":8813,"Herbalife</w>":8814,"Williams-Sonoma</w>":8815,"Versailles</w>":8816,"firearm-related</w>":8817,"post-baccalaureate</w>":8818,"Deloitte</w>":8819,"Mississippi</w>":8820,"Oklahoma</w>":8821,"supremacist</w>":8822,"Internazionale</w>":8823,"Massachusetts</w>":8824,"Swaziland</w>":8825,"'M":8826,"-12</w>":8827,"-label</w>":8828,"/2016</w>":8829,"/2011</w>":8830,"/ethnicity</w>":8831,"113</w>":8832,"2100</w>":8833,"290</w>":8834,"2-year</w>":8835,"28,":8836,"31.5</w>":8837,"438</w>":8838,"490</w>":8839,"44,":8840,"43.5</w>":8841,"48,":8842,"50":8843,"6/":8844,"69":8845,"65.":8846,"76.":8847,"75.":8848,"AC</w>":8849,"Aven":8850,"Assi":8851,"Bay":8852,"Bill</w>":8853,"Cr":8854,"Cer":8855,"Cop":8856,"Card</w>":8857,"CAG":8858,"Cesarean</w>":8859,"D.C.</w>":8860,"EA":8861,"Educ":8862,"Fres":8863,"Free</w>":8864,"FDA</w>":8865,"GG":8866,"GM</w>":8867,"Gay</w>":8868,"Gold</w>":8869,"Grou":8870,"GMV</w>":8871,"HS</w>":8872,"Hud":8873,"Je":8874,"Jaz":8875,"Jets</w>":8876,"Kit":8877,"Kitchen</w>":8878,"K-12</w>":8879,"Loc":8880,"Lakers</w>":8881,"Mb":8882,"MC</w>":8883,"Mel":8884,"Mus":8885,"Mass</w>":8886,"Match</w>":8887,"MPR":8888,"MHS</w>":8889,"ND</w>":8890,"NT</w>":8891,"Nations</w>":8892,"Ow":8893,"OD</w>":8894,"Pi":8895,"POS</w>":8896,"Q2</w>":8897,"Rou":8898,"Rec":8899,"Radi":8900,"Spur":8901,"Satis":8902,"Santi":8903,"Ten":8904,"Tar":8905,"Tali":8906,"TTI":8907,"Twitch</w>":8908,"UB":8909,"Ul":8910,"Uta":8911,"VOD</w>":8912,"WE</w>":8913,"Warriors</w>":8914,"Youn":8915,"Youth</w>":8916,"aS</w>":8917,"ak</w>":8918,"ade":8919,"bar</w>":8920,"ball</w>":8921,"bered</w>":8922,"barri":8923,"bago</w>":8924,"ct</w>":8925,"ctions</w>":8926,"cand":8927,"ce-":8928,"cago</w>":8929,"calls</w>":8930,"dan":8931,"dent</w>":8932,"dal</w>":8933,"dermat":8934,"e.":8935,"eta":8936,"esp":8937,"eable</w>":8938,"evalu":8939,"flo":8940,"fine</w>":8941,"fty</w>":8942,"farm</w>":8943,"gau":8944,"ggets</w>":8945,"hec":8946,"hep":8947,"holder</w>":8948,"ier</w>":8949,"iers</w>":8950,"iors</w>":8951,"istu":8952,"ko":8953,"kp":8954,"kg</w>":8955,"king":8956,"kne":8957,"ke-":8958,"ltry</w>":8959,"met</w>":8960,"myo":8961,"mund</w>":8962,"mour</w>":8963,"muni":8964,"mHealth</w>":8965,"nin":8966,"nati":8967,"none</w>":8968,"nesses</w>":8969,"ox</w>":8970,"oids</w>":8971,"pon":8972,"pou":8973,"pal</w>":8974,"pure</w>":8975,"pence</w>":8976,"rh":8977,"ru</w>":8978,"ray</w>":8979,"sl":8980,"sal</w>":8981,"sers</w>":8982,"sonal</w>":8983,"sory</w>":8984,"slow":8985,"sace</w>":8986,"sla":8987,"slow</w>":8988,"song":8989,"tes":8990,"tend":8991,"tected</w>":8992,"tless</w>":8993,"tories</w>":8994,"text</w>":8995,"towns</w>":8996,"tander</w>":8997,"ur</w>":8998,"utive</w>":8999,"ville</w>":9000,"wri":9001,"wol":9002,"yale</w>":9003,"zlo":9004,"zones</w>":9005,"¨s</w>":9006,"Ã¨s</w>":9007,"éal</w>":9008,"erran":9009,"erships</w>":9010,"ticip":9011,"ense</w>":9012,"entry</w>":9013,"enlisted</w>":9014,"encounter":9015,"enthu":9016,"ino</w>":9017,"inid":9018,"instance</w>":9019,"any":9020,"ante":9021,"andic</w>":9022,"ancers</w>":9023,"royale</w>":9024,"rever":9025,"reci":9026,"reproduction</w>":9027,"rejected</w>":9028,"arction</w>":9029,"ars.":9030,"arante":9031,"oni":9032,"onate</w>":9033,"onged</w>":9034,"onwards</w>":9035,"tas":9036,"tares</w>":9037,"tails</w>":9038,"iters</w>":9039,"iterran":9040,"outs</w>":9041,"allo":9042,"albu":9043,"allow</w>":9044,"histor":9045,"lif":9046,"lists</w>":9047,"livia</w>":9048,"lithium</w>":9049,"percei":9050,"at-":9051,"ater":9052,"iled</w>":9053,"ilarly</w>":9054,"omes</w>":9055,"stadi":9056,"stem":9057,"stest</w>":9058,"stems</w>":9059,"shings</w>":9060,"stig":9061,"dimini":9062,"asy":9063,"aces</w>":9064,"owed</w>":9065,"aggres":9066,"olen</w>":9067,"elu":9068,"else</w>":9069,"elsewhere</w>":9070,"spur</w>":9071,"dule</w>":9072,"amau":9073,"umn</w>":9074,"simp":9075,"2027</w>":9076,"2026</w>":9077,"pro-":9078,"proven</w>":9079,"produce</w>":9080,"opposition</w>":9081,"yet</w>":9082,"Thron":9083,"Things</w>":9084,"dev":9085,"deplo":9086,"details</w>":9087,"ices</w>":9088,"contain</w>":9089,"contain":9090,"log</w>":9091,"loon</w>":9092,"locom":9093,"love</w>":9094,"losing</w>":9095,"compro":9096,"combus":9097,"commodi":9098,"Station</w>":9099,"States":9100,"beers</w>":9101,"aple</w>":9102,"apter</w>":9103,"hawks</w>":9104,"unintentional</w>":9105,"unwanted</w>":9106,"see":9107,"seven":9108,"ady</w>":9109,"additions</w>":9110,"advoc":9111,"ation-based</w>":9112,"western</w>":9113,"wealthy</w>":9114,"iders</w>":9115,"idences</w>":9116,"idental</w>":9117,"moving</w>":9118,"mobility</w>":9119,"moistu":9120,"run</w>":9121,"rup</w>":9122,"porary</w>":9123,"whom</w>":9124,"chi</w>":9125,"chlor":9126,"press</w>":9127,"endly</w>":9128,"endants</w>":9129,"expo":9130,"exporting</w>":9131,"marine</w>":9132,"fiable</w>":9133,"fibers</w>":9134,"col</w>":9135,"covery</w>":9136,"ducing</w>":9137,"respondent</w>":9138,"toy</w>":9139,"tools</w>":9140,"lets</w>":9141,"lean</w>":9142,"ghly</w>":9143,"compare</w>":9144,"compris":9145,"dollars.":9146,"teries</w>":9147,"eiro</w>":9148,"metri":9149,"meals</w>":9150,"suspec":9151,"cord</w>":9152,"rankings</w>":9153,"neu":9154,"nets</w>":9155,"elect</w>":9156,"incenti":9157,"incidences</w>":9158,"trim":9159,"pot</w>":9160,"gra":9161,"presentatives</w>":9162,"make":9163,"valuation</w>":9164,"valid</w>":9165,"valiers</w>":9166,"1919</w>":9167,"1955</w>":9168,"1979</w>":9169,"Marti":9170,"In-":9171,"Institu":9172,"Insurance</w>":9173,"expan":9174,"hop</w>":9175,"no-":9176,"nov":9177,"notic":9178,"notably</w>":9179,"islands</w>":9180,"highest-paid</w>":9181,"1.15</w>":9182,"1.75</w>":9183,"1.85</w>":9184,"gua</w>":9185,"guests</w>":9186,"guarante":9187,"resso</w>":9188,"vosa</w>":9189,"tucky</w>":9190,"District</w>":9191,"entit":9192,"entia</w>":9193,"economically</w>":9194,"chips</w>":9195,"chiatric</w>":9196,"2.06</w>":9197,"phase</w>":9198,"Nevis</w>":9199,"tedly</w>":9200,"employing</w>":9201,"training</w>":9202,"accept":9203,"nuts</w>":9204,"grape":9205,"Chro":9206,"Championship</w>":9207,"fintech</w>":9208,"twenti":9209,"follower</w>":9210,"facts</w>":9211,"ngent":9212,"Face</w>":9213,"breaks</w>":9214,"own-label</w>":9215,"Personal</w>":9216,"0.6</w>":9217,"0.9</w>":9218,"majors</w>":9219,"class":9220,"buses</w>":9221,"migrated</w>":9222,"Representatives</w>":9223,"Percent</w>":9224,"7.2</w>":9225,"7.8</w>":9226,"rison</w>":9227,"8.7</w>":9228,"8.8</w>":9229,"8.9</w>":9230,"fathers</w>":9231,"fastest</w>":9232,"cery</w>":9233,"assass":9234,"childhood</w>":9235,"Totten":9236,"Tobago</w>":9237,"operational</w>":9238,"waters</w>":9239,"Leaders</w>":9240,"e-granting</w>":9241,"carat</w>":9242,"carry</w>":9243,"carrying</w>":9244,"ferro":9245,"banned</w>":9246,"off-":9247,"mini</w>":9248,"ethan":9249,"dergar":9250,"infring":9251,"infarction</w>":9252,"volumes</w>":9253,"attles</w>":9254,"Novarti":9255,"Motors</w>":9256,"kespe":9257,"Polo</w>":9258,"capsul":9259,"cash":9260,"video-":9261,"on-demand</w>":9262,"Spec":9263,"Spending</w>":9264,"spectives</w>":9265,"investing</w>":9266,"investig":9267,"lasted</w>":9268,"curative</w>":9269,"Grocery</w>":9270,"Conn":9271,"fun</w>":9272,"brand/":9273,"Also</w>":9274,"theast</w>":9275,"syphi":9276,"syrup</w>":9277,"payers</w>":9278,"payroll</w>":9279,"location-based</w>":9280,"obj":9281,"obtaining</w>":9282,"third-":9283,"governors</w>":9284,"investor</w>":9285,"181</w>":9286,"1856</w>":9287,"1892</w>":9288,"closures</w>":9289,"regulated</w>":9290,"discovery</w>":9291,"airlines</w>":9292,"alive</w>":9293,"Armour</w>":9294,"dementia</w>":9295,"Bolivia</w>":9296,"famous</w>":9297,"ratios</w>":9298,"streams</w>":9299,"Covid-19</w>":9300,"regarded</w>":9301,"tically</w>":9302,"fundam":9303,"impacts</w>":9304,"collect</w>":9305,"Parkinson</w>":9306,"Particip":9307,"Denver</w>":9308,"Anton":9309,"Lions</w>":9310,"homeless</w>":9311,"subscribe</w>":9312,"Corby":9313,"creative</w>":9314,"Communications</w>":9315,"wares</w>":9316,"wake</w>":9317,"akhouse</w>":9318,"anian</w>":9319,"vertising</w>":9320,"trees</w>":9321,"treat</w>":9322,"treated</w>":9323,"tress</w>":9324,"Fintech</w>":9325,"fulness</w>":9326,"specified</w>":9327,"retailing</w>":9328,"menu</w>":9329,"althcare</w>":9330,"buda</w>":9331,"budgeted</w>":9332,"becomes</w>":9333,"unique</w>":9334,"gather":9335,"gathered</w>":9336,"join</w>":9337,"wheel":9338,"charity</w>":9339,"borro":9340,"cyber":9341,"cycli":9342,"Barbuda</w>":9343,"victory</w>":9344,"berg</w>":9345,"assessed</w>":9346,"Coll</w>":9347,"Malta</w>":9348,"Trail</w>":9349,"Trinid":9350,"2010/2011</w>":9351,"graduated</w>":9352,"memory</w>":9353,"2015/2016</w>":9354,"project</w>":9355,"upon</w>":9356,"Work":9357,"truth":9358,"trust":9359,"11.5</w>":9360,"Amoun":9361,"donors</w>":9362,"tower</w>":9363,"17,":9364,"stick</w>":9365,"Hawks</w>":9366,"starting</w>":9367,"Healthcare</w>":9368,"efficiency</w>":9369,"Devi":9370,"Depot</w>":9371,"ster-":9372,"sterCard</w>":9373,"Chicago</w>":9374,"nati</w>":9375,"belonged</w>":9376,"pollu":9377,"polled</w>":9378,"Duke</w>":9379,"Maz":9380,"MasterCard</w>":9381,"14.9</w>":9382,"2,0":9383,"2,3":9384,"2,7":9385,"court</w>":9386,"represent</w>":9387,"representatives</w>":9388,"Voice</w>":9389,"Prices</w>":9390,"news":9391,"17.5</w>":9392,"Generally</w>":9393,"numbered</w>":9394,"12.5</w>":9395,"Walloon</w>":9396,"hydr":9397,"awarded</w>":9398,"citizen</w>":9399,"Advertising</w>":9400,"SMS</w>":9401,"18.1</w>":9402,"18.4</w>":9403,"pharma</w>":9404,"16.1</w>":9405,"3,0":9406,"3,5":9407,"3,8":9408,"Job</w>":9409,"gene</w>":9410,"practical</w>":9411,"practiced</w>":9412,"tenth</w>":9413,"tenure</w>":9414,"self-employed</w>":9415,"self-paced</w>":9416,"printed</w>":9417,"driven</w>":9418,"19.8</w>":9419,"nominal</w>":9420,"Unit</w>":9421,"Under":9422,"allowing</w>":9423,"suggest</w>":9424,"20.8</w>":9425,"lesbians</w>":9426,"Sochi</w>":9427,"troops</w>":9428,"stockp":9429,"balances</w>":9430,"admission</w>":9431,"Cavaliers</w>":9432,"design</w>":9433,"Compound</w>":9434,"Companies</w>":9435,"28.6</w>":9436,"28.2</w>":9437,"28.5</w>":9438,"friendly</w>":9439,"lando</w>":9440,"three-":9441,"servers</w>":9442,"servatives</w>":9443,"Geox</w>":9444,"legality</w>":9445,"maintain</w>":9446,"continents</w>":9447,"removal</w>":9448,"Pro</w>":9449,"Prince</w>":9450,"Sustain":9451,"Warner</w>":9452,"doubles</w>":9453,"constructed</w>":9454,"aborat":9455,"30.6</w>":9456,"EURO</w>":9457,"Icelandic</w>":9458,"Systems</w>":9459,"Syngent":9460,"seniors</w>":9461,"telecom</w>":9462,"discreti":9463,"bulbs</w>":9464,"Austrian</w>":9465,"27.5</w>":9466,"37.9</w>":9467,"Keny":9468,"Kentucky</w>":9469,"Orleans</w>":9470,"Orlando</w>":9471,"distinct</w>":9472,"kilometer</w>":9473,"avoid</w>":9474,"piece</w>":9475,"standards</w>":9476,"degree-granting</w>":9477,"contactless</w>":9478,"NAND</w>":9479,"kindergar":9480,"package</w>":9481,"packages</w>":9482,"Linde</w>":9483,"jets</w>":9484,"prevented</w>":9485,"crowded</w>":9486,"Georgia</w>":9487,"processed</w>":9488,"HermÃ¨s</w>":9489,"Senior</w>":9490,"textiles</w>":9491,"Milano</w>":9492,"fifty</w>":9493,"cardial</w>":9494,"answers</w>":9495,"influencing</w>":9496,"Secre":9497,"USA</w>":9498,"associate</w>":9499,"telecommunication</w>":9500,"FIFA</w>":9501,"a-Cola</w>":9502,"drew</w>":9503,"PlayStation</w>":9504,"diversi":9505,"dealt</w>":9506,"consisted</w>":9507,"subsidiaries</w>":9508,"celebrate</w>":9509,"celebrities</w>":9510,"hypermarkets</w>":9511,"bankruptcy</w>":9512,"McColl</w>":9513,"paper":9514,"refinery</w>":9515,"appear":9516,"seriously</w>":9517,"climbing</w>":9518,"mid-June</w>":9519,"extremists</w>":9520,"clicks</w>":9521,"click-":9522,"utively</w>":9523,"releases</w>":9524,"queue</w>":9525,"classified</w>":9526,"classification</w>":9527,"5,8":9528,"Nuggets</w>":9529,"Versace</w>":9530,"nervosa</w>":9531,"pulp</w>":9532,"raise</w>":9533,"consequence</w>":9534,"separate</w>":9535,"episodes</w>":9536,"screen</w>":9537,"screens</w>":9538,"Presidents</w>":9539,"Preference</w>":9540,"Hotspur</w>":9541,"Merck</w>":9542,"ideology</w>":9543,"promote</w>":9544,"territory</w>":9545,"internal</w>":9546,"bodies</w>":9547,"Catalan</w>":9548,"EBIT</w>":9549,"Hornets</w>":9550,"billionaires</w>":9551,"sentenced</w>":9552,"discounters</w>":9553,"Broad":9554,"IPO</w>":9555,"Pack":9556,"Robin</w>":9557,"Shakespe":9558,"blockers</w>":9559,"yiel":9560,"enjoyed</w>":9561,"depression</w>":9562,"concessi":9563,"extra</w>":9564,"resolve</w>":9565,"festivals</w>":9566,"skie</w>":9567,"freelancers</w>":9568,"Favorability</w>":9569,"CPI</w>":9570,"Just</w>":9571,"Nigeria</w>":9572,"mandatory</w>":9573,"skill</w>":9574,"desk</w>":9575,"attempt</w>":9576,"Antieta":9577,"Antigua</w>":9578,"Delhi</w>":9579,"Types</w>":9580,"components</w>":9581,"suspected</w>":9582,"postp":9583,"conflicts</w>":9584,"MCO</w>":9585,"Steakhouse</w>":9586,"Wallet</w>":9587,"gases</w>":9588,"integrated</w>":9589,"attractive</w>":9590,"survival</w>":9591,"recycling</w>":9592,"casino</w>":9593,"Montana</w>":9594,"Attitude</w>":9595,"Edward</w>":9596,"Santander</w>":9597,"delayed</w>":9598,"invasi":9599,"emotional</w>":9600,"useum</w>":9601,"rubber</w>":9602,"exploration</w>":9603,"musical</w>":9604,"furnishings</w>":9605,"Mediterran":9606,"knowing</w>":9607,"Services</w>":9608,"Business</w>":9609,"Birth</w>":9610,"Hyun":9611,"NGOs</w>":9612,"layoffs</w>":9613,"psychiatric</w>":9614,"residing</w>":9615,"assuming</w>":9616,"consecutively</w>":9617,"adopted</w>":9618,"ch-speaking</w>":9619,"bottom</w>":9620,"Greenland</w>":9621,"dramatically</w>":9622,"marketplace</w>":9623,"conditioning</w>":9624,"start-ups</w>":9625,"freezer</w>":9626,"Electronics</w>":9627,"APIs</w>":9628,"Blues</w>":9629,"Budget</w>":9630,"Blazers</w>":9631,"CIOs</w>":9632,"Pharmaceu":9633,"Potter</w>":9634,"cryp":9635,"piracy</w>":9636,"rules</w>":9637,"tchers</w>":9638,"aggregate</w>":9639,"spouse</w>":9640,"determine</w>":9641,"isolation</w>":9642,"accurate</w>":9643,"accessible</w>":9644,"requires</w>":9645,"synthetic</w>":9646,"sexist</w>":9647,"well-being</w>":9648,"contraceptives</w>":9649,"advantages</w>":9650,"Timberwol":9651,"Smartphone</w>":9652,"mathematical</w>":9653,"12th</w>":9654,"76ers</w>":9655,"Messenger</w>":9656,"NOK</w>":9657,"Similarly</w>":9658,"Student</w>":9659,"WHO</w>":9660,"race/ethnicity</w>":9661,"warming</w>":9662,"reportedly</w>":9663,"livestock</w>":9664,"shareholder</w>":9665,"highlights</w>":9666,"Alberta</w>":9667,"All-Star</w>":9668,"democratic</w>":9669,"grandchildren</w>":9670,"physician</w>":9671,"telephone</w>":9672,"appointment</w>":9673,"Year-on-year</w>":9674,"30,017</w>":9675,"CRM</w>":9676,"Coca-Cola</w>":9677,"Following</w>":9678,"Foreign</w>":9679,"Solutions</w>":9680,"ivode":9681,"iPhone</w>":9682,"mentioned</w>":9683,"populist</w>":9684,"uphol":9685,"real-world</w>":9686,"refrigerator</w>":9687,"liberal</w>":9688,"acquired</w>":9689,"nitrogen</w>":9690,"propylene</w>":9691,"deadliest</w>":9692,"condoms</w>":9693,"exporter</w>":9694,"cohort</w>":9695,"yogurt</w>":9696,"and-collect</w>":9697,"deceased</w>":9698,"offerings</w>":9699,"subsequent</w>":9700,"Spanish-":9701,"financially</w>":9702,"gotten</w>":9703,"Libya</w>":9704,"Defense</w>":9705,"Chickamau":9706,"Portland</w>":9707,"Catholic</w>":9708,"sufficient</w>":9709,"classifieds</w>":9710,"photovoltaic</w>":9711,"Juventus</w>":9712,"Cincinnati</w>":9713,"Avengers</w>":9714,"Assistant</w>":9715,"Bayern</w>":9716,"GGY</w>":9717,"Jazz</w>":9718,"Kitts</w>":9719,"Musli":9720,"MPRI</w>":9721,"Ownership</w>":9722,"Roughly</w>":9723,"Radio</w>":9724,"Spurs</w>":9725,"Satisfaction</w>":9726,"Santiago</w>":9727,"Taliban</w>":9728,"TTIP</w>":9729,"Utah</w>":9730,"espresso</w>":9731,"floor</w>":9732,"hectares</w>":9733,"ke-up</w>":9734,"myocardial</w>":9735,"ninth</w>":9736,"poultry</w>":9737,"zloty</w>":9738,"enthusi":9739,"alloys</w>":9740,"album</w>":9741,"diminished</w>":9742,"aggression</w>":9743,"Thrones</w>":9744,"locomo":9745,"combustion</w>":9746,"commodities</w>":9747,"seventy</w>":9748,"chloride</w>":9749,"metrics</w>":9750,"incentive</w>":9751,"makeup</w>":9752,"acceptance</w>":9753,"Tottenham</w>":9754,"Novartis</w>":9755,"capsules</w>":9756,"brand/team</w>":9757,"syphilis</w>":9758,"Antonio</w>":9759,"Corbyn</w>":9760,"cyclists</w>":9761,"Trinidad</w>":9762,"Sustainable</w>":9763,"Syngenta</w>":9764,"discretionary</w>":9765,"kindergarten</w>":9766,"click-and-collect</w>":9767,"Shakespeare</w>":9768,"Antietam</w>":9769,"Mediterranean</w>":9770,"Timberwolves</w>":9771,"Chickamauga</w>":9772,"'Or":9773,"'Friends</w>":9774,"-food</w>":9775,"-language</w>":9776,"-assisted</w>":9777,"-ray</w>":9778,"/E":9779,"/2014</w>":9780,"/Islamic</w>":9781,"/ISIS</w>":9782,"0th</w>":9783,"1N":9784,"114</w>":9785,"160</w>":9786,"164</w>":9787,"131</w>":9788,"111</w>":9789,"144</w>":9790,"132</w>":9791,"175</w>":9792,"141</w>":9793,"169</w>":9794,"14,":9795,"214</w>":9796,"260</w>":9797,"2/0":9798,"292</w>":9799,"3G</w>":9800,"350</w>":9801,"335</w>":9802,"3/0":9803,"31.4</w>":9804,"300,000</w>":9805,"40":9806,"45":9807,"47":9808,"46.":9809,"460</w>":9810,"49/":9811,"59":9812,"52.":9813,"51.5</w>":9814,"650</w>":9815,"60s</w>":9816,"67.1</w>":9817,"71.":9818,"7,000</w>":9819,"74.":9820,"79.":9821,"999</w>":9822,"AI":9823,"Aw":9824,"Ax":9825,"AA</w>":9826,"AE</w>":9827,"Ano":9828,"Agre":9829,"Asus</w>":9830,"AVoD</w>":9831,"Bat":9832,"Bac":9833,"Boo":9834,"Book</w>":9835,"Co</w>":9836,"Clar":9837,"Care":9838,"Coff":9839,"Cup":9840,"Camp":9841,"CAR</w>":9842,"DA":9843,"DS":9844,"Ds</w>":9845,"DE</w>":9846,"Dor":9847,"Des":9848,"Davi":9849,"Dep":9850,"DAC":9851,"Dynamics</w>":9852,"E.":9853,"Eth":9854,"Every</w>":9855,"Even</w>":9856,"E-commerce</w>":9857,"Fu":9858,"Fam":9859,"GC":9860,"Ga":9861,"Gall":9862,"HR</w>":9863,"Hal":9864,"Hum":9865,"Him":9866,"Home":9867,"Hob":9868,"Harri":9869,"H1N":9870,"IA</w>":9871,"Ida":9872,"J.</w>":9873,"Jair</w>":9874,"Ko":9875,"K.</w>":9876,"Kay":9877,"Kmart</w>":9878,"KGa":9879,"Lor":9880,"Lit":9881,"Land</w>":9882,"Les":9883,"Loo":9884,"Linc":9885,"Less</w>":9886,"L'Or":9887,"ME":9888,"MM":9889,"Mond":9890,"Mau":9891,"Munic":9892,"MPs</w>":9893,"NI</w>":9894,"Non":9895,"Nun":9896,"Oa":9897,"Ot":9898,"Ohi":9899,"Old":9900,"Oreg":9901,"Orange</w>":9902,"Open":9903,"PH":9904,"PS":9905,"Pit":9906,"Pal":9907,"Plu":9908,"Pep":9909,"Pric":9910,"Petro":9911,"Q'":9912,"Ru":9913,"RS</w>":9914,"R.</w>":9915,"Rings</w>":9916,"Rail":9917,"Rot":9918,"SI</w>":9919,"Sil":9920,"Str":9921,"Sto":9922,"Some":9923,"Sport</w>":9924,"Sere":9925,"Saf":9926,"Sint":9927,"Steam</w>":9928,"SIC</w>":9929,"Still</w>":9930,"T-":9931,"Ten</w>":9932,"Tum":9933,"Tree</w>":9934,"Tele":9935,"Tech</w>":9936,"TDS</w>":9937,"Use</w>":9938,"UAE</w>":9939,"V/":9940,"Ve":9941,"Vans</w>":9942,"Vud":9943,"VPN</w>":9944,"Wo":9945,"Wre":9946,"Way":9947,"Wis":9948,"Wear":9949,"WES":9950,"Yle</w>":9951,"Zen":9952,"ao</w>":9953,"aes":9954,"averages</w>":9955,"aults</w>":9956,"bon</w>":9957,"bor</w>":9958,"bal</w>":9959,"bloo":9960,"ca</w>":9961,"cin</w>":9962,"cis</w>":9963,"cra":9964,"cross</w>":9965,"cables</w>":9966,"dar</w>":9967,"dity</w>":9968,"dates</w>":9969,"dered</w>":9970,"dgame</w>":9971,"dson</w>":9972,"eal</w>":9973,"evi":9974,"eage</w>":9975,"ete</w>":9976,"ed-":9977,"ewater":9978,"fan</w>":9979,"fare</w>":9980,"flu":9981,"fill":9982,"from":9983,"gg":9984,"gby</w>":9985,"gate</w>":9986,"gays</w>":9987,"gly":9988,"grill</w>":9989,"gging</w>":9990,"han":9991,"hon":9992,"hur":9993,"hei":9994,"holds</w>":9995,"iP":9996,"ith":9997,"ian</w>":9998,"isi":9999,"isc":10000,"ize</w>":10001,"ization</w>":10002,"iPlay":10003,"iron</w>":10004,"jet</w>":10005,"ker":10006,"kini</w>":10007,"la</w>":10008,"ler":10009,"lay</w>":10010,"lative</w>":10011,"lumin":10012,"mp</w>":10013,"mation</w>":10014,"mate</w>":10015,"mune</w>":10016,"mful</w>":10017,"nd":10018,"na</w>":10019,"ni</w>":10020,"non</w>":10021,"nal</w>":10022,"nover</w>":10023,"ness":10024,"nations</w>":10025,"neither</w>":10026,"nine":10027,"ool":10028,"osity</w>":10029,"olive</w>":10030,"oda</w>":10031,"pic</w>":10032,"pies</w>":10033,"pill":10034,"pins</w>":10035,"pful</w>":10036,"pubic</w>":10037,"rus":10038,"rail</w>":10039,"rador</w>":10040,"slo":10041,"swee":10042,"sence</w>":10043,"south</w>":10044,"swine</w>":10045,"tres</w>":10046,"tant</w>":10047,"tree</w>":10048,"trol":10049,"tness</w>":10050,"tariff</w>":10051,"tmund</w>":10052,"uping</w>":10053,"vo</w>":10054,"vated</w>":10055,"vary</w>":10056,"vans</w>":10057,"vatives</w>":10058,"wa</w>":10059,"wound</w>":10060,"wool</w>":10061,"wau":10062,"wines</w>":10063,"wish</w>":10064,"walle":10065,"xter</w>":10066,"yo</w>":10067,"ype</w>":10068,"ycin</w>":10069,"zes</w>":10070,"ão</w>":10071,"ée</w>":10072,"émon</w>":10073,"ón</w>":10074,"thy</w>":10075,"tho</w>":10076,"then":10077,"thro":10078,"thma</w>":10079,"thrac":10080,"thwest</w>":10081,"era</w>":10082,"tis</w>":10083,"tier</w>":10084,"tili":10085,"tious</w>":10086,"tius</w>":10087,"20,":10088,"20,000</w>":10089,"en-":10090,"enplan":10091,"encour":10092,"encounter</w>":10093,"inals</w>":10094,"inner</w>":10095,"inappropriate</w>":10096,"anc":10097,"anas</w>":10098,"aners</w>":10099,"anthem</w>":10100,"roe</w>":10101,"ref":10102,"resc":10103,"really</w>":10104,"rebel":10105,"rePo":10106,"reward</w>":10107,"reviewed</w>":10108,"revised</w>":10109,"2019":10110,"2010.":10111,"art":10112,"arres":10113,"archi":10114,"on/":10115,"oners</w>":10116,"onies</w>":10117,"onym":10118,"take":10119,"takings</w>":10120,"orly</w>":10121,"ites</w>":10122,"align":10123,"hip</w>":10124,"hiring</w>":10125,"limin":10126,"aten</w>":10127,"aters</w>":10128,"attained</w>":10129,"attrac":10130,"river</w>":10131,"rivers</w>":10132,"ripping</w>":10133,"ritius</w>":10134,"iling</w>":10135,"ilever</w>":10136,"oma</w>":10137,"omi</w>":10138,"omer</w>":10139,"omet</w>":10140,"ombing</w>":10141,"ections</w>":10142,"ury":10143,"stache</w>":10144,"stl":10145,"stling</w>":10146,"stolen</w>":10147,"shar":10148,"shine</w>":10149,"shale</w>":10150,"shape</w>":10151,"stitions</w>":10152,"sting":10153,"digi":10154,"dici":10155,"diest</w>":10156,"dipl":10157,"ask":10158,"assic</w>":10159,"asthma</w>":10160,"acts</w>":10161,"acted</w>":10162,"acha":10163,"acting</w>":10164,"agu":10165,"agency</w>":10166,"oln</w>":10167,"oline</w>":10168,"visa</w>":10169,"elen":10170,"ellit":10171,"spaces</w>":10172,"emes</w>":10173,"emporary</w>":10174,"amed</w>":10175,"amend":10176,"amid</w>":10177,"ammuni":10178,"umped</w>":10179,"six":10180,"siCo</w>":10181,"2029/":10182,"propor":10183,"proposed</w>":10184,"protest</w>":10185,"opment</w>":10186,"opping</w>":10187,"opstic":10188,"opticians</w>":10189,"ultra</w>":10190,"Thun":10191,"Thunder</w>":10192,"defo":10193,"despread</w>":10194,"detail</w>":10195,"detected</w>":10196,"ice-":10197,"ussia</w>":10198,"ussions</w>":10199,"conver":10200,"condom</w>":10201,"contra":10202,"consul":10203,"lots</w>":10204,"2009/":10205,"2002/0":10206,"2003/0":10207,"State":10208,"beard</w>":10209,"apas</w>":10210,"unlimited</w>":10211,"words</w>":10212,"worthy</w>":10213,"sessi":10214,"seemed</w>":10215,"ada":10216,"adoptions</w>":10217,"atitis</w>":10218,"wea":10219,"ider</w>":10220,"moon</w>":10221,"rugby</w>":10222,"pork</w>":10223,"champ":10224,"ch.com</w>":10225,"championships</w>":10226,"chopstic":10227,"buyou":10228,"butchers</w>":10229,"premarital</w>":10230,"esars</w>":10231,"exit":10232,"fit</w>":10233,"cow</w>":10234,"cost-":10235,"giant</w>":10236,"grooming</w>":10237,"grocers</w>":10238,"grouping</w>":10239,"absence</w>":10240,"total":10241,"tocurrency</w>":10242,"let":10243,"leth":10244,"left</w>":10245,"ght":10246,"ing/":10247,"compliance</w>":10248,"comprising</w>":10249,"termin":10250,"terdam</w>":10251,"quate</w>":10252,"cisco</w>":10253,"pedi":10254,"venue</w>":10255,"produces</w>":10256,"Kings</w>":10257,"nego":10258,"aim</w>":10259,"incur":10260,"incare</w>":10261,"incess</w>":10262,"incident</w>":10263,"avian</w>":10264,"trials</w>":10265,"tricity</w>":10266,"stra":10267,"serts</w>":10268,"server</w>":10269,"pled</w>":10270,"plants</w>":10271,"plus</w>":10272,"poorly</w>":10273,"forty</w>":10274,"forcep":10275,"parations</w>":10276,"partly</w>":10277,"parental</w>":10278,"COVID</w>":10279,"timore</w>":10280,"timely</w>":10281,"interviews</w>":10282,"rector</w>":10283,"1920</w>":10284,"1953</w>":10285,"1971</w>":10286,"1952</w>":10287,"1949/":10288,"1960s</w>":10289,"enership</w>":10290,"ffron</w>":10291,"Marl":10292,"lum</w>":10293,"Indu":10294,"Information</w>":10295,"InBe":10296,"Inclu":10297,"periph":10298,"serviced</w>":10299,"approach</w>":10300,"expon":10301,"hosts</w>":10302,"1.35</w>":10303,"1.53</w>":10304,"1.57</w>":10305,"1.87</w>":10306,"1.03</w>":10307,"guides</w>":10308,"guilty</w>":10309,"heads</w>":10310,"heaters</w>":10311,"reaons</w>":10312,"comparable</w>":10313,"generic</w>":10314,"Shar":10315,"andan</w>":10316,"resin</w>":10317,"voice-":10318,"tuli":10319,"tuality</w>":10320,"Did</w>":10321,"Diagno":10322,"Director</w>":10323,"biking</w>":10324,"bikini</w>":10325,"entication</w>":10326,"picking</w>":10327,"decide</w>":10328,"rain</w>":10329,"onomous</w>":10330,"2.32</w>":10331,"changing</w>":10332,"fire</w>":10333,"Nestl":10334,"traditionally</w>":10335,"outsourcing</w>":10336,"outbreaks</w>":10337,"accident</w>":10338,"accidental</w>":10339,"cassurance</w>":10340,"focus</w>":10341,"Chapter</w>":10342,"3.20</w>":10343,"boy</w>":10344,"bot</w>":10345,"boating</w>":10346,"contribu":10347,"contemporary</w>":10348,"rics</w>":10349,"shift</w>":10350,"shire</w>":10351,"facility</w>":10352,"face-to-":10353,"North-":10354,"fever</w>":10355,"feared</w>":10356,"Germans</w>":10357,"rous</w>":10358,"0.4</w>":10359,"vels</w>":10360,"velopment</w>":10361,"reactions</w>":10362,"reactors</w>":10363,"school":10364,"schemes</w>":10365,"categori":10366,"mist</w>":10367,"miss</w>":10368,"might</w>":10369,"require</w>":10370,"Franç":10371,"Francisco</w>":10372,"engage</w>":10373,"engaging</w>":10374,"Research</w>":10375,"Resident</w>":10376,"Reebo":10377,"mush":10378,"must</w>":10379,"mustache</w>":10380,"supposed</w>":10381,"1996/":10382,"judici":10383,"faster</w>":10384,"cuts</w>":10385,"certi":10386,"turning</w>":10387,"bre</w>":10388,"bras</w>":10389,"assault</w>":10390,"assaults</w>":10391,"widespread</w>":10392,"millionaires</w>":10393,"geting</w>":10394,"e-only</w>":10395,"e-learning</w>":10396,"e-reader</w>":10397,"dicate</w>":10398,"ferred</w>":10399,"fertili":10400,"sell</w>":10401,"bananas</w>":10402,"presidency</w>":10403,"etheless</w>":10404,"earn</w>":10405,"infant</w>":10406,"inflam":10407,"Greta</w>":10408,"relating</w>":10409,"fiction</w>":10410,"Chinese":10411,"packing</w>":10412,"packers</w>":10413,"Why</w>":10414,"Wholes":10415,"Moon</w>":10416,"kee</w>":10417,"keting</w>":10418,"keys</w>":10419,"mile</w>":10420,"mileage</w>":10421,"signings</w>":10422,"blad":10423,"ologi":10424,"cata":10425,"rented</w>":10426,"helpful</w>":10427,"lasting</w>":10428,"Grover</w>":10429,"visible</w>":10430,"Congress</w>":10431,"Conservatives</w>":10432,"Alco":10433,"dai</w>":10434,"after":10435,"mango":10436,"pay-":10437,"provision</w>":10438,"lock</w>":10439,"App":10440,"obstructive</w>":10441,"dryer</w>":10442,"tbooks</w>":10443,"privately</w>":10444,"privacy</w>":10445,"1870</w>":10446,"1862</w>":10447,"dissatisfied</w>":10448,"disapproved</w>":10449,"disabled</w>":10450,"airs</w>":10451,"airment</w>":10452,"sexting</w>":10453,"lications</w>":10454,"kill</w>":10455,"developer</w>":10456,"developments</w>":10457,"ofi</w>":10458,"ratic-":10459,"non-European</w>":10460,"non-profit</w>":10461,"functions</w>":10462,"collecting</w>":10463,"step</w>":10464,"saved</w>":10465,"saffron</w>":10466,"restation</w>":10467,"Proj":10468,"Progres":10469,"Paramount</w>":10470,"strike</w>":10471,"Fire":10472,"Fiat</w>":10473,"Fifty</w>":10474,"Lives</w>":10475,"winter</w>":10476,"African-":10477,"franchises</w>":10478,"ssium</w>":10479,"illnesses</w>":10480,"Commer":10481,"aker</w>":10482,"Latino</w>":10483,"FinTech</w>":10484,"viewer-":10485,"fulfill":10486,"salons</w>":10487,"Demand</w>":10488,"advertis":10489,"electors</w>":10490,"webshops</w>":10491,"filled</w>":10492,"High</w>":10493,"mentions</w>":10494,"Democratic-":10495,"etc</w>":10496,"joint</w>":10497,"pointed</w>":10498,"charter</w>":10499,"1,8":10500,"1,900</w>":10501,"borne</w>":10502,"census</w>":10503,"centres</w>":10504,"harmful</w>":10505,"directed</w>":10506,"avut</w>":10507,"Stream</w>":10508,"Steph":10509,"victories</w>":10510,"colleagues</w>":10511,"skincare</w>":10512,"ation/":10513,"Beli":10514,"Tre</w>":10515,"downward</w>":10516,"101</w>":10517,"105</w>":10518,"104.7</w>":10519,"socially</w>":10520,"truc":10521,"streamers</w>":10522,"11.7</w>":10523,"11.1</w>":10524,"11.8</w>":10525,"Amgen</w>":10526,"Romanian</w>":10527,"donor</w>":10528,"broadcasts</w>":10529,"Monetary</w>":10530,"toward</w>":10531,"latter</w>":10532,"match":10533,"matches</w>":10534,"speaker</w>":10535,"10.3</w>":10536,"orial</w>":10537,"Department</w>":10538,"Development</w>":10539,"Gaming</w>":10540,"travelling</w>":10541,"Chilean</w>":10542,"Chiapas</w>":10543,"enrolle":10544,"underweight</w>":10545,"under-five</w>":10546,"Vie":10547,"Vivend":10548,"Overwatch</w>":10549,"affecting</w>":10550,"immigrating</w>":10551,"14.8</w>":10552,"single-":10553,"behaviour</w>":10554,"representa":10555,"aimed</w>":10556,"15.7</w>":10557,"15.9</w>":10558,"17.7</w>":10559,"handmade</w>":10560,"12.2</w>":10561,"12.1</w>":10562,"Walter</w>":10563,"azith":10564,"evo</w>":10565,"merchandis":10566,"sofas</w>":10567,"year-old</w>":10568,"year-end</w>":10569,"year-olds</w>":10570,"Admini":10571,"Banco</w>":10572,"communicating</w>":10573,"18.7</w>":10574,"18.2</w>":10575,"calories</w>":10576,"pub</w>":10577,"arriving</w>":10578,"16.4</w>":10579,"3,7":10580,"3,9":10581,"3,500</w>":10582,"flexit":10583,"publication</w>":10584,"influenced</w>":10585,"Endgame</w>":10586,"Incidence</w>":10587,"Amazon":10588,"targets</w>":10589,"self-quarantine</w>":10590,"exclusively</w>":10591,"printers</w>":10592,"23.2</w>":10593,"23.4</w>":10594,"recover</w>":10595,"recoveries</w>":10596,"19.6</w>":10597,"13.1</w>":10598,"13.5</w>":10599,"13.4</w>":10600,"13.9</w>":10601,"nomination</w>":10602,"nominated</w>":10603,"cheaper</w>":10604,"Unilever</w>":10605,"couple</w>":10606,"21.7</w>":10607,"21.8</w>":10608,"21.5</w>":10609,"21.9</w>":10610,"20.7</w>":10611,"Turnover</w>":10612,"denied</w>":10613,"denomination</w>":10614,"erian</w>":10615,"Island</w>":10616,"commodity</w>":10617,"superannu":10618,"supermini</w>":10619,"backpackers</w>":10620,"pharmaceuticals</w>":10621,"Baxter</w>":10622,"ballots</w>":10623,"girl</w>":10624,"Caesars</w>":10625,"Carter</w>":10626,"tor-assisted</w>":10627,"placed</w>":10628,"barley</w>":10629,"profitability</w>":10630,"receives</w>":10631,"26.7</w>":10632,"26.5</w>":10633,"26.4</w>":10634,"frater":10635,"removed</w>":10636,"doctor-assisted</w>":10637,"Regional</w>":10638,"Princess</w>":10639,"copies</w>":10640,"15th</w>":10641,"155.2</w>":10642,"24.6</w>":10643,"Lake</w>":10644,"annum</w>":10645,"reference</w>":10646,"referred</w>":10647,"listenership</w>":10648,"shortly</w>":10649,"potency</w>":10650,"30.5</w>":10651,"EU28</w>":10652,"Syn":10653,"fluctuating</w>":10654,"Windows</w>":10655,"herpes</w>":10656,"stalking</w>":10657,"extremist</w>":10658,"dependent</w>":10659,"37.2</w>":10660,"37.4</w>":10661,"37.3</w>":10662,"Traffic</w>":10663,"lonely</w>":10664,"Paypal</w>":10665,"Roy":10666,"Rogers</w>":10667,"Roche</w>":10668,"burden":10669,"biotics</w>":10670,"languages</w>":10671,"athletic</w>":10672,"campaigns</w>":10673,"29.2</w>":10674,"29.3</w>":10675,"Airbus</w>":10676,"Brits</w>":10677,"Series</w>":10678,"declare</w>":10679,"Afghans</w>":10680,"40.4</w>":10681,"Bucks</w>":10682,"Silicon</w>":10683,"gerous</w>":10684,"hinder</w>":10685,"labeled</w>":10686,"scoring</w>":10687,"checks</w>":10688,"corrective</w>":10689,"manufactures</w>":10690,"25,":10691,"33.6</w>":10692,"33.4</w>":10693,"Capri</w>":10694,"ISIS":10695,"drau":10696,"drastically</w>":10697,"phishing</w>":10698,"textbooks</w>":10699,"animals</w>":10700,"acetamin":10701,"pornography</w>":10702,"16th</w>":10703,"38.6</w>":10704,"38.4</w>":10705,"Milan</w>":10706,"Milwau":10707,"Surin":10708,"divism</w>":10709,"iconic</w>":10710,"qualifications</w>":10711,"multi-tas":10712,"Election</w>":10713,"Elections</w>":10714,"Electricity</w>":10715,"36.6</w>":10716,"Holding</w>":10717,"Skoda</w>":10718,"Skype</w>":10719,"kronor</w>":10720,"murdered</w>":10721,"topics</w>":10722,"restricting</w>":10723,"described</w>":10724,"describing</w>":10725,"fixed-":10726,"Micron</w>":10727,"dreds</w>":10728,"2013/2014</w>":10729,"violent</w>":10730,"sustainability</w>":10731,"Starwood</w>":10732,"Foot</w>":10733,"PERS</w>":10734,"tonne</w>":10735,"anni</w>":10736,"dealers</w>":10737,"dealerships</w>":10738,"consisting</w>":10739,"subsidiary</w>":10740,"subsidized</w>":10741,"48.1</w>":10742,"Biomet</w>":10743,"Estée</w>":10744,"McK":10745,"Outb":10746,"hundreds</w>":10747,"refining</w>":10748,"reflected</w>":10749,"opium</w>":10750,"Chargers</w>":10751,"author</w>":10752,"successfully</w>":10753,"Camero":10754,"Mugab":10755,"Management</w>":10756,"Williams</w>":10757,"click</w>":10758,"laptops</w>":10759,"achiev":10760,"derivatives</w>":10761,"analyzed</w>":10762,"34.9</w>":10763,"5,0":10764,"Celgene</w>":10765,"Coopers</w>":10766,"Nuevo</w>":10767,"lottery</w>":10768,"screening</w>":10769,"monitor</w>":10770,"monitors</w>":10771,"attributes</w>":10772,"President-":10773,"Preferences</w>":10774,"68.3</w>":10775,"Merce":10776,"false</w>":10777,"found":10778,"promoting</w>":10779,"Statistics</w>":10780,"firearms</w>":10781,"journalism</w>":10782,"Labrador</w>":10783,"NHO</w>":10784,"Raiders</w>":10785,"Zimmer</w>":10786,"durum</w>":10787,"durable</w>":10788,"romance</w>":10789,"romycin</w>":10790,"advisory</w>":10791,"competitions</w>":10792,"Universal</w>":10793,"photos</w>":10794,"photograph</w>":10795,"terrorists</w>":10796,"executive</w>":10797,"everything</w>":10798,"Alien</w>":10799,"Shades</w>":10800,"SharePo":10801,"concept</w>":10802,"preciation</w>":10803,"festival</w>":10804,"sponsor</w>":10805,"magazine</w>":10806,"Berry</w>":10807,"Louisi":10808,"Niger</w>":10809,"Nigerian</w>":10810,"desserts</w>":10811,"thereof</w>":10812,"attempts</w>":10813,"attempted</w>":10814,"smallpox</w>":10815,"Expected</w>":10816,"municipality</w>":10817,"MLS</w>":10818,"Matter</w>":10819,"Match.com</w>":10820,"tanker</w>":10821,"walk</w>":10822,"existing</w>":10823,"controlling</w>":10824,"supportive</w>":10825,"ACA</w>":10826,"Crew</w>":10827,"OkCup":10828,"Physi":10829,"Stream":10830,"Stress</w>":10831,"TIV</w>":10832,"campers</w>":10833,"day-":10834,"gasoline</w>":10835,"gallon</w>":10836,"lesser</w>":10837,"molasses</w>":10838,"missing</w>":10839,"integration</w>":10840,"houseCoopers</w>":10841,"browser</w>":10842,"canceled</w>":10843,"optimization</w>":10844,"Agricul":10845,"Benelu":10846,"Load</w>":10847,"Morning</w>":10848,"OTT</w>":10849,"Sanofi</w>":10850,"delay</w>":10851,"eventually</w>":10852,"useful</w>":10853,"impairment</w>":10854,"Newmont</w>":10855,"Newfound":10856,"musicians</w>":10857,"Assets</w>":10858,"Service</w>":10859,"Treatment</w>":10860,"endorsement</w>":10861,"instruments</w>":10862,"AGC</w>":10863,"Baltimore</w>":10864,"CBD</w>":10865,"CBS</w>":10866,"PaaS</w>":10867,"flav":10868,"flag</w>":10869,"alkaloids</w>":10870,"stressed</w>":10871,"consecutive</w>":10872,"ological</w>":10873,"ologics</w>":10874,"dramatic</w>":10875,"marketplaces</w>":10876,"start-up</w>":10877,"Advair</w>":10878,"Electronic</w>":10879,"legislation</w>":10880,"13th</w>":10881,"C-section</w>":10882,"Planning</w>":10883,"Small</w>":10884,"domic":10885,"domain</w>":10886,"library</w>":10887,"libraries</w>":10888,"ophen</w>":10889,"pedestrian</w>":10890,"pedestrians</w>":10891,"parliamentary</w>":10892,"decorated</w>":10893,"focusing</w>":10894,"fast-food</w>":10895,"submitted</w>":10896,"neighboring</w>":10897,"sanitizer</w>":10898,"Borussia</w>":10899,"Crude</w>":10900,"DVD</w>":10901,"You</w>":10902,"odore</w>":10903,"satellit":10904,"science</w>":10905,"distrusted</w>":10906,"Theodore</w>":10907,"user-generated</w>":10908,"bedrooms</w>":10909,"immediately</w>":10910,"recruiters</w>":10911,"first-time</w>":10912,"breakfast</w>":10913,"company-owned</w>":10914,"autumn</w>":10915,"electricals</w>":10916,"Pornhub</w>":10917,"coupons</w>":10918,"Cardinals</w>":10919,"pancreatic</w>":10920,"Adults</w>":10921,"Gianni</w>":10922,"Grammy</w>":10923,"Janeiro</w>":10924,"Macron</w>":10925,"School</w>":10926,"Thir":10927,"aerospace</w>":10928,"domestically</w>":10929,"eastern</w>":10930,"tinction</w>":10931,"urbanity</w>":10932,"statutory</w>":10933,"combat</w>":10934,"coronary</w>":10935,"quintiles</w>":10936,"civilians</w>":10937,"British-":10938,"largely</w>":10939,"Religious</w>":10940,"substitutes</w>":10941,"disasters</w>":10942,"intellig":10943,"alcohol-related</w>":10944,"Pokémon</w>":10945,"threatened</w>":10946,"check-up</w>":10947,"concentrated</w>":10948,"EAEU</w>":10949,"Hudson</w>":10950,"Mbps</w>":10951,"Target</w>":10952,"adequate</w>":10953,"dangerous</w>":10954,"dermatologi":10955,"e.g</w>":10956,"hepatitis</w>":10957,"kneeling</w>":10958,"songs</w>":10959,"writing</w>":10960,"recidivism</w>":10961,"lifted</w>":10962,"perceive</w>":10963,"stadium</w>":10964,"asylum</w>":10965,"contains</w>":10966,"States-based</w>":10967,"comprised</w>":10968,"neutral</w>":10969,"In-store</w>":10970,"expansion</w>":10971,"noticeable</w>":10972,"Chrome</w>":10973,"twentieth</w>":10974,"ferrosilicon</w>":10975,"ethanol</w>":10976,"Speci":10977,"Participation</w>":10978,"Workplace</w>":10979,"trustworthy</w>":10980,"Device</w>":10981,"Mazda</w>":10982,"stockpiling</w>":10983,"Kenyan</w>":10984,"Secret</w>":10985,"appearances</w>":10986,"postponed</w>":10987,"Hyundai</w>":10988,"Spanish-born</w>":10989,"locomotives</w>":10990,"Awareness</w>":10991,"Another</w>":10992,"Agreement</w>":10993,"Batman</w>":10994,"Bachelor</w>":10995,"Caremark</w>":10996,"Coffee</w>":10997,"Dortmund</w>":10998,"Davidson</w>":10999,"DACH</w>":11000,"Gallup</w>":11001,"Himachal</w>":11002,"Hobbit</w>":11003,"Harris</w>":11004,"H1N1</w>":11005,"Idaho</w>":11006,"Kayak</w>":11007,"KGaA</w>":11008,"Lord</w>":11009,"Literacy</w>":11010,"Looking</w>":11011,"Lincoln</w>":11012,"Monday</w>":11013,"Mauritius</w>":11014,"Munich</w>":11015,"Nonetheless</w>":11016,"Nunavut</w>":11017,"Ohio</w>":11018,"Oregon</w>":11019,"Openreach</w>":11020,"Plus</w>":11021,"PepsiCo</w>":11022,"Pricewater":11023,"Rotterdam</w>":11024,"Something</w>":11025,"Sereti":11026,"Sinti</w>":11027,"Vehi":11028,"Vudu</w>":11029,"Wrestling</w>":11030,"Wayfair</w>":11031,"WESC</w>":11032,"aesthetic</w>":11033,"bloodiest</w>":11034,"crashes</w>":11035,"evid":11036,"glycol</w>":11037,"iPlayer</w>":11038,"kerage</w>":11039,"slogan</w>":11040,"wallets</w>":11041,"thracite</w>":11042,"enplanements</w>":11043,"arrests</w>":11044,"alignment</w>":11045,"liminary</w>":11046,"stingly</w>":11047,"diploma</w>":11048,"amendments</w>":11049,"2029/30</w>":11050,"Thunberg</w>":11051,"deforestation</w>":11052,"2009/2010</w>":11053,"2002/03</w>":11054,"2003/04</w>":11055,"State/ISIS</w>":11056,"sessions</w>":11057,"champion</w>":11058,"chopsticks</w>":11059,"buyouts</w>":11060,"negoti":11061,"forceps</w>":11062,"1949/50</w>":11063,"InBev</w>":11064,"Including</w>":11065,"Diagnosis</w>":11066,"face-to-face</w>":11067,"categorized</w>":11068,"Reebok</w>":11069,"1996/97</w>":11070,"judiciary</w>":11071,"inflammation</w>":11072,"Chinese-language</w>":11073,"Wholesale</w>":11074,"viewer-measured</w>":11075,"fulfillment</w>":11076,"Vivendi</w>":11077,"azithromycin</w>":11078,"Administration</w>":11079,"superannuation</w>":11080,"ISIS/Islamic</w>":11081,"acetaminophen</w>":11082,"Milwaukee</w>":11083,"Cameroon</w>":11084,"Mugabe</w>":11085,"President-elect</w>":11086,"SharePoint</w>":11087,"Louisiana</w>":11088,"OkCupid</w>":11089,"Benelux</w>":11090,"satellites</w>":11091,"PricewaterhouseCoopers</w>":11092,"'L":11093,"'back</w>":11094,"-G":11095,"-U</w>":11096,"-up</w>":11097,"-Mar":11098,"-led</w>":11099,"-ranked</w>":11100,"-air</w>":11101,"-year":11102,"-inj":11103,"-specific</w>":11104,"-LTE</w>":11105,"-called</w>":11106,"-moun":11107,".E.":11108,"/2017</w>":11109,"/2012</w>":11110,"/gas</w>":11111,"/issues</w>":11112,"/AR</w>":11113,"/Advair</w>":11114,"0/":11115,"119</w>":11116,"118</w>":11117,"115</w>":11118,"165</w>":11119,"11,000</w>":11120,"117</w>":11121,"121</w>":11122,"123</w>":11123,"170</w>":11124,"127</w>":11125,"122</w>":11126,"149</w>":11127,"139</w>":11128,"137</w>":11129,"146</w>":11130,"143</w>":11131,"153</w>":11132,"12,000</w>":11133,"1Q'":11134,"212</w>":11135,"240</w>":11136,"210</w>":11137,"235</w>":11138,"270</w>":11139,"280</w>":11140,"285</w>":11141,"261</w>":11142,"22.5</w>":11143,"29,":11144,"27,":11145,"39":11146,"360</w>":11147,"321</w>":11148,"346</w>":11149,"389</w>":11150,"378</w>":11151,"390</w>":11152,"38,":11153,"31.9</w>":11154,"4G":11155,"44.":11156,"432</w>":11157,"451</w>":11158,"41.3</w>":11159,"40,000</w>":11160,"406</w>":11161,"42.2</w>":11162,"41.9</w>":11163,"56":11164,"57":11165,"58":11166,"560</w>":11167,"570</w>":11168,"52,":11169,"588</w>":11170,"56.7</w>":11171,"51.9</w>":11172,"64":11173,"62.":11174,"623</w>":11175,"626</w>":11176,"675</w>":11177,"63.8</w>":11178,"72.":11179,"712</w>":11180,"72.6</w>":11181,"74.8</w>":11182,"78.4</w>":11183,"768.3</w>":11184,"8th</w>":11185,"82.":11186,"83.":11187,"88.":11188,"83.3</w>":11189,"99.":11190,"977</w>":11191,"90th</w>":11192,"=100</w>":11193,"A/":11194,"AM</w>":11195,"AF</w>":11196,"Are":11197,"Away</w>":11198,"Adid":11199,"Apart</w>":11200,"Ass":11201,"Avon</w>":11202,"AUM</w>":11203,"Astra":11204,"BE":11205,"Bt":11206,"B.</w>":11207,"BM</w>":11208,"Ban</w>":11209,"Bar</w>":11210,"Bing":11211,"Beng":11212,"Bath</w>":11213,"CF":11214,"Cat":11215,"Cul":11216,"Car</w>":11217,"Coll":11218,"Cab":11219,"Chad</w>":11220,"Cavi":11221,"Cho":11222,"Cau":11223,"Cinem":11224,"DR</w>":11225,"D.</w>":11226,"Dans":11227,"Drag":11228,"E-":11229,"EC":11230,"EO":11231,"EP":11232,"ET</w>":11233,"EY</w>":11234,"Eur":11235,"Each</w>":11236,"Ecol":11237,"Fall</w>":11238,"Fool</w>":11239,"Fish</w>":11240,"Fashion</w>":11241,"GO":11242,"Go":11243,"Gat":11244,"Geb":11245,"Get":11246,"Gmail</w>":11247,"Gap</w>":11248,"He</w>":11249,"Han":11250,"Hil":11251,"Has":11252,"Hel":11253,"Ham":11254,"Here</w>":11255,"IV</w>":11256,"IP</w>":11257,"IK</w>":11258,"Ice</w>":11259,"Ibi":11260,"ITV</w>":11261,"I-U</w>":11262,"Jur":11263,"Jio</w>":11264,"JPM":11265,"J.C.</w>":11266,"KL":11267,"KT</w>":11268,"Kan":11269,"Kol":11270,"Kle":11271,"Kare":11272,"Kak":11273,"Knight</w>":11274,"Kick</w>":11275,"KFC</w>":11276,"Kill</w>":11277,"Kind":11278,"KBO</w>":11279,"LS":11280,"Lt":11281,"Len":11282,"Lar":11283,"Low":11284,"Lid":11285,"Lis":11286,"Lob":11287,"Laborat":11288,"MO":11289,"Me</w>":11290,"Manu":11291,"Moc":11292,"Mov":11293,"Mission</w>":11294,"Memp":11295,"NC":11296,"NP":11297,"NA</w>":11298,"Non-":11299,"Native</w>":11300,"Nash":11301,"NKT</w>":11302,"Of":11303,"Ox":11304,"OC</w>":11305,"Off":11306,"Oil</w>":11307,"Operation</w>":11308,"PT":11309,"Publi":11310,"Pover":11311,"Pandemic</w>":11312,"Pass":11313,"Please</w>":11314,"PMI</w>":11315,"Pirates</w>":11316,"Pope</w>":11317,"Pont</w>":11318,"PUB":11319,"Prison</w>":11320,"P.E.":11321,"QM</w>":11322,"Roll":11323,"Rei":11324,"Rover</w>":11325,"Reg":11326,"Ronald</w>":11327,"Regal</w>":11328,"Ralp":11329,"SC":11330,"Sw":11331,"Smo":11332,"Spor":11333,"Sex":11334,"Sab":11335,"Sand":11336,"Sear":11337,"Sig":11338,"Sports</w>":11339,"Sof":11340,"Smart</w>":11341,"Seven</w>":11342,"Snow":11343,"Selected</w>":11344,"Scand":11345,"SQM</w>":11346,"TS":11347,"TA</w>":11348,"Telec":11349,"Tour</w>":11350,"Twi":11351,"Tinto</w>":11352,"Tak":11353,"Tamp":11354,"Tire</w>":11355,"TNT</w>":11356,"UK":11357,"Utre":11358,"VC</w>":11359,"Wy":11360,"Wat":11361,"Was</w>":11362,"Wim":11363,"Wran":11364,"Wall</w>":11365,"Will":11366,"WWE</w>":11367,"Xia":11368,"Yale</w>":11369,"Zon":11370,"Zei":11371,"ah</w>":11372,"ab</w>":11373,"ave</w>":11374,"aver</w>":11375,"aven</w>":11376,"ahawks</w>":11377,"bars</w>":11378,"bron":11379,"bber":11380,"bury</w>":11381,"bols</w>":11382,"bums</w>":11383,"bited</w>":11384,"bath":11385,"battles</w>":11386,"brain</w>":11387,"cow":11388,"cook</w>":11389,"cam</w>":11390,"ccan":11391,"cados</w>":11392,"cesarean</w>":11393,"cacha":11394,"cider</w>":11395,"dst":11396,"dron":11397,"dale</w>":11398,"dres":11399,"dance</w>":11400,"dles</w>":11401,"dwel":11402,"draft</w>":11403,"d-based</w>":11404,"dwood</w>":11405,"dka</w>":11406,"dynamics</w>":11407,"ej":11408,"ex</w>":11409,"e.</w>":11410,"eers</w>":11411,"eper</w>":11412,"edy</w>":11413,"evaluation</w>":11414,"eaten</w>":11415,"fs</w>":11416,"fes</w>":11417,"fab":11418,"fing":11419,"fron":11420,"fone</w>":11421,"fles</w>":11422,"fry</w>":11423,"gan":11424,"gol":11425,"gue</w>":11426,"germ":11427,"gene":11428,"gnity</w>":11429,"grid</w>":11430,"ht</w>":11431,"hen":11432,"hul":11433,"height</w>":11434,"hama</w>":11435,"hacking</w>":11436,"i-":11437,"iz":11438,"idi":11439,"ivi":11440,"iron":11441,"iWatch</w>":11442,"ja</w>":11443,"jar":11444,"jumped</w>":11445,"ky</w>":11446,"ku</w>":11447,"kata</w>":11448,"kthrough</w>":11449,"kept</w>":11450,"lations</w>":11451,"ladi":11452,"lling</w>":11453,"lton</w>":11454,"lenders</w>":11455,"m.</w>":11456,"mic":11457,"mere</w>":11458,"mons</w>":11459,"mall</w>":11460,"matively</w>":11461,"mumps</w>":11462,"maple</w>":11463,"museum</w>":11464,"nou":11465,"nail</w>":11466,"ner-":11467,"navy</w>":11468,"nhub.com</w>":11469,"odi":11470,"osit":11471,"other":11472,"osis</w>":11473,"ogen":11474,"ography</w>":11475,"otho</w>":11476,"pt</w>":11477,"pm</w>":11478,"pon</w>":11479,"pare</w>":11480,"poo":11481,"pne":11482,"path</w>":11483,"pair</w>":11484,"pav":11485,"passi":11486,"pell":11487,"prank</w>":11488,"rin":11489,"rur":11490,"rative</w>":11491,"sin</w>":11492,"sand</w>":11493,"sation</w>":11494,"swit":11495,"send</w>":11496,"slower</w>":11497,"snap":11498,"sbury</w>":11499,"tr</w>":11500,"tted</w>":11501,"tter":11502,"town</w>":11503,"tour</w>":11504,"tte</w>":11505,"ton-":11506,"tell</w>":11507,"tling</w>":11508,"tomin":11509,"toral</w>":11510,"tronic</w>":11511,"tful</w>":11512,"t-based</w>":11513,"telem":11514,"tnership</w>":11515,"ut":11516,"ul</w>":11517,"ush":11518,"uvi":11519,"uan</w>":11520,"ucle":11521,"utility</w>":11522,"vin</w>":11523,"vul":11524,"vation</w>":11525,"voll":11526,"vess":11527,"vva</w>":11528,"vlog":11529,"wall</w>":11530,"wana</w>":11531,"wns</w>":11532,"wick</w>":11533,"write</w>":11534,"xon</w>":11535,"xac":11536,"xine</w>":11537,"x-ray</w>":11538,"yro":11539,"y-based</w>":11540,"yright</w>":11541,"yStream</w>":11542,"yuan</w>":11543,"ze":11544,"zational</w>":11545,"zambi":11546,"ça</w>":11547,"ébec</w>":11548,"than":11549,"thqu":11550,"thrus</w>":11551,"throw</w>":11552,"thru</w>":11553,"thyro":11554,"ers":11555,"erate</w>":11556,"erals</w>":11557,"ermain</w>":11558,"erprint</w>":11559,"ernal</w>":11560,"erlock</w>":11561,"tip</w>":11562,"tivision</w>":11563,"tization</w>":11564,"tile-":11565,"201</w>":11566,"205</w>":11567,"2055</w>":11568,"2039</w>":11569,"2038</w>":11570,"2063</w>":11571,"enom":11572,"endi":11573,"encomp":11574,"ensed</w>":11575,"enak":11576,"ensive</w>":11577,"enables</w>":11578,"enty-":11579,"inde":11580,"inven":11581,"inated</w>":11582,"inform":11583,"infe":11584,"infer":11585,"instruc":11586,"inher":11587,"instating</w>":11588,"induced</w>":11589,"inpatient</w>":11590,"indeed</w>":11591,"invoice</w>":11592,"inarians</w>":11593,"inspir":11594,"innov":11595,"insufficient</w>":11596,"inavian</w>":11597,"inogen":11598,"anch":11599,"angr":11600,"anno":11601,"ana-":11602,"anapolis</w>":11603,"anonym":11604,"anthracite</w>":11605,"ror</w>":11606,"roses</w>":11607,"ropracti":11608,"rosters</w>":11609,"robots</w>":11610,"ropic</w>":11611,"robber":11612,"reb":11613,"rements</w>":11614,"refer</w>":11615,"reopening</w>":11616,"reducing</w>":11617,"reparations</w>":11618,"retted</w>":11619,"reinstating</w>":11620,"ari</w>":11621,"ardi":11622,"arch":11623,"aris":11624,"arama</w>":11625,"ary/":11626,"arranged</w>":11627,"arketing</w>":11628,"ony</w>":11629,"onto</w>":11630,"oner</w>":11631,"ongh":11632,"onated</w>":11633,"onair":11634,"onlin":11635,"onucle":11636,"tail":11637,"taby":11638,"ortion</w>":11639,"orking</w>":11640,"orchi":11641,"ordo</w>":11642,"ortization</w>":11643,"iton</w>":11644,"itch</w>":11645,"itance</w>":11646,"outr":11647,"outwe":11648,"persec":11649,"perform</w>":11650,"al/":11651,"alo</w>":11652,"alic":11653,"along":11654,"alcop":11655,"albums</w>":11656,"hire</w>":11657,"hilia</w>":11658,"liv</w>":11659,"licor":11660,"lious</w>":11661,"liability</w>":11662,"licit</w>":11663,"atlan":11664,"attrition</w>":11665,"atebo":11666,"rides</w>":11667,"rished</w>":11668,"ride-":11669,"rimp</w>":11670,"rifles</w>":11671,"riosit":11672,"ilo</w>":11673,"ombar":11674,"omware</w>":11675,"omnic":11676,"omCBS</w>":11677,"eca</w>":11678,"ecraft</w>":11679,"urant</w>":11680,"stachi":11681,"stages</w>":11682,"stay-":11683,"staurant</w>":11684,"step":11685,"strea":11686,"stel</w>":11687,"stances</w>":11688,"stands</w>":11689,"sher</w>":11690,"shel":11691,"shment</w>":11692,"shold</w>":11693,"shut</w>":11694,"shrimp</w>":11695,"stive</w>":11696,"stings</w>":11697,"diers</w>":11698,"diapers</w>":11699,"dignity</w>":11700,"asil":11701,"acul":11702,"acks</w>":11703,"acock</w>":11704,"acomCBS</w>":11705,"agro":11706,"agan</w>":11707,"agic</w>":11708,"agnia</w>":11709,"ageing</w>":11710,"oli</w>":11711,"oler":11712,"olar":11713,"olam</w>":11714,"vit</w>":11715,"vita":11716,"vist</w>":11717,"vious</w>":11718,"vival</w>":11719,"elance</w>":11720,"elton</w>":11721,"eliness</w>":11722,"elsea</w>":11723,"spends</w>":11724,"spaw":11725,"stationary</w>":11726,"emitted</w>":11727,"emission</w>":11728,"amo</w>":11729,"ami</w>":11730,"ames</w>":11731,"amortization</w>":11732,"umonia</w>":11733,"sives</w>":11734,"prohi":11735,"promin":11736,"promp":11737,"proud</w>":11738,"progres":11739,"profici":11740,"propos":11741,"provisions</w>":11742,"opo":11743,"opted</w>":11744,"opened</w>":11745,"oppon":11746,"ophilia</w>":11747,"yearly</w>":11748,"ulan</w>":11749,"ultim":11750,"ulties</w>":11751,"Thre":11752,"Thai</w>":11753,"detec":11754,"deemed</w>":11755,"depreciation</w>":11756,"de/Advair</w>":11757,"usch</w>":11758,"usages</w>":11759,"ussal":11760,"consen":11761,"conversion</w>":11762,"containing</w>":11763,"consin</w>":11764,"2000s</w>":11765,"comic</w>":11766,"verings</w>":11767,"verdic":11768,"best-":11769,"apart":11770,"haun":11771,"unk</w>":11772,"uncer":11773,"unlikely</w>":11774,"unpaid</w>":11775,"unsure</w>":11776,"unfair</w>":11777,"unintenti":11778,"undi</w>":11779,"unaffiliated</w>":11780,"unachal</w>":11781,"unethical</w>":11782,"unsolved</w>":11783,"word</w>":11784,"worry</w>":11785,"worsen":11786,"traders</w>":11787,"seed</w>":11788,"sees</w>":11789,"seeds</w>":11790,"seiz":11791,"seliv</w>":11792,"ader</w>":11793,"adal</w>":11794,"adly</w>":11795,"adays</w>":11796,"adata</w>":11797,"adventure</w>":11798,"addres":11799,"ationally</w>":11800,"weak":11801,"iding</w>":11802,"idly</w>":11803,"move</w>":11804,"movers</w>":11805,"module</w>":11806,"rug</w>":11807,"ruin</w>":11808,"ruptions</w>":11809,"rudest</w>":11810,"portal</w>":11811,"porarily</w>":11812,"pornhub.com</w>":11813,"surge</w>":11814,"surge":11815,"surpassing</w>":11816,"whel":11817,"cht</w>":11818,"chemic</w>":11819,"chot":11820,"busta</w>":11821,"bulim":11822,"butan":11823,"butter":11824,"prevalent</w>":11825,"predomin":11826,"precipi":11827,"precau":11828,"prepare</w>":11829,"esbrands</w>":11830,"esoph":11831,"endence</w>":11832,"explo":11833,"exology</w>":11834,"exposed</w>":11835,"excise</w>":11836,"extrac":11837,"extinction</w>":11838,"march</w>":11839,"marry</w>":11840,"marrying</w>":11841,"ond-ranked</w>":11842,"fia</w>":11843,"fiber</w>":11844,"figh":11845,"figer</w>":11846,"fishing</w>":11847,"fitability</w>":11848,"fibre</w>":11849,"cost":11850,"coking</w>":11851,"coverings</w>":11852,"gic</w>":11853,"imal</w>":11854,"images</w>":11855,"immune</w>":11856,"abuse</w>":11857,"countr":11858,"county</w>":11859,"counters</w>":11860,"toa":11861,"torol":11862,"levo":11863,"letter</w>":11864,"legro</w>":11865,"ght-":11866,"ingus</w>":11867,"tered</w>":11868,"query</w>":11869,"queries</w>":11870,"cia</w>":11871,"cious</w>":11872,"eister</w>":11873,"metro</w>":11874,"megab":11875,"doors</w>":11876,"pest</w>":11877,"peace":11878,"petaby":11879,"ventional</w>":11880,"ronize</w>":11881,"ayal</w>":11882,"ayvon</w>":11883,"priori":11884,"veyed</w>":11885,"sun</w>":11886,"susta":11887,"reason":11888,"ranso":11889,"neare":11890,"nedy</w>":11891,"neapolis</w>":11892,"merman</w>":11893,"inced</w>":11894,"avik</w>":11895,"trilogy</w>":11896,"tribal</w>":11897,"tripled</w>":11898,"strative</w>":11899,"strength</w>":11900,"strywide</w>":11901,"plum":11902,"plague</w>":11903,"pose</w>":11904,"poses</w>":11905,"poison</w>":11906,"pression</w>":11907,"parity</w>":11908,"master</w>":11909,"mainten":11910,"mails</w>":11911,"make-up</w>":11912,"timing</w>":11913,"timate</w>":11914,"interviewer-measured</w>":11915,"valen</w>":11916,"19,":11917,"192</w>":11918,"193</w>":11919,"199</w>":11920,"1912</w>":11921,"1939</w>":11922,"1951</w>":11923,"1963</w>":11924,"1956</w>":11925,"1961</w>":11926,"1987</w>":11927,"1903</w>":11928,"ffalo</w>":11929,"Marvel":11930,"entally</w>":11931,"lube</w>":11932,"yol</w>":11933,"Inf":11934,"Inn</w>":11935,"Info":11936,"Instead</w>":11937,"soro":11938,"soda</w>":11939,"so-called</w>":11940,"expand</w>":11941,"explicit</w>":11942,"hoac":11943,"host</w>":11944,"hostel</w>":11945,"sided</w>":11946,"sider</w>":11947,"sidering</w>":11948,"scared</w>":11949,"scann":11950,"scape</w>":11951,"notions</w>":11952,"note</w>":11953,"notable</w>":11954,"ebooks</w>":11955,"moneti":11956,"monoxide</w>":11957,"mononucle":11958,"ised</w>":11959,"ischemic</w>":11960,"1.12</w>":11961,"1.31</w>":11962,"1.17</w>":11963,"1.13</w>":11964,"1.55</w>":11965,"1.54</w>":11966,"1.36</w>":11967,"1.47</w>":11968,"1.42</w>":11969,"1.41</w>":11970,"1.46</w>":11971,"1.76</w>":11972,"1.83</w>":11973,"1.68</w>":11974,"1.73</w>":11975,"1.99</w>":11976,"1.93</w>":11977,"guest</w>":11978,"heuser-":11979,"industrywide</w>":11980,"generon</w>":11981,"generalists</w>":11982,"Sherlock</w>":11983,"Shelton</w>":11984,"uble</w>":11985,"Canon</w>":11986,"Candy</w>":11987,"anded</w>":11988,"resins</w>":11989,"resorts</w>":11990,"voivode":11991,"tutor":11992,"turies</w>":11993,"Dior</w>":11994,"Diavik</w>":11995,"bili":11996,"bias</w>":11997,"biannually</w>":11998,"biologics</w>":11999,"entino-":12000,"nie</w>":12001,"pical</w>":12002,"pictures</w>":12003,"formers</w>":12004,"Acc":12005,"Across</w>":12006,"Accep":12007,"Acush":12008,"Activision</w>":12009,"deciding</w>":12010,"rarely</w>":12011,"ource</w>":12012,"chiropracti":12013,"2.50</w>":12014,"2.35</w>":12015,"2.22</w>":12016,"2.55</w>":12017,"2.39</w>":12018,"2.71</w>":12019,"2.95</w>":12020,"2.93</w>":12021,"2.05</w>":12022,"change":12023,"firmatively</w>":12024,"phy</w>":12025,"phenom":12026,"Negar":12027,"NeLiga</w>":12028,"tea</w>":12029,"teliers</w>":12030,"tra-":12031,"traits</w>":12032,"trains</w>":12033,"tradition</w>":12034,"outnumbered</w>":12035,"outsider</w>":12036,"accents</w>":12037,"activeness</w>":12038,"activist</w>":12039,"nudity</w>":12040,"grapes</w>":12041,"esson</w>":12042,"overburden":12043,"overwhel":12044,"indigen":12045,"Chat</w>":12046,"Chase</w>":12047,"Championships</w>":12048,"Chelsea</w>":12049,"3.29</w>":12050,"3.76</w>":12051,"3.06</w>":12052,"boom":12053,"borough</w>":12054,"boats</w>":12055,"selecting</w>":12056,"finally</w>":12057,"twin</w>":12058,"tware":12059,"context</w>":12060,"shir":12061,"facturing</w>":12062,"Northwest</w>":12063,"Nordst":12064,"gamy</w>":12065,"gamble</w>":12066,"breaker</w>":12067,"Perspectives</w>":12068,"Perisc":12069,"Peruvi":12070,"4.38</w>":12071,"4.99</w>":12072,"route</w>":12073,"0.65</w>":12074,"0.43</w>":12075,"6.47</w>":12076,"regretted</w>":12077,"reaction</w>":12078,"companion</w>":12079,"brokerage</w>":12080,"schino</w>":12081,"scholar":12082,"cler</w>":12083,"clones</w>":12084,"claim</w>":12085,"5.49</w>":12086,"5.76</w>":12087,"householder</w>":12088,"mix":12089,"migrant</w>":12090,"migra":12091,"request</w>":12092,"Frank":12093,"engine":12094,"Reported</w>":12095,"Reach</w>":12096,"Reliance</w>":12097,"Restaurant</w>":12098,"Reagan</w>":12099,"Regeneron</w>":12100,"mur</w>":12101,"muting</w>":12102,"mutt":12103,"7.42</w>":12104,"riser</w>":12105,"fatality</w>":12106,"faith</w>":12107,"cur</w>":12108,"cuit</w>":12109,"turb":12110,"bro</w>":12111,"assing</w>":12112,"wise</w>":12113,"aried</w>":12114,"arized</w>":12115,"millionair":12116,"gear</w>":12117,"gestive</w>":12118,"deviant</w>":12119,"Indianapolis</w>":12120,"Lew":12121,"Leste</w>":12122,"León</w>":12123,"Leave</w>":12124,"e-based</w>":12125,"e-added</w>":12126,"e-stick</w>":12127,"decreases</w>":12128,"cara</w>":12129,"carav":12130,"ference</w>":12131,"partially</w>":12132,"shopper</w>":12133,"bancassurance</w>":12134,"equals</w>":12135,"equally</w>":12136,"audit</w>":12137,"auction</w>":12138,"derers</w>":12139,"derness</w>":12140,"earic</w>":12141,"earthqu":12142,"conduced</w>":12143,"conducting</w>":12144,"infants</w>":12145,"inflow</w>":12146,"subgroup</w>":12147,"subtitles</w>":12148,"Grey</w>":12149,"canned</w>":12150,"pack</w>":12151,"adioli</w>":12152,"Moto</w>":12153,"Mozambi":12154,"Motorol":12155,"Moschino</w>":12156,"halluc":12157,"kees</w>":12158,"kett":12159,"ketch":12160,"Poll</w>":12161,"Polska</w>":12162,"participate</w>":12163,"mills</w>":12164,"blr</w>":12165,"bling</w>":12166,"blown</w>":12167,"capaci":12168,"capex</w>":12169,"insurers</w>":12170,"causing</w>":12171,"casting</w>":12172,"cafes</w>":12173,"videor</w>":12174,"critical</w>":12175,"Sprite</w>":12176,"specta":12177,"polish</w>":12178,"policies</w>":12179,"9.19</w>":12180,"hell</w>":12181,"curved</w>":12182,"visitation</w>":12183,"Conair</w>":12184,"Considering</w>":12185,"brand":12186,"Altern":12187,"Allegro</w>":12188,"measles</w>":12189,"theby</w>":12190,"theories</w>":12191,"dafone</w>":12192,"part-day</w>":12193,"belief</w>":12194,"aft</w>":12195,"affirmed</w>":12196,"afro-":12197,"affirmatively</w>":12198,"expectation</w>":12199,"mann</w>":12200,"mani</w>":12201,"manage</w>":12202,"manager</w>":12203,"mantling</w>":12204,"workplaces</w>":12205,"workstations</w>":12206,"bird</w>":12207,"obsol":12208,"observe</w>":12209,"governmental</w>":12210,"eye</w>":12211,"eyball</w>":12212,"investor-":12213,"189</w>":12214,"1871</w>":12215,"1852</w>":12216,"closing</w>":12217,"closer</w>":12218,"regulations</w>":12219,"disabilities</w>":12220,"disruptions</w>":12221,"dismantling</w>":12222,"sexism</w>":12223,"Armen":12224,"Arunachal</w>":12225,"Armani</w>":12226,"inclusive</w>":12227,"Bots":12228,"develops</w>":12229,"int-G":12230,"intoler":12231,"appendi":12232,"streets</w>":12233,"Coach</w>":12234,"Coal-mining</w>":12235,"goal</w>":12236,"goers</w>":12237,"non-working</w>":12238,"non-LGBT</w>":12239,"non-renewable</w>":12240,"non-essential</w>":12241,"non-MHS</w>":12242,"entering</w>":12243,"answer</w>":12244,"funny</w>":12245,"razolam</w>":12246,"collection</w>":12247,"stein</w>":12248,"stealing</w>":12249,"100th</w>":12250,"saving</w>":12251,"sausages</w>":12252,"Progress</w>":12253,"Profitability</w>":12254,"excessi":12255,"Mexicans</w>":12256,"Partnership</w>":12257,"strip</w>":12258,"Denomination</w>":12259,"Filip":12260,"cultures</w>":12261,"drove</w>":12262,"Anheuser-":12263,"Liech":12264,"transl":12265,"transformation</w>":12266,"wins</w>":12267,"windows</w>":12268,"searching</w>":12269,"ssier</w>":12270,"cred":12271,"crew</w>":12272,"creating</w>":12273,"ectives</w>":12274,"ectivity</w>":12275,"ecticut</w>":12276,"Comics</w>":12277,"Common</w>":12278,"washer</w>":12279,"computed</w>":12280,"akes</w>":12281,"manuel</w>":12282,"viewpoints</w>":12283,"salaried</w>":12284,"tack":12285,"holiday":12286,"filed</w>":12287,"filmed</w>":12288,"Histor":12289,"menus</w>":12290,"budgeting</w>":12291,"weekday</w>":12292,"charges</w>":12293,"1,6":12294,"1,100</w>":12295,"borders</w>":12296,"centuries</w>":12297,"waist</w>":12298,"cycles</w>":12299,"cyclones</w>":12300,"harm</w>":12301,"harsh</w>":12302,"harash":12303,"lyrics</w>":12304,"macy</w>":12305,"macists</w>":12306,"attended</w>":12307,"solo</w>":12308,"solve</w>":12309,"soldiers</w>":12310,"antibiotics</w>":12311,"skatebo":12312,"assessing</w>":12313,"Colts</w>":12314,"health-related</w>":12315,"BeNeLiga</w>":12316,"Trayvon</w>":12317,"Trentino-":12318,"downturn</w>":12319,"tainties</w>":12320,"lity-":12321,"108</w>":12322,"remakes</w>":12323,"plant-based</w>":12324,"socializing</w>":12325,"fellow</w>":12326,"otron</w>":12327,"Roman</w>":12328,"donating</w>":12329,"Koreas</w>":12330,"Montr":12331,"Monsan":12332,"Moncler</w>":12333,"delicious</w>":12334,"indication</w>":12335,"identification</w>":12336,"1771</w>":12337,"speech</w>":12338,"speeds</w>":12339,
[...]
